{"version":"1.0","truncation":null,"padding":null,"added_tokens":[{"id":0,"special":true,"content":"[PAD]","single_word":false,"lstrip":false,"rstrip":false,"normalized":false},{"id":1,"special":true,"content":"[UNK]","single_word":false,"lstrip":false,"rstrip":false,"normalized":false},{"id":2,"special":true,"content":"[CLS]","single_word":false,"lstrip":false,"rstrip":false,"normalized":false},{"id":3,"special":true,"content":"[SEP]","single_word":false,"lstrip":false,"rstrip":false,"normalized":false},{"id":4,"special":true,"content":"[MASK]","single_word":false,"lstrip":false,"rstrip":false,"normalized":false}],"normalizer":{"type":"BertNormalizer","clean_text":true,"handle_chinese_chars":true,"strip_accents":null,"lowercase":true},"pre_tokenizer":{"type":"BertPreTokenizer"},"post_processor":null,"decoder":{"type":"WordPiece","prefix":"##","cleanup":true},"model":{"type":"WordPiece","unk_token":"[UNK]","continuing_subword_prefix":"##","max_input_chars_per_word":100,"vocab":{"[PAD]":0,"[UNK]":1,"[CLS]":2,"[SEP]":3,"[MASK]":4,"!":5,"\"":6,"#":7,"$":8,"%":9,"&":10,"'":11,"(":12,")":13,"*":14,"+":15,",":16,"-":17,".":18,"/":19,"0":20,"1":21,"2":22,"3":23,"4":24,"5":25,"6":26,"7":27,"8":28,"9":29,":":30,";":31,"<":32,"=":33,">":34,"?":35,"@":36,"[":37,"\\":38,"]":39,"^":40,"_":41,"`":42,"a":43,"b":44,"c":45,"d":46,"e":47,"f":48,"g":49,"h":50,"i":51,"j":52,"k":53,"l":54,"m":55,"n":56,"o":57,"p":58,"q":59,"r":60,"s":61,"t":62,"u":63,"v":64,"w":65,"x":66,"y":67,"z":68,"{":69,"|":70,"}":71,"~":72,"«":73,"°":74,"±":75,"²":76,"·":77,"»":78,"×":79,"÷":80,"΄":81,"α":82,"β":83,"γ":84,"δ":85,"ε":86,"η":87,"ι":88,"κ":89,"λ":90,"μ":91,"ν":92,"ο":93,"π":94,"ρ":95,"ς":96,"σ":97,"τ":98,"υ":99,"ω":100,"а":101,"в":102,"г":103,"д":104,"е":105,"и":106,"к":107,"л":108,"м":109,"н":110,"о":111,"п":112,"р":113,"с":114,"т":115,"у":116,"ш":117,"щ":118,"ъ":119,"ы":120,"ا":121,"ل":122,"ᄀ":123,"ᄁ":124,"ᄂ":125,"ᄃ":126,"ᄄ":127,"ᄅ":128,"ᄆ":129,"ᄇ":130,"ᄈ":131,"ᄉ":132,"ᄊ":133,"ᄋ":134,"ᄌ":135,"ᄍ":136,"ᄎ":137,"ᄏ":138,"ᄐ":139,"ᄑ":140,"ᄒ":141,"ᅡ":142,"ᅢ":143,"ᅣ":144,"ᅤ":145,"ᅥ":146,"ᅦ":147,"ᅧ":148,"ᅨ":149,"ᅩ":150,"ᅪ":151,"ᅫ":152,"ᅬ":153,"ᅭ":154,"ᅮ":155,"ᅯ":156,"ᅰ":157,"ᅱ":158,"ᅲ":159,"ᅳ":160,"ᅴ":161,"ᅵ":162,"ᆨ":163,"ᆩ":164,"ᆪ":165,"ᆫ":166,"ᆬ":167,"ᆭ":168,"ᆮ":169,"ᆯ":170,"ᆰ":171,"ᆱ":172,"ᆲ":173,"ᆴ":174,"ᆵ":175,"ᆶ":176,"ᆷ":177,"ᆸ":178,"ᆹ":179,"ᆺ":180,"ᆻ":181,"ᆼ":182,"ᆽ":183,"ᆾ":184,"ᆿ":185,"ᇀ":186,"ᇁ":187,"ᇂ":188,"–":189,"—":190,"―":191,"‘":192,"’":193,"“":194,"”":195,"•":196,"․":197,"…":198,"′":199,"※":200,"℃":201,"ℓ":202,"ⅰ":203,"ⅱ":204,"ⅲ":205,"→":206,"−":207,"∼":208,"≪":209,"≫":210,"①":211,"②":212,"③":213,"④":214,"⑤":215,"⑥":216,"⑦":217,"⑧":218,"⑨":219,"⑴":220,"⑵":221,"⑶":222,"⑷":223,"⑸":224,"⑹":225,"⑺":226,"■":227,"□":228,"△":229,"○":230,"●":231,"☆":232,"♡":233,"♥":234,"、":235,"。":236,"〈":237,"〉":238,"《":239,"》":240,"「":241,"」":242,"『":243,"』":244,"い":245,"う":246,"か":247,"き":248,"く":249,"し":250,"た":251,"て":252,"と":253,"な":254,"に":255,"の":256,"は":257,"ま":258,"ら":259,"り":260,"る":261,"ん":262,"イ":263,"ク":264,"シ":265,"ス":266,"タ":267,"ト":268,"フ":269,"ラ":270,"リ":271,"ル":272,"ン":273,"・":274,"ー":275,"ㄱ":276,"ㄲ":277,"ㄴ":278,"ㄷ":279,"ㄹ":280,"ㅁ":281,"ㅂ":282,"ㅅ":283,"ㅆ":284,"ㅇ":285,"ㅈ":286,"ㅊ":287,"ㅋ":288,"ㅌ":289,"ㅍ":290,"ㅎ":291,"ㅏ":292,"ㅐ":293,"ㅑ":294,"ㅓ":295,"ㅔ":296,"ㅗ":297,"ㅛ":298,"ㅜ":299,"ㅠ":300,"ㅡ":301,"ㅣ":302,"ㅺ":303,"ㅻ":304,"ㅼ":305,"ㆍ":306,"㈎":307,"㈏":308,"㈐":309,"㈜":310,"㉠":311,"㉡":312,"㉮":313,"㉯":314,"㉰":315,"㎏":316,"㎜":317,"㎝":318,"㎞":319,"㎡":320,"㎥":321,"一":322,"丁":323,"七":324,"三":325,"上":326,"下":327,"不":328,"世":329,"丙":330,"中":331,"丹":332,"主":333,"久":334,"之":335,"乙":336,"九":337,"事":338,"二":339,"五":340,"井":341,"亞":342,"交":343,"京":344,"亭":345,"人":346,"仁":347,"仙":348,"代":349,"令":350,"以":351,"仲":352,"任":353,"伊":354,"伯":355,"位":356,"住":357,"佐":358,"佛":359,"作":360,"使":361,"來":362,"侍":363,"侯":364,"俊":365,"保":366,"信":367,"修":368,"倉":369,"傳":370,"像":371,"僧":372,"儀":373,"儒":374,"允":375,"元":376,"先":377,"光":378,"入":379,"內":380,"全":381,"八":382,"公":383,"六":384,"共":385,"兵":386,"具":387,"典":388,"出":389,"分":390,"初":391,"判":392,"別":393,"利":394,"制":395,"前":396,"副":397,"劇":398,"劉":399,"力":400,"功":401,"加":402,"動":403,"務":404,"勝":405,"勳":406,"化":407,"北":408,"區":409,"十":410,"千":411,"半":412,"協":413,"南":414,"博":415,"印":416,"卿":417,"原":418,"參":419,"友":420,"反":421,"受":422,"口":423,"古":424,"可":425,"台":426,"史":427,"右":428,"司":429,"合":430,"吉":431,"同":432,"名":433,"后":434,"吏":435,"君":436,"吳":437,"呂":438,"周":439,"命":440,"和":441,"咸":442,"品":443,"員":444,"哲":445,"唐":446,"商":447,"善":448,"喜":449,"嘉":450,"器":451,"嚴":452,"四":453,"因":454,"国":455,"國":456,"園":457,"圓":458,"圖":459,"團":460,"土":461,"在":462,"地":463,"址":464,"均":465,"坐":466,"城":467,"域":468,"基":469,"堂":470,"報":471,"場":472,"塔":473,"境":474,"墓":475,"壇":476,"士":477,"壽":478,"夏":479,"外":480,"多":481,"大":482,"天":483,"太":484,"夫":485,"奇":486,"奉":487,"奎":488,"女":489,"如":490,"妃":491,"始":492,"姓":493,"姜":494,"媛":495,"嫄":496,"子":497,"字":498,"孝":499,"学":500,"孫":501,"學":502,"宇":503,"守":504,"安":505,"宋":506,"完":507,"宗":508,"官":509,"定":510,"宣":511,"室":512,"宮":513,"家":514,"容":515,"寃":516,"密":517,"富":518,"察":519,"實":520,"寧":521,"寶":522,"寺":523,"射":524,"將":525,"尉":526,"尊":527,"對":528,"小":529,"少":530,"尙":531,"尹":532,"局":533,"居":534,"層":535,"屬":536,"山":537,"岩":538,"峰":539,"島":540,"崇":541,"崔":542,"巖":543,"川":544,"州":545,"工":546,"左":547,"市":548,"帝":549,"師":550,"常":551,"平":552,"年":553,"府":554,"度":555,"座":556,"庵":557,"康":558,"廟":559,"廣":560,"廳":561,"延":562,"建":563,"式":564,"弘":565,"張":566,"彌":567,"形":568,"彦":569,"律":570,"後":571,"徐":572,"得":573,"從":574,"御":575,"復":576,"德":577,"心":578,"志":579,"忠":580,"思":581,"性":582,"怨":583,"恩":584,"恭":585,"情":586,"惠":587,"惡":588,"想":589,"意":590,"愛":591,"愿":592,"慧":593,"慶":594,"憲":595,"應":596,"成":597,"我":598,"戰":599,"戶":600,"房":601,"所":602,"手":603,"承":604,"提":605,"援":606,"支":607,"政":608,"故":609,"敎":610,"敬":611,"數":612,"文":613,"斗":614,"新":615,"方":616,"族":617,"日":618,"旨":619,"昌":620,"明":621,"星":622,"春":623,"昭":624,"時":625,"晉":626,"普":627,"景":628,"智":629,"曲":630,"書":631,"曹":632,"會":633,"月":634,"有":635,"朝":636,"期":637,"木":638,"本":639,"朱":640,"朴":641,"李":642,"村":643,"東":644,"松":645,"板":646,"林":647,"果":648,"柱":649,"柳":650,"校":651,"根":652,"梁":653,"條":654,"梨":655,"植":656,"楊":657,"業":658,"極":659,"榮":660,"樂":661,"樞":662,"橋":663,"機":664,"權":665,"次":666,"歌":667,"正":668,"武":669,"死":670,"殿":671,"母":672,"毛":673,"氏":674,"民":675,"氣":676,"水":677,"永":678,"江":679,"池":680,"沅":681,"沈":682,"沙":683,"河":684,"治":685,"泉":686,"法":687,"波":688,"泥":689,"泰":690,"洋":691,"洙":692,"洞":693,"津":694,"洪":695,"洹":696,"派":697,"流":698,"浦":699,"海":700,"淑":701,"淳":702,"淵":703,"淸":704,"港":705,"湖":706,"湲":707,"源":708,"溪":709,"溫":710,"漢":711,"澤":712,"濟":713,"濡":714,"火":715,"烈":716,"無":717,"煥":718,"熙":719,"燕":720,"營":721,"爲":722,"父":723,"牧":724,"物":725,"特":726,"獻":727,"玄":728,"玉":729,"王":730,"珍":731,"現":732,"球":733,"理":734,"瑜":735,"瑞":736,"生":737,"産":738,"用":739,"田":740,"由":741,"甲":742,"申":743,"男":744,"町":745,"界":746,"留":747,"異":748,"畵":749,"發":750,"白":751,"百":752,"的":753,"皇":754,"益":755,"監":756,"盧":757,"目":758,"直":759,"相":760,"省":761,"眞":762,"督":763,"知":764,"石":765,"硫":766,"碑":767,"社":768,"祖":769,"神":770,"祠":771,"祭":772,"禁":773,"福":774,"禪":775,"禮":776,"禹":777,"秀":778,"私":779,"秋":780,"科":781,"秦":782,"移":783,"種":784,"空":785,"立":786,"章":787,"竹":788,"第":789,"等":790,"管":791,"節":792,"範":793,"精":794,"系":795,"紀":796,"紐":797,"純":798,"素":799,"結":800,"統":801,"經":802,"線":803,"縣":804,"總":805,"署":806,"羅":807,"美":808,"群":809,"義":810,"翼":811,"老":812,"者":813,"聖":814,"職":815,"育":816,"能":817,"臣":818,"臨":819,"自":820,"致":821,"臺":822,"臾":823,"興":824,"舊":825,"舍":826,"舞":827,"船":828,"良":829,"色":830,"花":831,"英":832,"草":833,"莊":834,"菩":835,"華":836,"萬":837,"蓮":838,"蔡":839,"薩":840,"藏":841,"藝":842,"藤":843,"蘇":844,"虎":845,"處":846,"號":847,"衆":848,"行":849,"術":850,"衛":851,"衣":852,"表":853,"製":854,"西":855,"要":856,"見":857,"親":858,"覺":859,"觀":860,"角":861,"解":862,"言":863,"訓":864,"記":865,"許":866,"試":867,"詩":868,"誘":869,"語":870,"誠":871,"說":872,"調":873,"論":874,"諛":875,"諸":876,"識":877,"議":878,"護":879,"變":880,"谷":881,"豊":882,"象":883,"貞":884,"貴":885,"資":886,"賢":887,"贊":888,"赤":889,"起":890,"越":891,"趙":892,"足":893,"路":894,"踰":895,"蹂":896,"身":897,"車":898,"軍":899,"載":900,"輔":901,"轉":902,"農":903,"近":904,"通":905,"造":906,"連":907,"進":908,"運":909,"道":910,"達":911,"遠":912,"遺":913,"邊":914,"邑":915,"郎":916,"郞":917,"郡":918,"部":919,"郭":920,"都":921,"鄕":922,"鄭":923,"醫":924,"里":925,"重":926,"野":927,"金":928,"銀":929,"錄":930,"錫":931,"鍮":932,"鍾":933,"鎭":934,"鐵":935,"長":936,"門":937,"開":938,"間":939,"閣":940,"關":941,"防":942,"阿":943,"陀":944,"院":945,"陰":946,"陳":947,"陵":948,"陸":949,"陽":950,"隆":951,"雄":952,"集":953,"雨":954,"雲":955,"電":956,"靈":957,"靑":958,"靖":959,"非":960,"面":961,"韓":962,"音":963,"順":964,"領":965,"頭":966,"類":967,"顯":968,"風":969,"養":970,"館":971,"首":972,"香":973,"馬":974,"驛":975,"體":976,"高":977,"魏":978,"魚":979,"鮮":980,"鳳":981,"鶴":982,"麗":983,"黃":984,"黨":985,"齊":986,"齋":987,"龍":988,"龜":989,"＆":990,"（":991,"）":992,"＋":993,"，":994,"－":995,"：":996,"＜":997,"＝":998,"＞":999,"？":1000,"［":1001,"］":1002,"ｍ":1003,"～":1004,"##ᅵ":1005,"##ᄇ":1006,"##ᅳ":1007,"##ᄅ":1008,"##ᄉ":1009,"##ᆨ":1010,"##ᄋ":1011,"##ᆷ":1012,"##ᄆ":1013,"##ᅧ":1014,"##ᆸ":1015,"##ᅡ":1016,"##ᅥ":1017,"##ᆯ":1018,"##ᄀ":1019,"##ᅣ":1020,"##8":1021,"##m":1022,"##ᅩ":1023,"##ᄐ":1024,"##ᅮ":1025,"##ᅢ":1026,"##ᆻ":1027,"##ᄃ":1028,"##ᆼ":1029,"##ᄄ":1030,"##ᄌ":1031,"##ᄂ":1032,"##ᆫ":1033,"##ᅬ":1034,"##ᄎ":1035,"##ᅦ":1036,"##ᆭ":1037,"##s":1038,"##p":1039,"##ᅱ":1040,"##ᄒ":1041,"##ᄁ":1042,"##ᅯ":1043,"##ᆮ":1044,"##ᅪ":1045,"##t":1046,"##u":1047,"##o":1048,"##r":1049,"##ᆾ":1050,"##ᄑ":1051,"##ᅴ":1052,"##ᅲ":1053,"##ᅭ":1054,"##ᄏ":1055,"##a":1056,"##y":1057,"##i":1058,"##e":1059,"##l":1060,"##ᆺ":1061,"##4":1062,"##1":1063,"##n":1064,"##9":1065,"##0":1066,"##ᆩ":1067,"##h":1068,"##3":1069,"##6":1070,"##ᆽ":1071,"##ㅠ":1072,"##ᇂ":1073,"##ᄊ":1074,"##ᄈ":1075,"##ᅫ":1076,"##ᅨ":1077,"##ᇀ":1078,"##ᄍ":1079,"##g":1080,"##ᆿ":1081,"##ㅋ":1082,"##x":1083,"##b":1084,"##c":1085,"##z":1086,"##d":1087,"##ᆬ":1088,"##k":1089,"##5":1090,"##7":1091,"##ᆹ":1092,"##2":1093,"##ᅰ":1094,"##ㅔ":1095,"##ㄱ":1096,"##㎡":1097,"##ン":1098,"##ᇁ":1099,"##ᅤ":1100,"##ᆲ":1101,"##f":1102,"##v":1103,"##ㅈ":1104,"##×":1105,"##ㅏ":1106,"##ㄹ":1107,"##⑥":1108,"##ㅎ":1109,"##ㅊ":1110,"##ㅁ":1111,"##ㆍ":1112,"##ㅜ":1113,"##＋":1114,"##ㅂ":1115,"##○":1116,"##ᆱ":1117,"##♥":1118,"##w":1119,"##≫":1120,"##ㅣ":1121,"##ᆰ":1122,"##③":1123,"##ㅅ":1124,"##∼":1125,"##j":1126,"##ｍ":1127,"##ㅇ":1128,"##ᆶ":1129,"##ㅓ":1130,"##ん":1131,"##の":1132,"##う":1133,"##い":1134,"##и":1135,"##к":1136,"##у":1137,"##л":1138,"##а":1139,"##с":1140,"##о":1141,"##㎥":1142,"##ㄷ":1143,"##°":1144,"##ᆴ":1145,"##ㅌ":1146,"##΄":1147,"##＞":1148,"##ㅡ":1149,"##ا":1150,"##ل":1151,"##㈎":1152,"##ㅐ":1153,"##→":1154,"##ㄴ":1155,"##●":1156,"##ㄲ":1157,"##ㅛ":1158,"##е":1159,"##т":1160,"##q":1161,"##①":1162,"##ⅲ":1163,"##ㅗ":1164,"##ト":1165,"##リ":1166,"##ー":1167,"##ク":1168,"##ス":1169,"##フ":1170,"##α":1171,"##τ":1172,"##ρ":1173,"##ι":1174,"##η":1175,"##ς":1176,"##℃":1177,"##か":1178,"##き":1179,"##γ":1180,"##μ":1181,"##ο":1182,"##ᆪ":1183,"##㎜":1184,"##±":1185,"##㎝":1186,"##て":1187,"##ㅍ":1188,"##～":1189,"##た":1190,"##り":1191,"##в":1192,"##д":1193,"##く":1194,"##に":1195,"##н":1196,"##ы":1197,"##÷":1198,"##⑴":1199,"##㎏":1200,"##し":1201,"##ル":1202,"##г":1203,"##ㅆ":1204,"##は":1205,"##な":1206,"##⑶":1207,"##＝":1208,"##ν":1209,"##δ":1210,"##υ":1211,"##λ":1212,"##♡":1213,"##②":1214,"##ラ":1215,"##ℓ":1216,"##ⅱ":1217,"##㈜":1218,"##ら":1219,"##イ":1220,"##ㅑ":1221,"##р":1222,"##²":1223,"##タ":1224,"##シ":1225,"##④":1226,"##ᆵ":1227,"##㎞":1228,"##β":1229,"##κ":1230,"##と":1231,"##る":1232,"##π":1233,"##σ":1234,"##≪":1235,"##＜":1236,"##п":1237,"##м":1238,"##ε":1239,"##☆":1240,"##ш":1241,"##㉮":1242,"##⑤":1243,"##㉰":1244,"##ω":1245,"##−":1246,"##△":1247,"##ъ":1248,"##ま":1249,"##⑧":1250,"##⑦":1251,"##㉯":1252,"##щ":1253,"##□":1254,"##ㅻ":1255,"##㉡":1256,"##㈏":1257,"##⑵":1258,"##㉠":1259,"##ㅺ":1260,"##ⅰ":1261,"##■":1262,"##⑷":1263,"##ㅼ":1264,"##⑸":1265,"##㈐":1266,"##⑺":1267,"##⑹":1268,"##⑨":1269,"##ᅳᆫ":1270,"##이":1271,"##ᅡᆫ":1272,"##ᅳᆯ":1273,"이":1274,"##다":1275,"##에":1276,"##는":1277,"##하":1278,"##고":1279,"##ᅥᆫ":1280,"##ᅳᄅ":1281,"##ᅡᆼ":1282,"##서":1283,"##의":1284,"##가":1285,"##ᅧᆫ":1286,"##을":1287,"##지":1288,"##시":1289,"##어":1290,"##ᅮᆫ":1291,"##ᅧᆼ":1292,"##도":1293,"##요":1294,"##니":1295,"##ᅥᆼ":1296,"##ᅡᆯ":1297,"##한":1298,"##은":1299,"아":1300,"##기":1301,"##ᅩᆼ":1302,"##로":1303,"##ᅯᆫ":1304,"그":1305,"가":1306,"거":1307,"##해":1308,"##를":1309,"##게":1310,"있":1311,"어":1312,"##여":1313,"사":1314,"##리":1315,"##ᅳᆷ":1316,"##라":1317,"##인":1318,"하":1319,"그ᄅ":1320,"##ᅳ로":1321,"지":1322,"##자":1323,"##ᅮᆯ":1324,"##ᅳᆼ":1325,"시":1326,"##스":1327,"##사":1328,"##구":1329,"##아":1330,"##면":1331,"##으로":1332,"대":1333,"##과":1334,"##ᆻ다":1335,"##저":1336,"##나":1337,"##ᅩᆨ":1338,"##들":1339,"##정":1340,"##ᆸ니":1341,"주":1342,"보":1343,"##데":1344,"##제":1345,"제":1346,"수":1347,"##되":1348,"##하여":1349,"기":1350,"##야":1351,"##에서":1352,"##ᆸ니다":1353,"해":1354,"##ᅥᆸ":1355,"##ᅧᆯ":1356,"나":1357,"##까":1358,"##부":1359,"조":1360,"##거":1361,"자":1362,"##장":1363,"네":1364,"것":1365,"마":1366,"##원":1367,"저":1368,"다":1369,"##주":1370,"##대":1371,"##ᅩᆫ":1372,"위":1373,"##적":1374,"예":1375,"한":1376,"부":1377,"##상":1378,"되":1379,"정":1380,"그러":1381,"##ᅢᆼ":1382,"##년":1383,"바":1384,"##와":1385,"원":1386,"##화":1387,"이ᄅ":1388,"##유":1389,"과":1390,"피":1391,"##치":1392,"##금":1393,"##만":1394,"##ᅢᆨ":1395,"##려":1396,"인":1397,"##일":1398,"전":1399,"##수":1400,"일":1401,"구":1402,"미":1403,"오":1404,"의":1405,"##용":1406,"여":1407,"##미":1408,"##법":1409,"##하고":1410,"같":1411,"상":1412,"##하는":1413,"##보":1414,"모":1415,"##우":1416,"없":1417,"경":1418,"##성":1419,"##국":1420,"##건":1421,"##습니다":1422,"##무":1423,"소":1424,"아니":1425,"##으":1426,"##실":1427,"##조":1428,"##소":1429,"##ᅥᆯ":1430,"##분":1431,"##는데":1432,"##ᅳᆨ":1433,"##ᅥᆷ":1434,"##세":1435,"##ᇂ게":1436,"공":1437,"##당":1438,"##회":1439,"뭐":1440,"내":1441,"##동":1442,"##문":1443,"##전":1444,"##할":1445,"##행":1446,"관":1447,"##었":1448,"##ᅣᆼ":1449,"때":1450,"##워":1451,"##계":1452,"##위":1453,"중":1454,"유":1455,"우":1456,"고":1457,"##죠":1458,"##마":1459,"##00":1460,"안":1461,"또":1462,"##호":1463,"##ㅋㅋ":1464,"##히":1465,"화":1466,"##신":1467,"##터":1468,"##음":1469,"등":1470,"있는":1471,"비":1472,"19":1473,"피고":1474,"차":1475,"##단":1476,"있다":1477,"##심":1478,"##비":1479,"##이다":1480,"선":1481,"##ᆨ을":1482,"##간":1483,"##관":1484,"##재":1485,"##결":1486,"##된":1487,"않":1488,"##산":1489,"##오":1490,"##바":1491,"##ᅥᇂ게":1492,"##명":1493,"말":1494,"그래":1495,"그런":1496,"##니까":1497,"##ᆨ이":1498,"음":1499,"##라고":1500,"생":1501,"##월":1502,"도":1503,"##차":1504,"##권":1505,"##들이":1506,"##었다":1507,"##업":1508,"##진":1509,"##며":1510,"##르":1511,"판":1512,"##선":1513,"##던":1514,"##ᆷ이":1515,"사건":1516,"##체":1517,"에":1518,"이제":1519,"원고":1520,"동":1521,"##래":1522,"당":1523,"국":1524,"##든":1525,"할":1526,"##한다":1527,"서":1528,"##학":1529,"무":1530,"지금":1531,"노":1532,"개":1533,"##민":1534,"신":1535,"##드":1536,"##트":1537,"대한":1538,"##네":1539,"같은":1540,"##그":1541,"만":1542,"요":1543,"좀":1544,"것이":1545,"세":1546,"##에는":1547,"진":1548,"분":1549,"어ᄄ":1550,"많":1551,"사실":1552,"연":1553,"근":1554,"##교":1555,"우리":1556,"##에게":1557,"문":1558,"법":1559,"##생":1560,"##공":1561,"영":1562,"##해서":1563,"결":1564,"##내":1565,"계":1566,"##ᆻ습니다":1567,"##판":1568,"들":1569,"발":1570,"따":1571,"##타":1572,"이런":1573,"##속":1574,"##각":1575,"##식":1576,"##물":1577,"##어요":1578,"##적으로":1579,"재":1580,"추":1581,"##까지":1582,"##경":1583,"##러":1584,"##하게":1585,"김":1586,"알":1587,"##부터":1588,"와":1589,"건":1590,"##방":1591,"##표":1592,"받":1593,"##겨":1594,"사라":1595,"##안":1596,"200":1597,"##면서":1598,"이렇게":1599,"불":1600,"치":1601,"그렇":1602,"##통":1603,"##ᆷ을":1604,"방":1605,"##록":1606,"야":1607,"##령":1608,"후":1609,"##항":1610,"##청":1611,"경우":1612,"##운":1613,"##ᅵ고":1614,"##ᅥᆨ":1615,"##연":1616,"##급":1617,"게":1618,"##류":1619,"성":1620,"##른":1621,"##영":1622,"##송":1623,"##지만":1624,"##예":1625,"##증":1626,"##개":1627,"더":1628,"##하였다":1629,"제1":1630,"처":1631,"20":1632,"실":1633,"그래서":1634,"반":1635,"##적인":1636,"명":1637,"하는":1638,"##반":1639,"##ᆻ는데":1640,"통":1641,"교":1642,"배":1643,"##추":1644,"장":1645,"너":1646,"##합":1647,"##중":1648,"남":1649,"##아요":1650,"및":1651,"##더":1652,"회":1653,"##라는":1654,"##군":1655,"매":1656,"스":1657,"##oc":1658,"##모":1659,"##했다":1660,"##십":1661,"변":1662,"본":1663,"##져":1664,"##등":1665,"##디":1666,"현":1667,"##역":1668,"각":1669,"##냐":1670,"doc":1671,"##다고":1672,"잘":1673,"##테":1674,"##ᅳ리":1675,"##료":1676,"특":1677,"최":1678,"얘":1679,"##두":1680,"##번":1681,"##본":1682,"##처":1683,"입":1684,"##므로":1685,"##피":1686,"##키":1687,"##ᆻ으":1688,"##ᆻ고":1689,"##약":1690,"##후":1691,"하고":1692,"##작":1693,"##양":1694,"##하기":1695,"##론":1696,"두":1697,"얘기":1698,"때문":1699,"##셔":1700,"취":1701,"##지고":1702,"좋":1703,"##하지":1704,"사람":1705,"적":1706,"이유":1707,"행":1708,"##출":1709,"##ᅦ이":1710,"원심":1711,"못":1712,"강":1713,"포":1714,"그거":1715,"근데":1716,"##ᆸ니까":1717,"청":1718,"##매":1719,"하여":1720,"##임":1721,"라":1722,"점":1723,"##종":1724,"단":1725,"그리고":1726,"##티":1727,"##형":1728,"##직":1729,"참":1730,"이거":1731,"금":1732,"##태":1733,"##준":1734,"증":1735,"##천":1736,"##ㅋㅋㅋㅋ":1737,"감":1738,"때문에":1739,"들어":1740,"##설":1741,"201":1742,"작":1743,"##울":1744,"##잖":1745,"한다":1746,"피고인":1747,"돼":1748,"채":1749,"부분":1750,"양":1751,"##발":1752,"살":1753,"##ᆯ리":1754,"파":1755,"된":1756,"##푸":1757,"인제":1758,"번":1759,"##님":1760,"규":1761,"##능":1762,"##하면":1763,"출":1764,"##력":1765,"##ᆻ던":1766,"물":1767,"설":1768,"따라":1769,"##말":1770,"##질":1771,"많이":1772,"집":1773,"종":1774,"확":1775,"학":1776,"임":1777,"##혀":1778,"맞":1779,"같이":1780,"형":1781,"약":1782,"어떤":1783,"인정":1784,"##립":1785,"##노":1786,"있어":1787,"##들은":1788,"##ᆻ어요":1789,"##되어":1790,"직":1791,"왜":1792,"삼":1793,"##입":1794,"##외":1795,"##액":1796,"박":1797,"##함":1798,"##토":1799,"##께":1800,"은":1801,"##술":1802,"역":1803,"##버":1804,"다음":1805,"##파":1806,"달":1807,"##거든":1808,"함":1809,"판결":1810,"없다":1811,"타":1812,"##험":1813,"##포":1814,"##카":1815,"씨":1816,"##련":1817,"##현":1818,"##되었다":1819,"##석":1820,"토":1821,"상고":1822,"문제":1823,"##희":1824,"이게":1825,"##ᆺ이":1826,"##난":1827,"생각":1828,"제가":1829,"다른":1830,"는":1831,"##배":1832,"운":1833,"##점":1834,"있었":1835,"외":1836,"주장":1837,"##늘":1838,"##지는":1839,"10":1840,"정도":1841,"##근":1842,"손":1843,"199":1844,"##란":1845,"평":1846,"대하여":1847,"##에도":1848,"사용":1849,"심":1850,"또는":1851,"##들을":1852,"##환":1853,"##황":1854,"하나":1855,"##녀":1856,"목":1857,"##입니다":1858,"##규":1859,"것으로":1860,"있으":1861,"##격":1862,"##담":1863,"##거든요":1864,"##득":1865,"제2":1866,"##랑":1867,"##에서는":1868,"판단":1869,"##세요":1870,"##잖아요":1871,"##되는":1872,"##짜":1873,"있습니다":1874,"##죄":1875,"있고":1876,"호":1877,"데":1878,"민":1879,"열":1880,"##겠":1881,"##찰":1882,"볼":1883,"##씨":1884,"필":1885,"##머":1886,"간":1887,"##레":1888,"##별":1889,"12":1890,"북":1891,"그렇죠":1892,"로":1893,"##들의":1894,"항":1895,"어떻게":1896,"그렇게":1897,"초":1898,"새":1899,"##자가":1900,"##거나":1901,"걸":1902,"없는":1903,"##족":1904,"##기에":1905,"##ᆻ을":1906,"##ᆯ라":1907,"##루":1908,"오늘":1909,"관한":1910,"##기를":1911,"합":1912,"##ᅳ라":1913,"##절":1914,"##면은":1915,"산":1916,"##대로":1917,"##크":1918,"그런데":1919,"##예요":1920,"##프":1921,"##ᅵᆷ":1922,"규정":1923,"애":1924,"검":1925,"##인이":1926,"되는":1927,"앞":1928,"##하다":1929,"받아":1930,"이를":1931,"##승":1932,"저는":1933,"먹":1934,"##편":1935,"##판결":1936,"너무":1937,"그ᄂ":1938,"범":1939,"##향":1940,"괴":1941,"##째":1942,"막":1943,"표":1944,"##라도":1945,"##받":1946,"##통령":1947,"##때":1948,"리":1949,"##이나":1950,"000":1951,"##인데":1952,"##복":1953,"그러니까":1954,"체":1955,"봐":1956,"##집":1957,"대통령":1958,"##량":1959,"##겠습니다":1960,"여러":1961,"##백":1962,"미국":1963,"내가":1964,"##견":1965,"당시":1966,"될":1967,"서울":1968,"##애":1969,"##ᆼ장":1970,"##목":1971,"##코":1972,"##언":1973,"언":1974,"##택":1975,"##남":1976,"##병":1977,"그냥":1978,"것은":1979,"##률":1980,"##품":1981,"##학교":1982,"드":1983,"아이":1984,"이상":1985,"##변":1986,"이후":1987,"11":1988,"나오":1989,"##씀":1990,"권":1991,"내용":1992,"##초":1993,"##ᅳ를":1994,"##강":1995,"##달":1996,"말씀":1997,"허":1998,"사이":1999,"##지를":2000,"누":2001,"##기가":2002,"굉장":2003,"제3":2004,"필요":2005,"##쪽":2006,"다시":2007,"##사를":2008,"속":2009,"##망":2010,"친":2011,"##리를":2012,"군":2013,"##육":2014,"굉장히":2015,"정말":2016,"총":2017,"한국":2018,"을":2019,"##기도":2020,"##쳐":2021,"있는데":2022,"카":2023,"일본":2024,"별":2025,"##다는":2026,"대표":2027,"계속":2028,"아니라":2029,"##구요":2030,"않아":2031,"독":2032,"가지고":2033,"##날":2034,"혀":2035,"시간":2036,"해당":2037,"것이다":2038,"끄":2039,"환":2040,"##린":2041,"##법원":2042,"선고":2043,"##느":2044,"##합니다":2045,"198":2046,"날":2047,"함께":2048,"승":2049,"##습니까":2050,"했":2051,"##한테":2052,"##투":2053,"활":2054,"##도록":2055,"##로서":2056,"##자의":2057,"##순":2058,"태":2059,"관련":2060,"보면":2061,"##에요":2062,"싶":2063,"##ᆻ다고":2064,"엄":2065,"뒤":2066,"##0년":2067,"##책":2068,"코":2069,"상황":2070,"생가":2071,"대해서":2072,"만들":2073,"지급":2074,"##인의":2075,"준":2076,"의하여":2077,"여기":2078,"버":2079,"##ᅦᆫ":2080,"##이고":2081,"##범":2082,"있을":2083,"그럼":2084,"것을":2085,"해서":2086,"식":2087,"##네요":2088,"##어서":2089,"##례":2090,"책":2091,"진짜":2092,"거예요":2093,"돌":2094,"##사가":2095,"소유":2096,"##접":2097,"우리가":2098,"투":2099,"##성이":2100,"있다고":2101,"가능":2102,"돈":2103,"충":2104,"논":2105,"이러":2106,"##감":2107,"자신":2108,"##써":2109,"얼":2110,"##박":2111,"백":2112,"이야":2113,"프로":2114,"시작":2115,"##즈":2116,"갖":2117,"가장":2118,"##억":2119,"그게":2120,"18":2121,"##축":2122,"상당":2123,"피해":2124,"##럼":2125,"거죠":2126,"응":2127,"완":2128,"##취":2129,"청구":2130,"편":2131,"천":2132,"기재":2133,"어려":2134,"담":2135,"##ᆻ어":2136,"##채":2137,"##ᆻ으며":2138,"##쟁":2139,"##이라고":2140,"##온":2141,"##철":2142,"##다가":2143,"느":2144,"##하면서":2145,"많은":2146,"##슨":2147,"워":2148,"##행위":2149,"가지":2150,"##ᅳ러":2151,"##장이":2152,"국민":2153,"##정을":2154,"모두":2155,"##이유":2156,"소송":2157,"##케":2158,"현재":2159,"십":2160,"주문":2161,"##하시":2162,"정치":2163,"##평":2164,"##봐":2165,"저희":2166,"##되었":2167,"##민국":2168,"갑":2169,"메":2170,"존":2171,"##원을":2172,"##효":2173,"변호":2174,"면":2175,"원고의":2176,"패":2177,"영화":2178,"큰":2179,"절":2180,"##율":2181,"용":2182,"##ᆻ는":2183,"있어서":2184,"줄":2185,"##습":2186,"##독":2187,"관하여":2188,"##돼":2189,"##원이":2190,"##처럼":2191,"국가":2192,"순":2193,"복":2194,"##기는":2195,"쓰":2196,"그러면":2197,"아무":2198,"원심판결":2199,"대한민국":2200,"그니까":2201,"나와":2202,"년":2203,"네네":2204,"##사의":2205,"##주의":2206,"사업":2207,"##정이":2208,"##보다":2209,"##너":2210,"보고":2211,"며":2212,"##긴":2213,"##년에":2214,"제1항":2215,"법률":2216,"아닌":2217,"##장을":2218,"관계":2219,"##더라도":2220,"##켜":2221,"##락":2222,"겨":2223,"##지가":2224,"난":2225,"된다":2226,"북한":2227,"광":2228,"또한":2229,"사회":2230,"끝":2231,"등을":2232,"증거":2233,"높":2234,"일부":2235,"##or":2236,"중요":2237,"지역":2238,"15":2239,"##름":2240,"머":2241,"처음":2242,"##호증":2243,"##색":2244,"##없":2245,"병":2246,"이에":2247,"발생":2248,"등의":2249,"않는":2250,"##활":2251,"##될":2252,"##불":2253,"사람이":2254,"##허":2255,"##어나":2256,"##까요":2257,"이번":2258,"정부":2259,"갈":2260,"##광":2261,"결국":2262,"##북":2263,"찾":2264,"##로부터":2265,"기록":2266,"##혼":2267,"##벌":2268,"##되고":2269,"육":2270,"##된다":2271,"##ᆻ다는":2272,"##칙":2273,"를":2274,"##er":2275,"수도":2276,"##아가":2277,"##8년":2278,"넘":2279,"있어요":2280,"업":2281,"위법":2282,"바로":2283,"##권을":2284,"토지":2285,"결과":2286,"##탁":2287,"포함":2288,"합니다":2289,"효":2290,"그때":2291,"조금":2292,"해야":2293,"이름":2294,"##ᆺ을":2295,"##했":2296,"모르":2297,"들어가":2298,"벌":2299,"좋은":2300,"경우에는":2301,"상고이유":2302,"좋아":2303,"##드리":2304,"##금을":2305,"##창":2306,"##악":2307,"그러나":2308,"##익":2309,"베":2310,"197":2311,"되고":2312,"위한":2313,"진행":2314,"##ᆷ에":2315,"##ᅳ래":2316,"##하며":2317,"일단":2318,"재판":2319,"협":2320,"##제로":2321,"따라서":2322,"정당":2323,"##9년":2324,"##7년":2325,"##6년":2326,"##존":2327,"##가지고":2328,"##5년":2329,"일반":2330,"##처분":2331,"이용":2332,"철":2333,"##친":2334,"##으로서":2335,"되었다":2336,"##4년":2337,"##어져":2338,"선수":2339,"질":2340,"모든":2341,"자기":2342,"##자를":2343,"의하면":2344,"뜨":2345,"이루":2346,"있었다":2347,"방법":2348,"##메":2349,"##리는":2350,"##리가":2351,"직접":2352,"##베":2353,"디":2354,"팔":2355,"알아":2356,"손해":2357,"##상의":2358,"##2년":2359,"왕":2360,"중국":2361,"##이라":2362,"귀":2363,"한번":2364,"부담":2365,"보내":2366,"나가":2367,"온":2368,"키":2369,"##성을":2370,"##부분":2371,"잡":2372,"16":2373,"사실은":2374,"##으면":2375,"##끼":2376,"##해야":2377,"##극":2378,"##회사":2379,"첫":2380,"기각":2381,"하면":2382,"이미":2383,"무슨":2384,"크":2385,"##사실":2386,"원고가":2387,"##ᆯ이":2388,"##력이":2389,"아주":2390,"상태":2391,"어디":2392,"##3년":2393,"##런":2394,"##동산":2395,"황":2396,"행위":2397,"푸":2398,"이하":2399,"히":2400,"##션":2401,"##상을":2402,"##ᆻ으나":2403,"회사":2404,"위해":2405,"니":2406,"새로":2407,"활동":2408,"몇":2409,"##1년":2410,"##관계":2411,"##응":2412,"##시는":2413,"##센":2414,"까":2415,"##들에":2416,"세계":2417,"##ᆩ에":2418,"올":2419,"##으며":2420,"##력을":2421,"##원의":2422,"먼":2423,"##획":2424,"그는":2425,"##ᆯ로":2426,"기준":2427,"거기":2428,"송":2429,"##시키":2430,"하지":2431,"##자는":2432,"제4":2433,"##on":2434,"혼":2435,"결정":2436,"보이":2437,"창":2438,"농":2439,"##회의":2440,"##la":2441,"주식":2442,"보여":2443,"##같":2444,"보니까":2445,"말이":2446,"##들에게":2447,"만나":2448,"의한":2449,"사실을":2450,"이러한":2451,"위하여":2452,"테":2453,"##살":2454,"##계약":2455,"쉬":2456,"뿐":2457,"17":2458,"##고요":2459,"##권이":2460,"##하였고":2461,"##엔":2462,"##누":2463,"월":2464,"14":2465,"##청구":2466,"##열":2467,"겁니다":2468,"##으로써":2469,"##am":2470,"것도":2471,"폭":2472,"얘기를":2473,"축":2474,"마음":2475,"잠":2476,"##에서도":2477,"##탈":2478,"의미":2479,"나는":2480,"##기로":2481,"##되지":2482,"힘":2483,"위해서":2484,"30":2485,"##길":2486,"##브":2487,"##확":2488,"##찬":2489,"13":2490,"##글":2491,"번째":2492,"프ᄅ":2493,"학생":2494,"얼마":2495,"##이었":2496,"##나라":2497,"라고":2498,"눈":2499,"했다":2500,"##막":2501,"특별":2502,"캐":2503,"확인":2504,"홍":2505,"##전에":2506,"##ᆫ드":2507,"##지의":2508,"##왕":2509,"바ᄁ":2510,"되어":2511,"뭔":2512,"##ㅋㅋㅋㅋㅋㅋㅋㅋ":2513,"##추어":2514,"부동산":2515,"##손":2516,"영향":2517,"변호사":2518,"접":2519,"싸":2520,"자체":2521,"##이라는":2522,"않고":2523,"경제":2524,"##겠다":2525,"위와":2526,"동안":2527,"알려":2528,"##무를":2529,"죽":2530,"소외":2531,"하는데":2532,"특히":2533,"##봉":2534,"없이":2535,"##어진":2536,"##페":2537,"명의":2538,"##사업":2539,"##ᆺ은":2540,"##하여야":2541,"##빠":2542,"수가":2543,"##려고":2544,"##머니":2545,"약간":2546,"196":2547,"##칠":2548,"##시에":2549,"하지만":2550,"쪼":2551,"측":2552,"위치":2553,"##징":2554,"##한다고":2555,"의원":2556,"아직":2557,"##삼":2558,"건물":2559,"전에":2560,"##시아":2561,"조선":2562,"피고의":2563,"##데요":2564,"##in":2565,"아마":2566,"레":2567,"빠":2568,"경찰":2569,"여부":2570,"엄마":2571,"##협":2572,"##일에":2573,"##위원":2574,"사고":2575,"방송":2576,"##비용":2577,"넣":2578,"먼저":2579,"선거":2580,"##리아":2581,"##an":2582,"후보":2583,"##다음":2584,"글":2585,"##하기로":2586,"##정한":2587,"예예":2588,"퍼":2589,"생각을":2590,"티":2591,"##리에":2592,"적용":2593,"밝":2594,"지방":2595,"##앙":2596,"##들도":2597,"##스ᄐ":2598,"##스트":2599,"생각이":2600,"아까":2601,"##의를":2602,"##측":2603,"##상이":2604,"어느":2605,"윤":2606,"##이가":2607,"##ᆺ도":2608,"커":2609,"구성":2610,"의견":2611,"진술":2612,"##즘":2613,"##잖아":2614,"##셨":2615,"##지에":2616,"##ᆸ게":2617,"했는데":2618,"친구":2619,"##다면":2620,"징":2621,"##녕":2622,"준비":2623,"##지로":2624,"전체":2625,"혹":2626,"없고":2627,"##피고":2628,"잘모":2629,"즉":2630,"그의":2631,"시행":2632,"지난":2633,"취득":2634,"비추어":2635,"그리":2636,"##정의":2637,"##혜":2638,"뉴":2639,"등에":2640,"그다음":2641,"하더라도":2642,"선생":2643,"거의":2644,"이십":2645,"않은":2646,"일이":2647,"##소송":2648,"처분":2649,"##서는":2650,"있으며":2651,"##었는데":2652,"##가를":2653,"##했던":2654,"자유":2655,"노래":2656,"##층":2657,"것이고":2658,"상대":2659,"사이에":2660,"##시면":2661,"종합":2662,"있지":2663,"##구나":2664,"연구":2665,"중요한":2666,"쪽":2667,"##곡":2668,"이천":2669,"##서를":2670,"올라":2671,"##하다고":2672,"##더라고":2673,"되게":2674,"행정":2675,"바라":2676,"##ᅳ레":2677,"관리":2678,"##인을":2679,"아버":2680,"##도를":2681,"##등학교":2682,"범죄":2683,"##ᅳ려":2684,"피고가":2685,"떨":2686,"학교":2687,"존재":2688,"##식을":2689,"##조의":2690,"계약":2691,"그걸":2692,"##팔":2693,"##원에":2694,"거야":2695,"망":2696,"도시":2697,"이는":2698,"##소를":2699,"것이므로":2700,"둘":2701,"얻":2702,"알고":2703,"##위를":2704,"휴":2705,"대법원":2706,"##느냐":2707,"##하거나":2708,"##ᆺ한":2709,"##쿠":2710,"않을":2711,"꼬":2712,"제5":2713,"때는":2714,"폐":2715,"교육":2716,"##약을":2717,"##관의":2718,"배우":2719,"공동":2720,"25":2721,"##이며":2722,"거기에":2723,"##어가":2724,"납":2725,"##으므로":2726,"##럽":2727,"##자로":2728,"그렇습니다":2729,"안녕":2730,"있다는":2731,"사람들이":2732,"##자인":2733,"문제가":2734,"##퍼":2735,"놓":2736,"##기간":2737,"##도가":2738,"나타":2739,"##으로부터":2740,"##줘":2741,"##츠":2742,"##균":2743,"##볼":2744,"##ame":2745,"통해":2746,"##화를":2747,"##훈":2748,"내지":2749,"것인":2750,"##호증의":2751,"##장에":2752,"됩니다":2753,"##든지":2754,"달리":2755,"향":2756,"떠":2757,"올리":2758,"변경":2759,"플":2760,"한편":2761,"딱":2762,"나머":2763,"##정에":2764,"운영":2765,"같애":2766,"##도로":2767,"##칭":2768,"같다":2769,"##특":2770,"##ᆷ의":2771,"##총":2772,"급":2773,"이야기":2774,"재산":2775,"칠":2776,"##스의":2777,"##음을":2778,"##착":2779,"되는데":2780,"등이":2781,"##그래":2782,"그래요":2783,"##구하고":2784,"##가요":2785,"역시":2786,"##군요":2787,"##ar":2788,"같습니다":2789,"##명의":2790,"채권":2791,"##으로는":2792,"신청":2793,"감사":2794,"##들과":2795,"##en":2796,"모습":2797,"헤":2798,"##임을":2799,"##인은":2800,"##중에":2801,"다음과":2802,"for":2803,"라는":2804,"설치":2805,"받은":2806,"이건":2807,"이와":2808,"원래":2809,"민주":2810,"##아서":2811,"침":2812,"이유로":2813,"공소":2814,"찌":2815,"##패":2816,"위반":2817,"하면서":2818,"교수":2819,"##랴":2820,"빨":2821,"위원":2822,"사망":2823,"정보":2824,"##액을":2825,"원고는":2826,"##밖에":2827,"대학":2828,"자신의":2829,"그다음에":2830,"경우에":2831,"보험":2832,"아니고":2833,"##침":2834,"수사":2835,"검찰":2836,"새로운":2837,"##기의":2838,"피고는":2839,"갖고":2840,"##명을":2841,"고려":2842,"운동":2843,"요즘":2844,"이해":2845,"오래":2846,"듣":2847,"##시고":2848,"괘":2849,"##mu":2850,"맛이":2851,"##았다":2852,"하였다":2853,"표현":2854,"없어":2855,"##ᆯ레":2856,"작성":2857,"##놓":2858,"##행을":2859,"제공":2860,"취소":2861,"써":2862,"##었던":2863,"조사":2864,"##탄":2865,"##호로":2866,"압":2867,"중에":2868,"채무":2869,"왜냐":2870,"개발":2871,"##스를":2872,"결혼":2873,"##념":2874,"짜":2875,"##었고":2876,"##적이":2877,"##했고":2878,"프랑":2879,"##게요":2880,"name":2881,"##대리":2882,"##도의":2883,"##좌":2884,"전문":2885,"##씩":2886,"##새":2887,"위법이":2888,"불구하고":2889,"하게":2890,"같아요":2891,"개인":2892,"거는":2893,"되면":2894,"괜":2895,"요구":2896,"길":2897,"##큼":2898,"퇴":2899,"기간":2900,"제1심":2901,"##깐":2902,"##정은":2903,"클":2904,"인정할":2905,"에서":2906,"가서":2907,"서로":2908,"없다고":2909,"물론":2910,"지나":2911,"##식이":2912,"저도":2913,"##ᆷ피":2914,"따른":2915,"##나요":2916,"영향을":2917,"제출":2918,"##하세요":2919,"거래":2920,"##뢰":2921,"탈":2922,"죄":2923,"##압":2924,"##커":2925,"##님이":2926,"궁":2927,"##리고":2928,"##주는":2929,"##플":2930,"재판장":2931,"22":2932,"마지":2933,"##충":2934,"개정":2935,"##mula":2936,"평가":2937,"##지방":2938,"##찮":2939,"##펴":2940,"체결":2941,"여러분":2942,"발표":2943,"##아야":2944,"formula":2945,"뭔가":2946,"나머지":2947,"주문과":2948,"##해요":2949,"21":2950,"맡":2951,"실제로":2952,"##헌":2953,"##ᆻ으면":2954,"의해":2955,"##필":2956,"##스는":2957,"##덕":2958,"이전":2959,"만들어":2960,"##스로":2961,"24":2962,"좋게":2963,"루":2964,"발견":2965,"##정에서":2966,"살펴":2967,"드리":2968,"극":2969,"##자에":2970,"원심이":2971,"##슈":2972,"##줄":2973,"받고":2974,"##벼":2975,"##동차":2976,"있던":2977,"희":2978,"건축":2979,"그래도":2980,"완전":2981,"##지도":2982,"성립":2983,"추가":2984,"수는":2985,"기본":2986,"##수를":2987,"인하여":2988,"당연":2989,"23":2990,"##신청":2991,"보통":2992,"핵":2993,"##였다":2994,"##at":2995,"##관이":2996,"밀":2997,"##치를":2998,"31":2999,"##개의":3000,"확정":3001,"골":3002,"꼭":3003,"이사":3004,"##ㅋㅋㅋ":3005,"앞서":3006,"##찌":3007,"상당히":3008,"##대를":3009,"##께서":3010,"근로":3011,"참여":3012,"돈을":3013,"##객":3014,"나라":3015,"##ᆻ죠":3016,"##레이":3017,"28":3018,"최고":3019,"##섯":3020,"대부분":3021,"느끼":3022,"조합":3023,"붙":3024,"양도":3025,"마지막":3026,"합의":3027,"##부에":3028,"만약":3029,"##즌":3030,"선생님":3031,"참조":3032,"##밀":3033,"믿":3034,"영국":3035,"여성":3036,"인한":3037,"##스테":3038,"##비용은":3039,"##굴":3040,"##전을":3041,"되지":3042,"의사":3043,"가족":3044,"곳":3045,"##시켜":3046,"##김":3047,"어렵":3048,"##수가":3049,"입장":3050,"##자에게":3051,"생활":3052,"제기":3053,"##스가":3054,"##ᆻ지만":3055,"제6":3056,"헌":3057,"바와":3058,"제2항":3059,"##하므로":3060,"기술":3061,"대법":3062,"찾아":3063,"아니면":3064,"사랑":3065,"터":3066,"26":3067,"으로":3068,"탄":3069,"##숙":3070,"000원":3071,"문화":3072,"전쟁":3073,"##했습니다":3074,"##절차":3075,"석":3076,"경기":3077,"##al":3078,"늘":3079,"맞아요":3080,"그건":3081,"구체":3082,"##이는":3083,"##하자":3084,"공개":3085,"돼요":3086,"노동":3087,"페":3088,"유지":3089,"판결한다":3090,"##히려":3091,"업무":3092,"저희가":3093,"##치는":3094,"##널":3095,"##틀":3096,"있었던":3097,"##림":3098,"194":3099,"##ᆫ다":3100,"인터":3101,"195":3102,"동일":3103,"##ᆻ는데요":3104,"오히려":3105,"##하신":3106,"악":3107,"##대에":3108,"않습니까":3109,"##대의":3110,"매매":3111,"내려":3112,"중심":3113,"##당이":3114,"##하도록":3115,"부터":3116,"피고인이":3117,"대해":3118,"27":3119,"곡":3120,"국제":3121,"신고":3122,"관여":3123,"##보고":3124,"독일":3125,"##명이":3126,"앞으로":3127,"했습니다":3128,"부분에":3129,"항소":3130,"##검":3131,"씨가":3132,"##가가":3133,"##슬":3134,"##es":3135,"규정하고":3136,"일치":3137,"여자":3138,"상고를":3139,"##물을":3140,"재미":3141,"##장의":3142,"꾸":3143,"괜찮":3144,"##략":3145,"##더니":3146,"##보면":3147,"그대로":3148,"퍼센":3149,"##겠죠":3150,"사기":3151,"##퇴":3152,"등록":3153,"##권의":3154,"##제를":3155,"##부를":3156,"역할":3157,"지원":3158,"##꾸":3159,"##한다는":3160,"풀":3161,"##먹":3162,"어머니":3163,"딸":3164,"으":3165,"##어지":3166,"통해서":3167,"##되기":3168,"##옥":3169,"##동안":3170,"잔":3171,"지정":3172,"원고에게":3173,"기업":3174,"봉":3175,"가져":3176,"##ᆸ을":3177,"제일":3178,"누구":3179,"판시":3180,"다양":3181,"예를":3182,"잘못":3183,"6월":3184,"##상에":3185,"##블":3186,"3월":3187,"##과의":3188,"돌아":3189,"것이라고":3190,"##최":3191,"제작":3192,"##료를":3193,"##수의":3194,"부산":3195,"언제":3196,"##하는데":3197,"당사":3198,"##회를":3199,"##디오":3200,"판매":3201,"소송대리":3202,"##ic":3203,"러":3204,"##더라":3205,"설립":3206,"아파":3207,"프로그래":3208,"사무":3209,"전화":3210,"12월":3211,"##웨":3212,"주식회사":3213,"말을":3214,"##귀":3215,"##장은":3216,"##척":3217,"##분이":3218,"암":3219,"사진":3220,"10월":3221,"우리나라":3222,"##격을":3223,"충분":3224,"29":3225,"아래":3226,"최근":3227,"팀":3228,"##함으로써":3229,"적법":3230,"여기서":3231,"보는":3232,"다만":3233,"제외":3234,"##위에":3235,"##돌":3236,"##윤":3237,"중앙":3238,"##튼":3239,"8월":3240,"4월":3241,"##운데":3242,"대한민국의":3243,"##어야":3244,"밝혀":3245,"전혀":3246,"ㅋㅋㅋㅋㅋ":3247,"게임":3248,"것처럼":3249,"형사":3250,"원심은":3251,"나온":3252,"감독":3253,"##대가":3254,"##드는":3255,"보호":3256,"100":3257,"아니한":3258,"어제":3259,"웨":3260,"##사에":3261,"7월":3262,"어째":3263,"정상":3264,"##ᅳ루":3265,"##자기":3266,"해주":3267,"구조":3268,"원심의":3269,"##가는":3270,"몰라":3271,"필요한":3272,"소속":3273,"##혁":3274,"엄청":3275,"이걸":3276,"파기":3277,"대출":3278,"##더라고요":3279,"##은행":3280,"1월":3281,"가는":3282,"빼":3283,"같은데":3284,"5월":3285,"건데":3286,"##도에":3287,"능":3288,"##ᆻ든":3289,"대통령이":3290,"국회":3291,"선택":3292,"##골":3293,"##있는":3294,"있기":3295,"처벌":3296,"남편":3297,"##잡":3298,"##참":3299,"사유":3300,"이라":3301,"힘들":3302,"도로":3303,"##었습니다":3304,"있죠":3305,"##끔":3306,"##릴":3307,"축구":3308,"##쓰":3309,"##거래":3310,"참가":3311,"비스":3312,"9월":3313,"##에서의":3314,"##같은":3315,"다르":3316,"목적":3317,"##문을":3318,"##사는":3319,"사건을":3320,"그럴":3321,"##세법":3322,"##없이":3323,"나도":3324,"도우":3325,"##시간":3326,"답":3327,"##하셔":3328,"분명":3329,"거지":3330,"후에":3331,"##받은":3332,"울":3333,"남아":3334,"연결":3335,"정도로":3336,"##고인":3337,"부분이":3338,"정책":3339,"##자들이":3340,"변론":3341,"##조에":3342,"깨":3343,"##융":3344,"임대":3345,"낮":3346,"##람":3347,"##하였다고":3348,"나서":3349,"##렇게":3350,"얼마나":3351,"블":3352,"싶은":3353,"의무":3354,"음악":3355,"삼십":3356,"실제":3357,"##is":3358,"소유권이":3359,"##갈":3360,"주택":3361,"이야기를":3362,"지적":3363,"##으나":3364,"녹":3365,"우선":3366,"##함에":3367,"##흥":3368,"위험":3369,"제7":3370,"##완":3371,"기타":3372,"독립":3373,"##대한":3374,"과거":3375,"트ᄅ":3376,"##욱":3377,"##위원회":3378,"담당":3379,"##시죠":3380,"##마다":3381,"스ᄐ":3382,"하기":3383,"정신":3384,"느ᄁ":3385,"부담으로":3386,"국내":3387,"##인데요":3388,"##재인":3389,"건강":3390,"기각한다":3391,"과세":3392,"##보험":3393,"퍼센트":3394,"##국의":3395,"술":3396,"인구":3397,"##까지는":3398,"권리":3399,"##상으로":3400,"##업을":3401,"불법":3402,"좌":3403,"성공":3404,"형태":3405,"시즌":3406,"안녕하세요":3407,"##전등":3408,"##부의":3409,"##와의":3410,"하셔":3411,"심리":3412,"지지":3413,"##일이":3414,"부과":3415,"##해주":3416,"대법관":3417,"##섭":3418,"해석":3419,"언론":3420,"옛":3421,"##동을":3422,"11월":3423,"비교":3424,"##부가":3425,"없으므로":3426,"스타":3427,"최초":3428,"착":3429,"고마":3430,"##클":3431,"관심":3432,"##리오":3433,"하루":3434,"상고인":3435,"##인지":3436,"주로":3437,"피고인의":3438,"일어나":3439,"운전":3440,"견":3441,"일을":3442,"상대방":3443,"##하던":3444,"해결":3445,"규정에":3446,"##장님":3447,"읽":3448,"##트를":3449,"##점을":3450,"경우는":3451,"##니아":3452,"먹고":3453,"특정":3454,"제한":3455,"자연":3456,"##피고인":3457,"##탕":3458,"비로":3459,"드라":3460,"빨리":3461,"##가지":3462,"##었어요":3463,"##he":3464,"##인으로":3465,"해요":3466,"가까":3467,"##조합":3468,"기록에":3469,"주민":3470,"##이에요":3471,"##답":3472,"##랜드":3473,"제대로":3474,"##세의":3475,"반대":3476,"근거":3477,"##풍":3478,"##시설":3479,"부분을":3480,"##먼":3481,"##받아":3482,"엔":3483,"##하였으며":3484,"보면은":3485,"가능성이":3486,"효과":3487,"##제가":3488,"무효":3489,"##ᆨ스":3490,"걱":3491,"##it":3492,"어떠":3493,"##점에":3494,"오해":3495,"뭘":3496,"손해배":3497,"##익을":3498,"문재인":3499,"유명":3500,"건설":3501,"##냐면":3502,"행사":3503,"소송대리인":3504,"##법에":3505,"##어도":3506,"##계획":3507,"##암":3508,"소개":3509,"##보증":3510,"뛰":3511,"몰":3512,"다니":3513,"##서에":3514,"남자":3515,"따르":3516,"당해":3517,"저기":3518,"부족":3519,"##기관":3520,"미국의":3521,"절차":3522,"##ᆸ습니다":3523,"어쨌든":3524,"##인가":3525,"인간":3526,"크게":3527,"경험":3528,"2월":3529,"감사합니다":3530,"있으므로":3531,"차량":3532,"혹시":3533,"역사":3534,"##선을":3535,"아니에요":3536,"인정한":3537,"출신":3538,"정확":3539,"살아":3540,"##ᅯᆯ":3541,"대신":3542,"##원은":3543,"##로는":3544,"##점이":3545,"##멸":3546,"아들":3547,"이행":3548,"이거는":3549,"##춘":3550,"매우":3551,"그만":3552,"가진":3553,"갑자기":3554,"단체":3555,"##는데요":3556,"##금의":3557,"가운데":3558,"##되었고":3559,"누가":3560,"달라":3561,"##ㅠㅠ":3562,"##따":3563,"다음에":3564,"끝나":3565,"설명":3566,"똑":3567,"##법인":3568,"긴":3569,"##든가":3570,"피해자":3571,"있게":3572,"소유권이전등":3573,"##는다":3574,"기자":3575,"그러므로":3576,"맞습니다":3577,"해당하는":3578,"정리":3579,"##팅":3580,"##촌":3581,"특별한":3582,"##하였":3583,"##스ᄅ":3584,"받을":3585,"있지만":3586,"오십":3587,"프랑스":3588,"계산":3589,"공소사실":3590,"흔":3591,"칼":3592,"시간이":3593,"분이":3594,"##식으로":3595,"분들이":3596,"나이":3597,"박근":3598,"##시행":3599,"그까":3600,"##뿐":3601,"##요일":3602,"찍":3603,"이번에":3604,"섬":3605,"##에스":3606,"자동차":3607,"바뀌":3608,"나중에":3609,"이르":3610,"##맹":3611,"##장으로":3612,"밥":3613,"##세를":3614,"##만을":3615,"##턴":3616,"##대상":3617,"같애요":3618,"193":3619,"빌":3620,"이래":3621,"본건":3622,"지내":3623,"풍":3624,"##대표":3625,"##임이":3626,"책임":3627,"##졌다":3628,"인사":3629,"주변":3630,"##혹":3631,"실질":3632,"##했는데":3633,"해도":3634,"##있":3635,"사항":3636,"줘":3637,"부분은":3638,"매수":3639,"작품":3640,"##폰":3641,"나ᄂ":3642,"##ᆷ은":3643,"텐":3644,"박근혜":3645,"소정의":3646,"##원으로":3647,"##관리":3648,"##도는":3649,"이라고":3650,"그렇지":3651,"있잖아요":3652,"##화가":3653,"만약에":3654,"인용":3655,"한다고":3656,"맞아":3657,"##고를":3658,"관련된":3659,"ㅋㅋㅋㅋㅋㅋㅋㅋㅋ":3660,"생산":3661,"때에는":3662,"이유가":3663,"불과":3664,"##지방법원":3665,"없을":3666,"했던":3667,"##이자":3668,"상황이":3669,"50":3670,"##으니까":3671,"당신":3672,"비용":3673,"다양한":3674,"제8":3675,"부당":3676,"이천십":3677,"##겠습니까":3678,"##하려":3679,"상속":3680,"옆":3681,"쫌":3682,"##물이":3683,"아니다":3684,"두고":3685,"자료":3686,"##치가":3687,"##물의":3688,"슈":3689,"외국":3690,"사실이":3691,"공사":3692,"##ᅮᆨ":3693,"나오는":3694,"##계를":3695,"당연히":3696,"##휘":3697,"언니":3698,"기준으로":3699,"높은":3700,"부모":3701,"영업":3702,"식으로":3703,"기억":3704,"조직":3705,"점을":3706,"출연":3707,"##보다는":3708,"##촉":3709,"아닌가":3710,"금액":3711,"범위":3712,"기존":3713,"혼자":3714,"궁금":3715,"청와":3716,"검사":3717,"사람들":3718,"전부":3719,"##ᆯ러":3720,"에이":3721,"##상고인":3722,"과학":3723,"유럽":3724,"공무":3725,"##건을":3726,"이어":3727,"##인에":3728,"수밖에":3729,"공격":3730,"스스로":3731,"##만이":3732,"##홍":3733,"##싸":3734,"##고등":3735,"유사":3736,"##짝":3737,"비판":3738,"부르":3739,"결론":3740,"항상":3741,"불가":3742,"안에":3743,"##꼬":3744,"##하기도":3745,"##비를":3746,"대하여는":3747,"2008":3748,"##어난":3749,"주요":3750,"환경":3751,"##격이":3752,"뇌":3753,"왜냐하면":3754,"비율":3755,"##이트":3756,"싫":3757,"자체가":3758,"소득":3759,"기초":3760,"환송":3761,"있으면":3762,"##원에서":3763,"아버지":3764,"원칙":3765,"##품을":3766,"##폭":3767,"작은":3768,"정한":3769,"것에":3770,"경영":3771,"대회":3772,"##장에서":3773,"몸":3774,"아파트":3775,"2007":3776,"적이":3777,"전투":3778,"많아":3779,"약속":3780,"얼굴":3781,"##납":3782,"주장은":3783,"주는":3784,"아하":3785,"전의":3786,"러시아":3787,"컴":3788,"만든":3789,"드라마":3790,"안전":3791,"뜻":3792,"올림피":3793,"##사유":3794,"거쳐":3795,"표시":3796,"##일을":3797,"혈":3798,"사례":3799,"대해서는":3800,"별지":3801,"없어요":3802,"##간에":3803,"##대학교":3804,"불러":3805,"가고":3806,"##스터":3807,"##재산":3808,"분양":3809,"##씬":3810,"목적으로":3811,"##le":3812,"염":3813,"##벽":3814,"집에":3815,"##시오":3816,"과정에서":3817,"근무":3818,"리그":3819,"이다":3820,"기능":3821,"현실":3822,"있도록":3823,"이후에":3824,"##소송법":3825,"우리는":3826,"색":3827,"원을":3828,"##염":3829,"##스타":3830,"투자":3831,"위치한":3832,"아닙니까":3833,"사람은":3834,"그에":3835,"##걸":3836,"집행":3837,"다투":3838,"시설":3839,"2009":3840,"알겠습니다":3841,"있거든요":3842,"##세기":3843,"하시":3844,"##음에도":3845,"##서의":3846,"실시":3847,"발행":3848,"##ᆻ기":3849,"맨":3850,"192":3851,"##성의":3852,"단순":3853,"센":3854,"수입":3855,"##군의":3856,"있는데요":3857,"아빠":3858,"시민":3859,"담보":3860,"##폐":3861,"지금은":3862,"동시에":3863,"액":3864,"교통":3865,"2006":3866,"그녀":3867,"##ou":3868,"##트로":3869,"##하였으나":3870,"제9":3871,"2005":3872,"변제":3873,"##시의":3874,"##ion":3875,"손해배상":3876,"##겠지만":3877,"여기에":3878,"보증":3879,"그렇다면":3880,"것으로서":3881,"내용을":3882,"자리":3883,"그랬":3884,"사정":3885,"대체":3886,"보수":3887,"##권에":3888,"아무런":3889,"나타나":3890,"과연":3891,"의견으로":3892,"##약이":3893,"인도":3894,"데이":3895,"잠깐":3896,"졸":3897,"끌":3898,"##뉴":3899,"어ᄍ":3900,"나아가":3901,"않는다":3902,"된다고":3903,"법인":3904,"##어를":3905,"점에":3906,"고소":3907,"케이":3908,"##흐":3909,"에스":3910,"##계약을":3911,"##0조":3912,"##자와":3913,"쇼":3914,"않을까":3915,"경우가":3916,"돌아가":3917,"태어나":3918,"등장":3919,"격":3920,"##괴":3921,"객":3922,"하겠습니다":3923,"##욕":3924,"역할을":3925,"옛날":3926,"그러한":3927,"##건설":3928,"##음이":3929,"##대금":3930,"받는":3931,"숙":3932,"않았다":3933,"##사무":3934,"충분히":3935,"곧":3936,"들어서":3937,"마찬":3938,"##비스":3939,"##케이":3940,"무어":3941,"##역을":3942,"헌법":3943,"훈":3944,"증언":3945,"##인에게":3946,"택":3947,"싱":3948,"슬":3949,"##하시는":3950,"흐":3951,"사정이":3952,"500":3953,"기다":3954,"부정":3955,"수행":3956,"##라면":3957,"패소":3958,"낙":3959,"##곳":3960,"##개발":3961,"공급":3962,"##건대":3963,"보기":3964,"밖에":3965,"##겠어요":3966,"마이":3967,"주고":3968,"혹은":3969,"대구":3970,"등기":3971,"##했으며":3972,"나오고":3973,"피상고인":3974,"##알":3975,"##하나":3976,"라이":3977,"##직이":3978,"##쉬":3979,"어린":3980,"사실상":3981,"##함이":3982,"타이":3983,"##민주":3984,"##ᆼ이":3985,"##주고":3986,"##특별":3987,"##시를":3988,"없다는":3989,"##단체":3990,"이탈":3991,"훨":3992,"움":3993,"없습니다":3994,"##사로":3995,"##안을":3996,"##개월":3997,"지도":3998,"##드를":3999,"본인이":4000,"the":4001,"말고":4002,"받았다":4003,"말씀을":4004,"그것이":4005,"##낙":4006,"일치된":4007,"지하":4008,"등으로":4009,"처리":4010,"시대":4011,"뿐만":4012,"##이야":4013,"봐야":4014,"하자":4015,"우승":4016,"##el":4017,"##호의":4018,"##om":4019,"훨씬":4020,"##쁘":4021,"알려져":4022,"혁":4023,"들고":4024,"점유":4025,"2003":4026,"완전히":4027,"2010년":4028,"있었는데":4029,"논란":4030,"2004":4031,"##만으로":4032,"하니까":4033,"쿠":4034,"##리의":4035,"##쪽으로":4036,"##빈":4037,"꺼":4038,"했어요":4039,"##성에":4040,"못한":4041,"올림픽":4042,"아니냐":4043,"인해":4044,"어려운":4045,"##인다":4046,"거기서":4047,"현대":4048,"##소득":4049,"##넷":4050,"님":4051,"그거는":4052,"산업":4053,"본다":4054,"것들이":4055,"아내":4056,"##과는":4057,"문제는":4058,"콘":4059,"상표":4060,"까지":4061,"##소에":4062,"##드시":4063,"요청":4064,"상고이유를":4065,"생겨":4066,"명백":4067,"고민":4068,"질문":4069,"적극":4070,"물어":4071,"문제를":4072,"정의":4073,"한다는":4074,"생각해":4075,"##뷔":4076,"얘기가":4077,"ㅋㅋㅋ":4078,"받아들":4079,"##휴":4080,"됐":4081,"각각":4082,"억":4083,"듣고":4084,"갔다":4085,"##프리":4086,"시절":4087,"자기가":4088,"있어야":4089,"##주시":4090,"파기하고":4091,"##했다고":4092,"앨":4093,"회사의":4094,"법령":4095,"그루":4096,"상고비용은":4097,"##km":4098,"상대로":4099,"##선의":4100,"##었다고":4101,"샤":4102,"틀":4103,"차지":4104,"##올":4105,"방향":4106,"##마는":4107,"이른":4108,"##컵":4109,"##소가":4110,"그것도":4111,"했고":4112,"자신이":4113,"홈":4114,"##ᆻ으니까":4115,"조건":4116,"##하였다는":4117,"은행":4118,"##춰":4119,"연락":4120,"내용이":4121,"만한":4122,"모양":4123,"##란드":4124,"##ᆻ는지":4125,"법리를":4126,"##기준":4127,"##re":4128,"##고등법원":4129,"##회가":4130,"찬":4131,"별로":4132,"##10":4133,"통하여":4134,"##as":4135,"자꾸":4136,"##단을":4137,"##쵸":4138,"민사":4139,"공식":4140,"특허":4141,"##하라":4142,"웃":4143,"##회에":4144,"계획":4145,"내일":4146,"시스테":4147,"공연":4148,"##된다고":4149,"발전":4150,"대전":4151,"바다":4152,"프리":4153,"##셨어요":4154,"전국":4155,"##였던":4156,"드러":4157,"앉":4158,"191":4159,"##ol":4160,"##하다는":4161,"일으":4162,"대학교":4163,"지구":4164,"지금까지":4165,"##명령":4166,"있으나":4167,"군사":4168,"주장하는":4169,"##상표":4170,"뒤에":4171,"보아":4172,"젊":4173,"##래도":4174,"반환":4175,"##으면서":4176,"수준":4177,"벗":4178,"##20":4179,"40":4180,"확실":4181,"않았":4182,"##심히":4183,"당시에":4184,"묘":4185,"##했을":4186,"이때":4187,"선정":4188,"평균":4189,"상담":4190,"논지는":4191,"자주":4192,"##어로":4193,"##단의":4194,"##드려":4195,"하다":4196,"##팀":4197,"##ㅎㅎ":4198,"익":4199,"쉽게":4200,"##이를":4201,"삶":4202,"금융":4203,"##킨":4204,"##치고":4205,"주장을":4206,"##조건":4207,"과실":4208,"거를":4209,"##취지":4210,"##하지만":4211,"정당한":4212,"##면에":4213,"명이":4214,"남북":4215,"국정":4216,"최종":4217,"자세":4218,"데뷔":4219,"따르면":4220,"##성은":4221,"와서":4222,"가리":4223,"##스럽":4224,"동의":4225,"걸로":4226,"##궁":4227,"발언":4228,"다이":4229,"##역이":4230,"오빠":4231,"##공사":4232,"필요가":4233,"개최":4234,"##호를":4235,"경쟁":4236,"소재":4237,"절대":4238,"그와":4239,"##되었으며":4240,"보아야":4241,"##ᅥᆯ리":4242,"뽀":4243,"김정은":4244,"걱정":4245,"대로":4246,"공간":4247,"##50":4248,"소리":4249,"##금이":4250,"티비":4251,"보시":4252,"거고":4253,"##주택":4254,"이름을":4255,"##금액":4256,"신용":4257,"이라는":4258,"##집행":4259,"##인과":4260,"허위":4261,"올려":4262,"2002":4263,"감정":4264,"맥":4265,"사람을":4266,"떠나":4267,"그것":4268,"##이죠":4269,"##이지":4270,"장관":4271,"하며":4272,"##운동":4273,"##하십니까":4274,"##죄로":4275,"피고인은":4276,"##저당":4277,"걸쳐":4278,"##꺼":4279,"##싱":4280,"##딩":4281,"2010":4282,"##채무":4283,"땅":4284,"깊":4285,"##되어야":4286,"법무":4287,"늦":4288,"##혈":4289,"이상의":4290,"오늘은":4291,"##적을":4292,"##오는":4293,"사십":4294,"##퓨":4295,"반드시":4296,"##us":4297,"##채권":4298,"구분":4299,"소론":4300,"이루어진":4301,"솔":4302,"##시가":4303,"허용":4304,"##품이":4305,"원고들의":4306,"범행":4307,"냉":4308,"측면":4309,"##선이":4310,"피고에게":4311,"##ᆻ지":4312,"##갑":4313,"##수는":4314,"바이":4315,"##호에":4316,"##ᆨ터":4317,"##2조":4318,"방법으로":4319,"##놓고":4320,"##당의":4321,"일본의":4322,"의료":4323,"무려":4324,"##일까지":4325,"공부":4326,"발매":4327,"대상":4328,"보이는":4329,"##드라":4330,"##변호":4331,"못하고":4332,"##일부터":4333,"휘":4334,"##려가":4335,"아니하고":4336,"밑":4337,"머리":4338,"##담을":4339,"이ᄁ":4340,"거부":4341,"##ᆯ린":4342,"어머":4343,"##있다":4344,"##프트":4345,"그동안":4346,"법리오":4347,"뭐가":4348,"열심히":4349,"##야지":4350,"##ᆻ으므로":4351,"공유":4352,"즐":4353,"##대는":4354,"김영":4355,"##보는":4356,"등급":4357,"사이의":4358,"잃":4359,"빈":4360,"있으니까":4361,"취지":4362,"이동":4363,"##렬":4364,"보다":4365,"법리오해":4366,"다섯":4367,"##수한":4368,"소멸":4369,"##et":4370,"##인들이":4371,"의뢰":4372,"지켜":4373,"말하는":4374,"따로":4375,"그룹":4376,"##화국":4377,"##핵":4378,"##엄":4379,"위에":4380,"##스러":4381,"##것":4382,"그렇군요":4383,"당사자":4384,"있었고":4385,"징계":4386,"##드로":4387,"스페":4388,"개정되기":4389,"쓴":4390,"국회의":4391,"기관":4392,"##학을":4393,"미리":4394,"전기":4395,"대단":4396,"##체가":4397,"시장":4398,"##기업":4399,"##체를":4400,"발생한":4401,"놀":4402,"##움":4403,"되었":4404,"여행":4405,"텐데":4406,"ㅋㅋ":4407,"대리":4408,"##번째":4409,"##몬":4410,"사는":4411,"가수":4412,"하여금":4413,"##들한테":4414,"추정":4415,"없었":4416,"##서가":4417,"주의":4418,"문자":4419,"공공":4420,"옮":4421,"아니야":4422,"##스티":4423,"##돈":4424,"##소유":4425,"##록을":4426,"##산업":4427,"징역":4428,"말씀드리":4429,"교부":4430,"합계":4431,"##등기":4432,"##쁜":4433,"작가":4434,"##지지":4435,"마련":4436,"기대":4437,"옥":4438,"형성":4439,"반응":4440,"##il":4441,"치료":4442,"##7조":4443,"먹는":4444,"##웅":4445,"임명":4446,"시험":4447,"고맙습니다":4448,"내용의":4449,"##미터":4450,"구속":4451,"활동을":4452,"대응":4453,"결국은":4454,"로마":4455,"##텐":4456,"##5조":4457,"##전의":4458,"##단이":4459,"인식":4460,"그러면은":4461,"##링":4462,"합리":4463,"##잔":4464,"##어는":4465,"##비아":4466,"##니깐":4467,"정당하고":4468,"이탈리아":4469,"내부":4470,"##심을":4471,"##엘":4472,"##원고":4473,"내에서":4474,"전해":4475,"2008년":4476,"##하다가":4477,"앨범":4478,"##농":4479,"팬":4480,"시행령":4481,"놓고":4482,"소비":4483,"##주세요":4484,"하나의":4485,"권한":4486,"##이었다":4487,"##ac":4488,"##형을":4489,"##주를":4490,"##키는":4491,"수상":4492,"##ing":4493,"모습을":4494,"##적으로는":4495,"##3조":4496,"뉴스":4497,"미친":4498,"봅니다":4499,"그가":4500,"인천":4501,"증거가":4502,"삼성":4503,"해외":4504,"신경":4505,"이루어져":4506,"##정보":4507,"프로그램":4508,"##시키는":4509,"##남도":4510,"##하죠":4511,"졸업":4512,"숨":4513,"침해":4514,"흥":4515,"##델":4516,"근저당":4517,"##허가":4518,"추진":4519,"끊":4520,"아우":4521,"##체의":4522,"##메이":4523,"##키고":4524,"##쪽에":4525,"제조":4526,"##함을":4527,"규모":4528,"단계":4529,"앞에":4530,"##부는":4531,"나올":4532,"때까지":4533,"##했지만":4534,"컴퓨":4535,"원판결":4536,"##호는":4537,"그거를":4538,"올해":4539,"금지":4540,"끼":4541,"2007년":4542,"세워":4543,"2000":4544,"말씀하신":4545,"그쵸":4546,"뭐야":4547,"중에서":4548,"##쇄":4549,"##스크":4550,"탐":4551,"크리":4552,"그러고":4553,"##쯤":4554,"넓":4555,"바랍니다":4556,"광주":4557,"##의가":4558,"이유없":4559,"열린":4560,"##우스":4561,"경기도":4562,"##뷰":4563,"분야":4564,"##os":4565,"객관":4566,"##1조":4567,"채택":4568,"살펴보면":4569,"##부장":4570,"##는지":4571,"음반":4572,"1년":4573,"제시":4574,"종류":4575,"교수님":4576,"아무래도":4577,"강제":4578,"##간의":4579,"##선거":4580,"##분에":4581,"직원":4582,"##과를":4583,"##놔":4584,"브라":4585,"다녀":4586,"##과에":4587,"의무가":4588,"경우도":4589,"방문":4590,"사람들은":4591,"케":4592,"해보":4593,"원심판결을":4594,"노력":4595,"##당을":4596,"이것은":4597,"수용":4598,"##대학":4599,"##4조":4600,"##수로":4601,"##힌":4602,"품":4603,"분위":4604,"##0년대":4605,"있고요":4606,"예상":4607,"밖":4608,"항공":4609,"이혼":4610,"주심":4611,"대여":4612,"그러면서":4613,"연합":4614,"산정":4615,"판사":4616,"욕":4617,"저녀":4618,"##주식":4619,"예정":4620,"운행":4621,"보도":4622,"##ᅥᆷ프":4623,"가면":4624,"월드":4625,"짧":4626,"길이":4627,"도와":4628,"청와대":4629,"소설":4630,"2009년":4631,"정부가":4632,"##우는":4633,"##자료":4634,"계시":4635,"같고":4636,"##렌":4637,"##감을":4638,"##여서":4639,"##단에":4640,"일반적으로":4641,"##제의":4642,"빠져":4643,"가격":4644,"##구를":4645,"생기":4646,"##세가":4647,"상품":4648,"작업":4649,"묻":4650,"쓸":4651,"들어와":4652,"##당에":4653,"##라이":4654,"##금으로":4655,"xx":4656,"인터넷":4657,"##핑":4658,"##ᅳ리고":4659,"in":4660,"2011":4661,"했을":4662,"목록":4663,"있는지":4664,"여론":4665,"##9조":4666,"가능한":4667,"명의로":4668,"##8조":4669,"2011년":4670,"행복":4671,"##위가":4672,"컴퓨터":4673,"쉽":4674,"니가":4675,"추천":4676,"##석이":4677,"거주":4678,"청구를":4679,"##군이":4680,"판단은":4681,"##자로서":4682,"차이가":4683,"##항에":4684,"##종의":4685,"지배":4686,"##위반":4687,"분류":4688,"전제로":4689,"ㅋㅋㅋㅋ":4690,"선언":4691,"##관한":4692,"있어서는":4693,"목소":4694,"퇴직":4695,"00":4696,"##전히":4697,"외교":4698,"인정되는":4699,"아닙니다":4700,"의원이":4701,"2001":4702,"##제한":4703,"##지원":4704,"##이기":4705,"꽃":4706,"##거리":4707,"##르는":4708,"구하는":4709,"##분을":4710,"##동에":4711,"보유":4712,"##방송":4713,"이외":4714,"부여":4715,"사건에":4716,"##문에":4717,"타고":4718,"##하였는데":4719,"매도":4720,"분들":4721,"##자들":4722,"비슷한":4723,"##픈":4724,"##쇼":4725,"이재":4726,"##텔":4727,"입증":4728,"##수에":4729,"##주에":4730,"시리":4731,"##였":4732,"넘어가":4733,"초과":4734,"##행위를":4735,"밤":4736,"벼":4737,"위배":4738,"부탁":4739,"1일":4740,"시청":4741,"라디오":4742,"거라고":4743,"좋을":4744,"확보":4745,"##분의":4746,"분석":4747,"통합":4748,"##ᅳᆺ":4749,"동생":4750,"##했다는":4751,"##페이":4752,"##법이":4753,"덕":4754,"들어보":4755,"있었다고":4756,"##긍":4757,"##내용":4758,"겸":4759,"첨":4760,"##렸다":4761,"분명히":4762,"직무":4763,"##쥐":4764,"내에":4765,"간에":4766,"증여":4767,"2012년":4768,"전달":4769,"##리그":4770,"##장과":4771,"이론":4772,"##맥":4773,"구체적인":4774,"##주가":4775,"납부":4776,"포기":4777,"##나가":4778,"뭐냐":4779,"##명은":4780,"저렇게":4781,"##캐":4782,"이익을":4783,"증가":4784,"그럼요":4785,"미래":4786,"유리":4787,"##6조":4788,"##만큼":4789,"##관을":4790,"##심이":4791,"##회에서":4792,"만에":4793,"##그러":4794,"쏘":4795,"##르크":4796,"##봐야":4797,"없었다":4798,"##적이고":4799,"아침":4800,"살피":4801,"레이":4802,"횡":4803,"##셨습니다":4804,"컨":4805,"의혹":4806,"##묘":4807,"차례":4808,"##ᆨ시":4809,"##듯이":4810,"000원을":4811,"베이":4812,"경상":4813,"잡아":4814,"집중":4815,"제주":4816,"##되면서":4817,"마을":4818,"하면은":4819,"해당한다고":4820,"##군은":4821,"씨는":4822,"##법을":4823,"##비가":4824,"음식":4825,"##맨":4826,"##생활":4827,"##하실":4828,"종합하여":4829,"##칸":4830,"##금에":4831,"상태에서":4832,"##리와":4833,"##지역":4834,"생각합니다":4835,"활용":4836,"##성과":4837,"##죄가":4838,"뿌":4839,"상호":4840,"본인":4841,"앞에서":4842,"말한다":4843,"2년":4844,"올라가":4845,"##ᆷ버":4846,"이로":4847,"쌍":4848,"정도의":4849,"통일":4850,"젊은":4851,"종교":4852,"##빙":4853,"##킹":4854,"이것이":4855,"때도":4856,"저녁":4857,"먹을":4858,"시켜":4859,"여름":4860,"쳐":4861,"##구역":4862,"나누":4863,"가입":4864,"취지의":4865,"속하는":4866,"손해를":4867,"것인데":4868,"##번에":4869,"아시":4870,"##닝":4871,"##행위에":4872,"명칭":4873,"##듯":4874,"##괄":4875,"특수":4876,"##사건":4877,"##틴":4878,"of":4879,"##나는":4880,"주인":4881,"서울특별":4882,"넣어":4883,"바꾸":4884,"도입":4885,"##내는":4886,"2014년":4887,"##어지는":4888,"##워서":4889,"##곱":4890,"관할":4891,"기원":4892,"##교육":4893,"특징":4894,"보입니다":4895,"최근에":4896,"청소":4897,"판단을":4898,"부인":4899,"떨어져":4900,"맛":4901,"언급":4902,"상당한":4903,"대표가":4904,"2006년":4905,"##밥":4906,"##소의":4907,"것들을":4908,"뽑":4909,"##당은":4910,"190":4911,"그러니까요":4912,"실패":4913,"##문화":4914,"지상":4915,"##얼":4916,"검토":4917,"##11":4918,"##ed":4919,"그렇기":4920,"연대":4921,"완성":4922,"##리지":4923,"60":4924,"사안":4925,"##슴":4926,"##조사":4927,"느낌이":4928,"##변호사":4929,"##fa":4930,"정하는":4931,"받지":4932,"##표를":4933,"##샤":4934,"만드는":4935,"##륙":4936,"##만에":4937,"수학":4938,"##리로":4939,"육십":4940,"변화":4941,"전자":4942,"가야":4943,"않습니다":4944,"마치":4945,"행동":4946,"여부를":4947,"상황에서":4948,"##기록":4949,"##트리":4950,"다음날":4951,"수익":4952,"##ᆻ고요":4953,"책임을":4954,"민족":4955,"트럼프":4956,"여전히":4957,"##변경":4958,"##등록":4959,"인수":4960,"광고":4961,"##구가":4962,"토지를":4963,"계좌":4964,"##같이":4965,"것입니다":4966,"맞는":4967,"북한이":4968,"st":4969,"##스에":4970,"철도":4971,"##문이":4972,"##트가":4973,"전통":4974,"##증법":4975,"거거든요":4976,"걔":4977,"기재와":4978,"##됐다":4979,"만큼":4980,"국민의":4981,"배척":4982,"##랄":4983,"##규칙":4984,"지속":4985,"##대요":4986,"것인바":4987,"##법의":4988,"생긴":4989,"이것":4990,"벌써":4991,"수긍":4992,"판단한다":4993,"걸리":4994,"느껴":4995,"법정":4996,"보상":4997,"토지의":4998,"##사고":4999,"왜냐면":5000,"아닐":5001,"##구에":5002,"중심으로":5003,"고등학교":5004,"겪":5005,"##하니까":5006,"인생":5007,"태양":5008,"돈이":5009,"기각하고":5010,"뒷":5011,"위임":5012,"##bs":5013,"영어":5014,"진출":5015,"##석을":5016,"토지에":5017,"있는바":5018,"아는":5019,"평화":5020,"뮤":5021,"분할":5022,"이유는":5023,"##id":5024,"##신을":5025,"쓰는":5026,"##초등학교":5027,"##30":5028,"아르":5029,"##되었다고":5030,"##감이":5031,"전형":5032,"##진다":5033,"##질을":5034,"##ᆻ었":5035,"신뢰":5036,"원고에":5037,"원고와":5038,"허가":5039,"비록":5040,"2013년":5041,"이익":5042,"소위":5043,"기어":5044,"##크로":5045,"조사를":5046,"대상이":5047,"래":5048,"처음으로":5049,"유일":5050,"주장에":5051,"##스와":5052,"그러다":5053,"피의":5054,"지휘":5055,"##룡":5056,"것과":5057,"주세요":5058,"인물":5059,"나눠":5060,"##셔서":5061,"##nd":5062,"##컬":5063,"##자들은":5064,"왔다":5065,"혐의":5066,"##이에":5067,"##익이":5068,"돼서":5069,"##전이":5070,"곤":5071,"때에":5072,"아예":5073,"갚":5074,"귀속":5075,"증인":5076,"##면을":5077,"전문가":5078,"##학이":5079,"그럼에도":5080,"되니까":5081,"훈련":5082,"임차":5083,"움직이":5084,"김정":5085,"굳":5086,"심판":5087,"불가능":5088,"##류를":5089,"봐요":5090,"잠시":5091,"도움이":5092,"##선에":5093,"##법률":5094,"일단은":5095,"##이므로":5096,"배상":5097,"##털":5098,"##받고":5099,"##죄의":5100,"제목":5101,"중간":5102,"이전에":5103,"##해져":5104,"##처분을":5105,"##점에서":5106,"##평가":5107,"봤을":5108,"겁니까":5109,"행위를":5110,"강화":5111,"##증을":5112,"더불":5113,"처음에":5114,"##산을":5115,"개의":5116,"된다는":5117,"요거":5118,"장애":5119,"##벨":5120,"##해보":5121,"위에서":5122,"##디어":5123,"엠":5124,"통과":5125,"채증법":5126,"##벤":5127,"시간을":5128,"##ᆻ거든요":5129,"##제에":5130,"##구의":5131,"요렇게":5132,"##위로":5133,"핵심":5134,"사법":5135,"##내에":5136,"선임":5137,"뚜":5138,"##르고":5139,"긍":5140,"##12":5141,"##의무":5142,"동일한":5143,"회의":5144,"사용하는":5145,"순간":5146,"##북도":5147,"##물에":5148,"메이":5149,"들어오":5150,"심각":5151,"##19":5152,"봄이":5153,"##관은":5154,"솔직":5155,"##해도":5156,"촉":5157,"##트ᄅ":5158,"##구백":5159,"경료":5160,"텔레":5161,"##해를":5162,"최소":5163,"취지로":5164,"서울고등법원":5165,"##ch":5166,"이거를":5167,"##시행령":5168,"##라든지":5169,"던":5170,"##력에":5171,"##누리":5172,"##헤":5173,"##담이":5174,"경매":5175,"이른바":5176,"##했어요":5177,"적절":5178,"더욱":5179,"2015년":5180,"이유에":5181,"비슷":5182,"기반":5183,"##십시오":5184,"집에서":5185,"3년":5186,"##이랑":5187,"수술":5188,"제3항":5189,"사정을":5190,"##뿐만":5191,"설정":5192,"관련하여":5193,"##앤":5194,"##부로":5195,"지연":5196,"##되면":5197,"2012":5198,"##엽":5199,"실험":5200,"명예":5201,"##음은":5202,"가르":5203,"임야":5204,"##크리":5205,"##이사":5206,"##콘":5207,"임의":5208,"아나":5209,"##60":5210,"맺":5211,"플레이":5212,"예술":5213,"##신고":5214,"안녕하십니까":5215,"##ᆺ가":5216,"##증이":5217,"쌓":5218,"##권은":5219,"회복":5220,"부동산에":5221,"##치지":5222,"보인다":5223,"제1호":5224,"겨울":5225,"흑":5226,"하나는":5227,"이끌":5228,"##량이":5229,"돌려":5230,"증명":5231,"##려면":5232,"##ᅪᆯ":5233,"포함한":5234,"##ᅳ라고":5235,"##다니":5236,"있었습니다":5237,"죄송":5238,"그것을":5239,"예비":5240,"##자치":5241,"##계가":5242,"##자들의":5243,"##해지":5244,"간단":5245,"쓰고":5246,"곳이":5247,"경우에도":5248,"바꿔":5249,"거짓":5250,"##인민":5251,"대화":5252,"오른":5253,"알게":5254,"300":5255,"접근":5256,"불안":5257,"챙":5258,"오는":5259,"##한데":5260,"그로":5261,"경과":5262,"##큐":5263,"##흠":5264,"2차":5265,"##더라구요":5266,"##사무소":5267,"칠십":5268,"##광역":5269,"저런":5270,"점이":5271,"우주":5272,"최대":5273,"##찍":5274,"대중":5275,"000만":5276,"명령":5277,"위해서는":5278,"##40":5279,"어떠한":5280,"기사":5281,"##직을":5282,"물리":5283,"천구백":5284,"오후":5285,"출전":5286,"##셔야":5287,"불리":5288,"##학생":5289,"제도":5290,"제10":5291,"##죄를":5292,"자가":5293,"##ot":5294,"임시":5295,"안철":5296,"화장":5297,"아니라고":5298,"##ur":5299,"##회는":5300,"##두고":5301,"비행":5302,"서울특별시":5303,"1998":5304,"##량을":5305,"70":5306,"대통령령":5307,"사건이":5308,"흘":5309,"제1심판결":5310,"2018년":5311,"##관계에":5312,"##만으로는":5313,"##기고":5314,"채용":5315,"##낸":5316,"이케":5317,"##연구":5318,"에너":5319,"고용":5320,"않다":5321,"시리즈":5322,"그죠":5323,"송달":5324,"진실":5325,"인터뷰":5326,"##듬":5327,"##라서":5328,"함은":5329,"2016년":5330,"범죄사실":5331,"흐ᄅ":5332,"관련해서":5333,"##식은":5334,"##식의":5335,"탑":5336,"칭":5337,"##받을":5338,"##번호":5339,"##질이":5340,"새누리":5341,"뭐라고":5342,"그리스":5343,"##계에":5344,"청구취지":5345,"##사항":5346,"강력":5347,"##트의":5348,"##톡":5349,"종료":5350,"먹어":5351,"공정":5352,"스포":5353,"있음을":5354,"80":5355,"요새":5356,"잉":5357,"##자리":5358,"##인인":5359,"살고":5360,"연기":5361,"##락을":5362,"무렵":5363,"1999":5364,"전환":5365,"##관에":5366,"해가지고":5367,"것이며":5368,"당시의":5369,"이명":5370,"무엇":5371,"청구는":5372,"##었을":5373,"놀라":5374,"##비전":5375,"이분":5376,"마음이":5377,"유명한":5378,"##ᅪᆯ영":5379,"##컨":5380,"신문":5381,"##단은":5382,"사무실":5383,"살피건대":5384,"어렵다":5385,"보면서":5386,"느낌":5387,"반영":5388,"이르러":5389,"낳":5390,"##제는":5391,"희망":5392,"##ad":5393,"미안":5394,"보조":5395,"폴":5396,"2005년":5397,"결과를":5398,"##결정":5399,"안정":5400,"##뇨":5401,"##트는":5402,"과정":5403,"##심판":5404,"더불어":5405,"거잖아요":5406,"유효":5407,"원내":5408,"회사가":5409,"보관":5410,"##베이":5411,"##ig":5412,"##드가":5413,"사람의":5414,"##이면":5415,"아유":5416,"답변":5417,"##콩":5418,"##되며":5419,"같아":5420,"일정":5421,"상실":5422,"못하는":5423,"##덴":5424,"##프리카":5425,"유치":5426,"##멘":5427,"하시는":5428,"나무":5429,"##와는":5430,"구십":5431,"굴":5432,"##풀":5433,"제품":5434,"##읍":5435,"##한국":5436,"조정":5437,"습":5438,"개별":5439,"##하에":5440,"##많":5441,"##ent":5442,"##80":5443,"대비":5444,"이슈":5445,"가정":5446,"불이":5447,"흡":5448,"##국이":5449,"##논":5450,"표준":5451,"##식에":5452,"##만한":5453,"초기":5454,"지역에":5455,"##적은":5456,"35":5457,"90":5458,"구체적으로":5459,"오스ᄐ":5460,"분리":5461,"##쿄":5462,"국방":5463,"##력은":5464,"이름이":5465,"##관계가":5466,"제외한":5467,"그림":5468,"##ᆯ게요":5469,"##곤":5470,"##둔":5471,"판결에":5472,"제2조":5473,"##가의":5474,"##겠지":5475,"어우":5476,"조성":5477,"쪽으로":5478,"명의의":5479,"장소":5480,"서비스":5481,"안에서":5482,"##안에":5483,"야구":5484,"##칙을":5485,"요리":5486,"보장":5487,"임대차":5488,"안타":5489,"##싶":5490,"병원":5491,"##액의":5492,"##금은":5493,"민주당":5494,"입장에서는":5495,"법관의":5496,"##od":5497,"주도":5498,"##액이":5499,"가게":5500,"계속해서":5501,"##상은":5502,"##작을":5503,"엘":5504,"워낙":5505,"1997":5506,"##관계를":5507,"##지급":5508,"##신청을":5509,"토론":5510,"계회":5511,"##전에서":5512,"기념":5513,"배치":5514,"했다고":5515,"않아요":5516,"저거":5517,"속에서":5518,"##지와":5519,"##르게":5520,"##만원":5521,"##였습니다":5522,"##우고":5523,"##가로":5524,"멀":5525,"빛":5526,"정치적":5527,"끓":5528,"당선":5529,"##형의":5530,"박사":5531,"##ᆻ더니":5532,"##상태":5533,"형법":5534,"##책임":5535,"32":5536,"뜻은":5537,"말이죠":5538,"2017년":5539,"##으시":5540,"전략":5541,"##려서":5542,"엄마가":5543,"1인":5544,"##었어":5545,"##지게":5546,"자치":5547,"##릉":5548,"조세":5549,"##하시면":5550,"등과":5551,"##까지도":5552,"모르게":5553,"##학과":5554,"누군":5555,"##계의":5556,"##없는":5557,"책을":5558,"##보를":5559,"관광":5560,"##라든가":5561,"관하여는":5562,"##진이":5563,"쇠":5564,"결합":5565,"##가지로":5566,"작용":5567,"##말로":5568,"목표":5569,"##으려":5570,"국민들이":5571,"속에":5572,"##군을":5573,"계약을":5574,"약정":5575,"됐습니다":5576,"##아버":5577,"지역의":5578,"주주":5579,"개월":5580,"##iv":5581,"하다가":5582,"안철수":5583,"##하려고":5584,"네네네":5585,"청년":5586,"중단":5587,"##조를":5588,"주인공":5589,"부적":5590,"##로서는":5591,"2004년":5592,"모르는":5593,"다툼이":5594,"어서":5595,"##어들":5596,"하죠":5597,"애니":5598,"##메리":5599,"오랜":5600,"아니하는":5601,"김종":5602,"##재를":5603,"##당한":5604,"그렇고":5605,"역이":5606,"##겠어":5607,"입장을":5608,"폐지":5609,"##매매":5610,"##저히":5611,"##지에서":5612,"name1":5613,"##처벌":5614,"##나다":5615,"했지만":5616,"높아":5617,"##ᆻ잖아요":5618,"공모":5619,"쭉":5620,"성장":5621,"캐리":5622,"촬영":5623,"잇":5624,"들면":5625,"##시다":5626,"##기와":5627,"나한테":5628,"펼":5629,"할머니":5630,"김용":5631,"이제는":5632,"당초":5633,"좋아하는":5634,"없는데":5635,"듭니다":5636,"갈등":5637,"##수록":5638,"혜":5639,"##스토":5640,"논란이":5641,"공무원":5642,"도착":5643,"최초의":5644,"획":5645,"##이의":5646,"여부에":5647,"되었고":5648,"종합하면":5649,"42":5650,"대선":5651,"##웃":5652,"생각하는":5653,"팔십":5654,"##하겠습니다":5655,"매입":5656,"##ec":5657,"##시효":5658,"##됩니다":5659,"없으며":5660,"##겠네요":5661,"##절차를":5662,"매일":5663,"베트":5664,"##톤":5665,"자는":5666,"##켓":5667,"##스코":5668,"##ᆻ으니":5669,"##쎄":5670,"수령":5671,"##가가치":5672,"것이어서":5673,"투표":5674,"원고들이":5675,"기원전":5676,"##형이":5677,"선출":5678,"통상":5679,"##표준":5680,"미사":5681,"##핀":5682,"민법":5683,"득":5684,"어때":5685,"아직도":5686,"##만의":5687,"수출":5688,"권리를":5689,"상황을":5690,"##나무":5691,"월드컵":5692,"교과":5693,"옮겨":5694,"출발":5695,"##시킨":5696,"계신":5697,"놔":5698,"개혁":5699,"##어지고":5700,"않게":5701,"##하고자":5702,"##로를":5703,"##하려는":5704,"뉴욕":5705,"각종":5706,"야당":5707,"취득한":5708,"판단한":5709,"음음":5710,"##프로":5711,"데이터":5712,"거절":5713,"되죠":5714,"결의":5715,"189":5716,"##가에":5717,"중화":5718,"페이":5719,"웅":5720,"배당":5721,"밝히":5722,"##정부":5723,"있다면":5724,"##하겠다":5725,"명확":5726,"아무리":5727,"##호가":5728,"말이에요":5729,"##안이":5730,"공제":5731,"인구는":5732,"##으로서는":5733,"##학자":5734,"##작이":5735,"척":5736,"근까":5737,"자본":5738,"둔":5739,"설계":5740,"옆에":5741,"평양":5742,"요건":5743,"##op":5744,"이것을":5745,"##담보":5746,"제거":5747,"당원":5748,"##이었던":5749,"분들은":5750,"##회사의":5751,"전체의":5752,"싶습니다":5753,"이용하여":5754,"심지":5755,"결과가":5756,"받아들이":5757,"있구요":5758,"때부터":5759,"실행":5760,"가까운":5761,"주장과":5762,"시도":5763,"효력이":5764,"##닌":5765,"의해서":5766,"소론과":5767,"주목":5768,"사회적":5769,"##율이":5770,"##계약의":5771,"받게":5772,"소련":5773,"점점":5774,"점에서":5775,"##이드":5776,"이주":5777,"비밀":5778,"금원을":5779,"적법한":5780,"하나로":5781,"맞춰":5782,"모델":5783,"키워":5784,"정보를":5785,"동물":5786,"##던데":5787,"소송비용은":5788,"비롯":5789,"해봐":5790,"##st":5791,"멸":5792,"##이기도":5793,"진보":5794,"현재의":5795,"##책을":5796,"맛있":5797,"멤버":5798,"않으면":5799,"지시":5800,"여섯":5801,"##년이":5802,"아프":5803,"##침에":5804,"##ᆻ다가":5805,"균":5806,"연장":5807,"##15":5808,"것이죠":5809,"부합":5810,"어쩌":5811,"어찌":5812,"직업":5813,"##세는":5814,"마찬가지로":5815,"당심":5816,"초등학교":5817,"내용은":5818,"##깨":5819,"간의":5820,"제국":5821,"##홉":5822,"관계가":5823,"##재판":5824,"##랙":5825,"이자":5826,"잘못이":5827,"2002년":5828,"피해자의":5829,"충청":5830,"환송한다":5831,"뭐냐면":5832,"##문의":5833,"예산":5834,"등은":5835,"참고":5836,"##13":5837,"재심":5838,"##경을":5839,"적극적으로":5840,"##참가":5841,"것이라":5842,"도움을":5843,"##ᆰ은":5844,"##줘야":5845,"##스탄":5846,"##하였던":5847,"뜻이":5848,"##씨가":5849,"##ia":5850,"이유없다":5851,"한다면":5852,"그를":5853,"것인지":5854,"##것도":5855,"장면":5856,"글쎄":5857,"임금":5858,"거다":5859,"##부터는":5860,"##기재":5861,"참석":5862,"체포":5863,"도쿄":5864,"이것도":5865,"##70":5866,"클럽":5867,"노무":5868,"기재에":5869,"이정":5870,"싱글":5871,"fc":5872,"입법":5873,"##자동차":5874,"튀":5875,"북한에":5876,"지적하는":5877,"##바이":5878,"45":5879,"지금도":5880,"같은데요":5881,"대부분의":5882,"##신탁":5883,"생각하고":5884,"법무법인":5885,"저작":5886,"##압류":5887,"판결을":5888,"33":5889,"비롯한":5890,"보이고":5891,"##ᅳ레이":5892,"##붙":5893,"웹":5894,"수수":5895,"진정":5896,"##ow":5897,"##둥":5898,"승강":5899,"선발":5900,"##등에":5901,"##광역시":5902,"##육을":5903,"방법이":5904,"빌려":5905,"적어도":5906,"물건":5907,"사건의":5908,"주말":5909,"커피":5910,"입장에서":5911,"쪼끔":5912,"그려":5913,"협의":5914,"김성":5915,"이백":5916,"##들로":5917,"##받는":5918,"의견이":5919,"태어났다":5920,"언어":5921,"##시기":5922,"##ᆷ으로써":5923,"하이":5924,"##공무":5925,"되기":5926,"##린다":5927,"대지":5928,"2000년":5929,"회원":5930,"예전에":5931,"기각하기로":5932,"갖추":5933,"##해진":5934,"정도가":5935,"다행":5936,"##사와":5937,"##하였을":5938,"##차를":5939,"하나가":5940,"##군에":5941,"아니한다":5942,"전반":5943,"##체에":5944,"대상으로":5945,"쟁":5946,"마무":5947,"##ᆺ어":5948,"의심":5949,"됐다":5950,"##손해":5951,"##기술":5952,"사용할":5953,"##렉":5954,"1995":5955,"기여":5956,"##에이":5957,"##별로":5958,"##조서":5959,"##첩":5960,"##14":5961,"주거":5962,"작곡":5963,"다들":5964,"잊":5965,"반복":5966,"적법하게":5967,"비서":5968,"소유권":5969,"하였고":5970,"##스러운":5971,"강원":5972,"근저당권":5973,"종전":5974,"나타난":5975,"##건축":5976,"짓":5977,"시기":5978,"선물":5979,"##ation":5980,"영상":5981,"입은":5982,"콩":5983,"그분":5984,"실질적으로":5985,"##덜":5986,"##16":5987,"솔직히":5988,"ch":5989,"##려는":5990,"##사용":5991,"1996":5992,"##내고":5993,"##시킬":5994,"시작했다":5995,"##쳤다":5996,"##하였는":5997,"확장":5998,"국회의원":5999,"##아이":6000,"##신문":6001,"텔레비전":6002,"위의":6003,"일정한":6004,"파이":6005,"세월":6006,"##조의2":6007,"몽":6008,"부가가치":6009,"##거운":6010,"사태":6011,"##처리":6012,"규정을":6013,"마음을":6014,"##ᅰ손":6015,"인근":6016,"자녀":6017,"살짝":6018,"##스럽게":6019,"##부에서":6020,"비난":6021,"되면은":6022,"##냥":6023,"차용":6024,"교황":6025,"힘든":6026,"##카이":6027,"아름":6028,"최초로":6029,"매각":6030,"이름으로":6031,"베트남":6032,"가슴":6033,"fi":6034,"장기":6035,"바탕":6036,"##드립니다":6037,"조항":6038,"아시아":6039,"옷":6040,"남성":6041,"이적":6042,"깜":6043,"섭":6044,"전라":6045,"이란":6046,"강조":6047,"##노동":6048,"수능":6049,"출판":6050,"심사":6051,"##ter":6052,"기독":6053,"36":6054,"기계":6055,"드려":6056,"그날":6057,"확대":6058,"##규모":6059,"##드의":6060,"##냐고":6061,"싶어":6062,"한데":6063,"국립":6064,"기한":6065,"만화":6066,"싫어":6067,"##사소송법":6068,"회사에":6069,"##시키고":6070,"때문이다":6071,"##um":6072,"##끼리":6073,"나와서":6074,"스트레":6075,"있었어요":6076,"##메이션":6077,"##신이":6078,"보겠습니다":6079,"있습니까":6080,"##연합":6081,"관계를":6082,"무조건":6083,"퀴":6084,"##하기에":6085,"신탁":6086,"##인민공":6087,"##대체":6088,"시가":6089,"대통령의":6090,"2003년":6091,"배우이다":6092,"근처":6093,"##교통":6094,"외에":6095,"남겨":6096,"최저":6097,"##동이":6098,"집단":6099,"매출":6100,"##행위가":6101,"##간다":6102,"반가":6103,"##율을":6104,"##깔":6105,"사상":6106,"피해자가":6107,"허리":6108,"##거야":6109,"연속":6110,"저지":6111,"어떡":6112,"강한":6113,"든":6114,"방식으로":6115,"메시":6116,"조치":6117,"##덟":6118,"캐릭터":6119,"합병":6120,"전세":6121,"좋아요":6122,"##움을":6123,"하는데요":6124,"아쉬":6125,"##로운":6126,"자산":6127,"유사한":6128,"##명으로":6129,"곳에":6130,"조치를":6131,"2013":6132,"##른다":6133,"주차":6134,"관심을":6135,"##했으나":6136,"##나게":6137,"##일의":6138,"것이라는":6139,"해당하지":6140,"##em":6141,"많다":6142,"상관":6143,"소유의":6144,"##천만":6145,"판시와":6146,"떨어진":6147,"1994":6148,"재항":6149,"사실인":6150,"##형법":6151,"오해한":6152,"가해":6153,"한반":6154,"어려워":6155,"캐나다":6156,"안타까":6157,"지급을":6158,"활약":6159,"시간에":6160,"얘길":6161,"##소는":6162,"자금":6163,"류":6164,"손실":6165,"동아":6166,"달러":6167,"힘을":6168,"그르":6169,"##이란":6170,"사전":6171,"십이":6172,"섞":6173,"##고등학교":6174,"불편":6175,"##후에":6176,"##하더라도":6177,"##진을":6178,"중의":6179,"##으신":6180,"공장":6181,"설명을":6182,"##그루":6183,"##낼":6184,"##ᆻ네":6185,"##러스":6186,"으흠":6187,"아들이":6188,"##홀":6189,"##트에":6190,"성적":6191,"##조가":6192,"이름은":6193,"##bc":6194,"기독교":6195,"의미가":6196,"일은":6197,"무서":6198,"단순히":6199,"트":6200,"의뢰인":6201,"##하였으므로":6202,"스테":6203,"##액에":6204,"자격":6205,"해제":6206,"아냐":6207,"개봉":6208,"꽤":6209,"##위의":6210,"##비에":6211,"가지는":6212,"휴대":6213,"##처분의":6214,"횡령":6215,"덜":6216,"##했어":6217,"1차":6218,"##않":6219,"없어서":6220,"감도":6221,"##주로":6222,"400":6223,"##보겠습니다":6224,"피고인에게":6225,"하기로":6226,"빅":6227,"나름":6228,"한정":6229,"이의":6230,"##ᆷ으로":6231,"통신":6232,"##ᅳ라이":6233,"서울시":6234,"이유를":6235,"##라인":6236,"명시":6237,"##자나":6238,"##으로서의":6239,"이럴":6240,"##시대":6241,"##로서의":6242,"피해를":6243,"압수":6244,"거짓말":6245,"2019년":6246,"##하셨":6247,"제1항에":6248,"보십니까":6249,"##목으로":6250,"승인":6251,"정규":6252,"방지":6253,"##와서":6254,"책임이":6255,"##차가":6256,"##25":6257,"하신":6258,"자동":6259,"##수도":6260,"받아들일":6261,"이번에는":6262,"사연":6263,"##선은":6264,"##학적":6265,"##록이":6266,"##경찰":6267,"폭행":6268,"반소":6269,"##겠다고":6270,"복잡":6271,"층":6272,"##90":6273,"##im":6274,"옳":6275,"도대체":6276,"연예":6277,"청취":6278,"건가요":6279,"방해":6280,"가끔":6281,"연방":6282,"##왔다":6283,"##주식회사":6284,"시키":6285,"##운드":6286,"블랙":6287,"본격":6288,"나쁜":6289,"넘어":6290,"필리":6291,"그만큼":6292,"선배":6293,"깔":6294,"크로":6295,"소장":6296,"변호인":6297,"스포츠":6298,"법원":6299,"아니겠습니까":6300,"건물의":6301,"후반":6302,"부동산을":6303,"사실에":6304,"없게":6305,"원인":6306,"경제적":6307,"둘러":6308,"입금":6309,"사과":6310,"준비를":6311,"런":6312,"포인":6313,"예전":6314,"위협":6315,"적은":6316,"##젝":6317,"밴드":6318,"아이고":6319,"말도":6320,"좋다":6321,"##락이":6322,"절차를":6323,"비율에":6324,"##항소":6325,"애니메이션":6326,"남은":6327,"방어":6328,"##ra":6329,"형식":6330,"##뮤":6331,"##푼":6332,"출입":6333,"과정을":6334,"때가":6335,"현장":6336,"##다른":6337,"찾아가":6338,"민간":6339,"고통":6340,"지급할":6341,"##시마":6342,"그것은":6343,"38":6344,"어디서":6345,"공익":6346,"안보":6347,"왼":6348,"있을까요":6349,"##바로":6350,"계열":6351,"그들의":6352,"있다가":6353,"숫":6354,"원인으로":6355,"하셨":6356,"승리":6357,"km":6358,"##ᆸ고":6359,"냄":6360,"굳이":6361,"보존":6362,"좋지":6363,"##칼":6364,"##17":6365,"##롱":6366,"아니요":6367,"34":6368,"힘이":6369,"문제에":6370,"##기까지":6371,"역임":6372,"건지":6373,"얘기는":6374,"##정도":6375,"구입":6376,"단지":6377,"##ᆻ나":6378,"##갖":6379,"개설":6380,"지하철":6381,"스토":6382,"영화이다":6383,"삭":6384,"##류의":6385,"조국":6386,"학년":6387,"경위":6388,"##18":6389,"##행위의":6390,"노동조합":6391,"여기까지":6392,"##버려":6393,"출시":6394,"청소년":6395,"##력의":6396,"##계약에":6397,"정기":6398,"일종":6399,"##법원에":6400,"검색":6401,"자유한국":6402,"##었죠":6403,"업무를":6404,"버스":6405,"알려진":6406,"살해":6407,"##시피":6408,"말씀드려":6409,"기분":6410,"세포":6411,"##설정":6412,"##센터":6413,"참작":6414,"##스라":6415,"##경제":6416,"짐":6417,"선수가":6418,"교환":6419,"일부를":6420,"##죄에":6421,"기본적으로":6422,"낮은":6423,"이승":6424,"채증법칙":6425,"센터":6426,"##인들":6427,"tv":6428,"현재는":6429,"제2차":6430,"##청구를":6431,"##성도":6432,"입고":6433,"결과에":6434,"벗어나":6435,"##밍":6436,"성격":6437,"조심":6438,"##몽":6439,"##시켰다":6440,"이명박":6441,"##및":6442,"1993":6443,"공산":6444,"유니":6445,"제안":6446,"##방을":6447,"##점은":6448,"아나운":6449,"개시":6450,"마지막으로":6451,"##크를":6452,"고생":6453,"기획":6454,"가치":6455,"##계산":6456,"족":6457,"사업을":6458,"상고이유에":6459,"스위":6460,"좋습니다":6461,"##님의":6462,"##어주":6463,"십오":6464,"경기에서":6465,"일어난":6466,"처음에는":6467,"얘기하는":6468,"엉":6469,"정권":6470,"앤":6471,"하겠다":6472,"##공업":6473,"넌":6474,"하늘":6475,"파산":6476,"##가와":6477,"선박":6478,"##이라도":6479,"검사의":6480,"보시면":6481,"개선":6482,"했다는":6483,"단정":6484,"##끄":6485,"방법을":6486,"배달":6487,"파악":6488,"운송":6489,"##였는데":6490,"값":6491,"ㅠㅠ":6492,"능력이":6493,"##아의":6494,"##박이":6495,"일반적인":6496,"쥐":6497,"형태로":6498,"규정한":6499,"##지법":6500,"걸려":6501,"고유":6502,"수요":6503,"철거":6504,"기억이":6505,"##료로":6506,"##목적":6507,"##그룹":6508,"됐는데":6509,"카드":6510,"##구는":6511,"전시":6512,"댓":6513,"##음에":6514,"이루어지":6515,"법적":6516,"##일은":6517,"감소":6518,"상징":6519,"어어":6520,"나를":6521,"금액을":6522,"주지":6523,"건데요":6524,"것이나":6525,"지키":6526,"고객":6527,"고정":6528,"효과가":6529,"하거나":6530,"유전":6531,"##등기를":6532,"##관한법률":6533,"지출":6534,"방영":6535,"수록":6536,"1991":6537,"##ut":6538,"십일":6539,"플래":6540,"벽":6541,"##둘":6542,"달성":6543,"대표적인":6544,"배제":6545,"##화된":6546,"주장한다":6547,"낼":6548,"##행위로":6549,"예측":6550,"당장":6551,"고속":6552,"판단하였다":6553,"##하의":6554,"쫓":6555,"공항":6556,"마찬가지":6557,"출원":6558,"##학의":6559,"##으니":6560,"수석":6561,"조지":6562,"소유권이전등기를":6563,"##스에서":6564,"끝에":6565,"pr":6566,"탁":6567,"##어질":6568,"에는":6569,"정확하게":6570,"##셨는데":6571,"물을":6572,"제2호":6573,"##ir":6574,"총선":6575,"상환":6576,"차이":6577,"개념":6578,"##세대":6579,"출마":6580,"제정":6581,"통화":6582,"##님은":6583,"##많은":6584,"김경":6585,"생명":6586,"보세요":6587,"거에":6588,"여겨":6589,"ㅋㅋㅋㅋㅋㅋ":6590,"인정하고":6591,"##지면":6592,"논의":6593,"기재되어":6594,"##ᆻ네요":6595,"##계약이":6596,"##급여":6597,"##하고는":6598,"1992":6599,"규정이":6600,"수사를":6601,"##일로":6602,"1990":6603,"거니까":6604,"사람도":6605,"없었던":6606,"다루":6607,"애들":6608,"##보호":6609,"캠":6610,"초대":6611,"보여주":6612,"결정을":6613,"##범위":6614,"육군":6615,"일곱":6616,"회장":6617,"기름":6618,"##드리겠습니다":6619,"관계에":6620,"흔히":6621,"사용한":6622,"무기":6623,"##ᆫ데":6624,"##몰":6625,"취업":6626,"3일":6627,"##조차":6628,"55":6629,"생활을":6630,"##도와":6631,"그렇다고":6632,"##일인":6633,"2001년":6634,"바람":6635,"반면":6636,"생략":6637,"##동의":6638,"##에게는":6639,"부부":6640,"눈에":6641,"되면서":6642,"##22":6643,"않는다고":6644,"띄":6645,"상당의":6646,"기록을":6647,"##으세요":6648,"##ᅢᆼ크":6649,"##명이다":6650,"정도에":6651,"##목록":6652,"단독":6653,"정도는":6654,"맨날":6655,"평가를":6656,"공천":6657,"세대":6658,"예금":6659,"둘이":6660,"##튜":6661,"똑같은":6662,"소송을":6663,"##듀":6664,"제11":6665,"정부의":6666,"##상에서":6667,"##업무":6668,"##개를":6669,"##중앙":6670,"널리":6671,"말이야":6672,"##점으로":6673,"별도로":6674,"정비":6675,"못하게":6676,"99":6677,"188":6678,"##빛":6679,"##겁":6680,"프로젝":6681,"오인":6682,"많고":6683,"##르트":6684,"회담":6685,"원인이":6686,"이기":6687,"헐":6688,"##자고":6689,"와이":6690,"##빌":6691,"이야기가":6692,"고시":6693,"얘기도":6694,"획득":6695,"##종합":6696,"물러":6697,"37":6698,"저한테":6699,"##차피":6700,"우려":6701,"복귀":6702,"원하는":6703,"이영":6704,"재정":6705,"##일보":6706,"##버리":6707,"맡아":6708,"##ᆷ피언":6709,"아닌데":6710,"말소":6711,"박정":6712,"엘리":6713,"95":6714,"노래를":6715,"하실":6716,"##스카":6717,"기재된":6718,"##었다는":6719,"호텔":6720,"바른":6721,"##박을":6722,"##규정":6723,"##백만":6724,"국가대표":6725,"시사":6726,"일시":6727,"브래":6728,"중도":6729,"후보가":6730,"구매":6731,"옛날에":6732,"##가격":6733,"가산":6734,"사이에서":6735,"그녀는":6736,"이익이":6737,"미국에서":6738,"신의":6739,"피고인에":6740,"어차피":6741,"꿈":6742,"기회를":6743,"구간":6744,"##비는":6745,"보충":6746,"우와":6747,"39":6748,"##세에":6749,"시스템":6750,"운동을":6751,"털":6752,"##방법":6753,"##어졌다":6754,"##취득":6755,"댓글":6756,"행위가":6757,"##아니":6758,"##면허":6759,"관심이":6760,"배경":6761,"지방자치":6762,"##어의":6763,"그렇지만":6764,"##께서는":6765,"발달":6766,"모아":6767,"아침에":6768,"피고에":6769,"말은":6770,"##원과":6771,"##인가요":6772,"취급":6773,"신축":6774,"##인들의":6775,"북한의":6776,"개녀":6777,"피고들의":6778,"##경기":6779,"좋겠다":6780,"15일":6781,"서류":6782,"ㅎㅎ":6783,"사유가":6784,"상승":6785,"##메리카":6786,"연주":6787,"행위는":6788,"승계":6789,"서비":6790,"입주":6791,"이들":6792,"넣고":6793,"글을":6794,"벤":6795,"챔피언":6796,"##파이":6797,"내세":6798,"집을":6799,"슈퍼":6800,"##이었습니다":6801,"브리":6802,"하여야":6803,"완료":6804,"농지":6805,"직권":6806,"시에":6807,"끝까지":6808,"파괴":6809,"##상속":6810,"윈":6811,"##옹":6812,"##로가":6813,"집합":6814,"최고의":6815,"영역":6816,"##치게":6817,"가리키":6818,"소프트":6819,"만족":6820,"##체는":6821,"##량의":6822,"늘어나":6823,"소유권이전등기":6824,"자식":6825,"##배우":6826,"##종결":6827,"##un":6828,"어떻":6829,"개입":6830,"##트라":6831,"소유권을":6832,"자리를":6833,"공판":6834,"##흡":6835,"셋":6836,"질병":6837,"##청이":6838,"덮":6839,"##학년":6840,"벨":6841,"엄청난":6842,"##진의":6843,"일방":6844,"하였으나":6845,"의결":6846,"수많은":6847,"상처":6848,"공포":6849,"물질":6850,"견해":6851,"단일":6852,"새벽":6853,"##중학교":6854,"건물을":6855,"파견":6856,"##렴":6857,"조합원":6858,"점은":6859,"성질":6860,"##액은":6861,"##시장":6862,"정지":6863,"##토지":6864,"##보다도":6865,"##움이":6866,"name2":6867,"##금융":6868,"지급한":6869,"##고법":6870,"대사":6871,"##상품":6872,"5년":6873,"10일":6874,"30일":6875,"지정되었다":6876,"그때는":6877,"통한":6878,"사고가":6879,"됐어요":6880,"춘":6881,"혼인":6882,"김태":6883,"##중이":6884,"기존의":6885,"일주":6886,"붕":6887,"전공":6888,"##실에":6889,"부대":6890,"재직":6891,"수원":6892,"대통령은":6893,"##시로":6894,"의견을":6895,"제출한":6896,"해당한다":6897,"벌금":6898,"노무현":6899,"덴":6900,"스페인":6901,"##스턴":6902,"마무리":6903,"사건에서":6904,"가사":6905,"저희는":6906,"노르":6907,"##조치":6908,"흉":6909,"못할":6910,"##들어":6911,"도망":6912,"넘는":6913,"상고이유의":6914,"거에요":6915,"물품":6916,"카메":6917,"##첨":6918,"제1항의":6919,"현금":6920,"##받았다":6921,"수정":6922,"##중의":6923,"에게":6924,"아이가":6925,"##화의":6926,"란":6927,"매년":6928,"소를":6929,"경우를":6930,"취임":6931,"무시":6932,"둘째":6933,"##ag":6934,"쪽에":6935,"인민":6936,"##물로":6937,"포함되어":6938,"##였고":6939,"##명에":6940,"기망":6941,"##탑":6942,"##었으며":6943,"은퇴":6944,"뭐라":6945,"피의자":6946,"기소":6947,"##등의":6948,"제3조":6949,"여부는":6950,"##싼":6951,"##성으로":6952,"##만은":6953,"때마다":6954,"이들은":6955,"강남":6956,"##환경":6957,"##부와":6958,"세금":6959,"##이지만":6960,"제12":6961,"싶다":6962,"##화에":6963,"할지":6964,"오늘날":6965,"##값":6966,"##마트":6967,"동네":6968,"합리적인":6969,"충돌":6970,"##통신":6971,"##자들을":6972,"고양":6973,"##악을":6974,"유엔":6975,"##맞":6976,"##드ᄅ":6977,"보니":6978,"너무나":6979,"닭":6980,"볶":6981,"우려가":6982,"업무상":6983,"남쪽":6984,"경찰이":6985,"담당변호사":6986,"상대방이":6987,"특별히":6988,"de":6989,"대형":6990,"##퀴":6991,"##작용":6992,"##발을":6993,"회계":6994,"처음부터":6995,"20일":6996,"공화국":6997,"##나이":6998,"초반":6999,"충격":7000,"##믄":7001,"생각도":7002,"시원":7003,"취지를":7004,"##ᆻ었는데":7005,"칸":7006,"화재":7007,"##버스":7008,"교회":7009,"##국에":7010,"1억":7011,"만들고":7012,"잉글":7013,"발사":7014,"봤는데":7015,"가요":7016,"##한다면":7017,"##cm":7018,"발생하는":7019,"br":7020,"##하네":7021,"들어가는":7022,"관찰":7023,"바에":7024,"##마디":7025,"##겠다는":7026,"세력":7027,"환송하기로":7028,"##롭게":7029,"손을":7030,"공감":7031,"##닥":7032,"##소에서":7033,"시각":7034,"홍콩":7035,"쉽지":7036,"되거든요":7037,"각하":7038,"##반환":7039,"그린":7040,"아라":7041,"##증권":7042,"정확한":7043,"202":7044,"어쩔":7045,"예방":7046,"본래":7047,"가벼":7048,"이중":7049,"봄":7050,"과거에":7051,"##원심":7052,"오늘도":7053,"이곳":7054,"대변":7055,"좋겠습니다":7056,"##관으로":7057,"고대":7058,"##항의":7059,"확실히":7060,"##기간이":7061,"5일":7062,"소통":7063,"75":7064,"##야말로":7065,"친구가":7066,"오전":7067,"어린이":7068,"관여법":7069,"##워요":7070,"##48":7071,"공직":7072,"##위는":7073,"가을":7074,"##역이다":7075,"짚":7076,"합격":7077,"빵":7078,"##법시행령":7079,"인상":7080,"고지":7081,"부동산의":7082,"##자금":7083,"##되자":7084,"걷":7085,"##칙이":7086,"북쪽":7087,"항소를":7088,"협력":7089,"제13":7090,"##죽":7091,"원의":7092,"골프":7093,"사용하여":7094,"##되므로":7095,"일찍":7096,"##비의":7097,"잡고":7098,"딴":7099,"출석":7100,"어음":7101,"600":7102,"##ᆺ지":7103,"냄새":7104,"한미":7105,"부담한다":7106,"폭력":7107,"알지":7108,"보이지":7109,"학생들이":7110,"##원인":7111,"없죠":7112,"정부는":7113,"##이라든지":7114,"수리":7115,"##해가지고":7116,"##자들에게":7117,"금전":7118,"핀":7119,"##무서":7120,"동맹":7121,"교체":7122,"일제":7123,"##마자":7124,"먹으면":7125,"헬":7126,"##달라고":7127,"##이요":7128,"있었을":7129,"잘못된":7130,"##겠네":7131,"취소한다":7132,"갖다":7133,"지역에서":7134,"떠오":7135,"심지어":7136,"##브리":7137,"고려하여":7138,"떨어지":7139,"압류":7140,"해고":7141,"정황":7142,"건너":7143,"전화를":7144,"지분":7145,"##복을":7146,"접수":7147,"받아들여":7148,"중학교":7149,"아름다":7150,"나이가":7151,"93":7152,"떼":7153,"비해":7154,"대통령에":7155,"1989":7156,"##집을":7157,"##인들은":7158,"##ᆫ스":7159,"묵":7160,"하여튼":7161,"결승":7162,"대표이사":7163,"여덟":7164,"만들어진":7165,"##달라":7166,"따ᄄ":7167,"앙":7168,"아니하여":7169,"48":7170,"인공":7171,"##로써":7172,"없지":7173,"##에다가":7174,"조용":7175,"##법상":7176,"문서":7177,"몬":7178,"포괄":7179,"##뻐":7180,"관측":7181,"마르":7182,"항변":7183,"고추":7184,"연극":7185,"이고":7186,"아버지가":7187,"fifa":7188,"들여":7189,"판결이":7190,"신설":7191,"##률이":7192,"98":7193,"평생":7194,"##도시":7195,"이성":7196,"##단으로":7197,"종사":7198,"사실오":7199,"모르고":7200,"65":7201,"홍보":7202,"경계":7203,"##메달":7204,"##등을":7205,"받아야":7206,"많아요":7207,"증거를":7208,"상황에":7209,"챙겨":7210,"의원님":7211,"과세표준":7212,"맹":7213,"이종":7214,"##28":7215,"분쟁":7216,"##사회":7217,"녹음":7218,"##국을":7219,"뵈":7220,"지연손해":7221,"카페":7222,"확정된":7223,"연습":7224,"홀":7225,"갖는":7226,"사장":7227,"자체를":7228,"보지":7229,"추가로":7230,"기부":7231,"##덤":7232,"노력을":7233,"여지가":7234,"점령":7235,"##ce":7236,"아프리카":7237,"네덜":7238,"1998년":7239,"##전은":7240,"##ᆻ어야":7241,"##도에서":7242,"앉아":7243,"원칙에":7244,"국무":7245,"설득":7246,"진술을":7247,"것들":7248,"배워":7249,"첨부":7250,"형이":7251,"##하니":7252,"##ᆺ다":7253,"##전문":7254,"면허":7255,"##산이":7256,"마음에":7257,"##까지의":7258,"만난":7259,"법리오해의":7260,"##ov":7261,"법률상":7262,"보낸":7263,"##사실을":7264,"##카드":7265,"변론종결":7266,"##야마":7267,"##래요":7268,"방금":7269,"혁신":7270,"##명한":7271,"##정치":7272,"데리고":7273,"훌":7274,"작년":7275,"차를":7276,"김치":7277,"대법관의":7278,"다음을":7279,"능력":7280,"다수의":7281,"타당":7282,"드러나":7283,"스티":7284,"re":7285,"처분을":7286,"85":7287,"##톨리":7288,"##ᆻ을까":7289,"대항":7290,"##히는":7291,"사진을":7292,"1999년":7293,"상당하다":7294,"##소로":7295,"43":7296,"남편이":7297,"디지":7298,"94":7299,"우리의":7300,"ㅇㅇ":7301,"자료를":7302,"법리에":7303,"7일":7304,"다소":7305,"미국에":7306,"미국이":7307,"하나이다":7308,"1990년":7309,"김대":7310,"수립":7311,"거리":7312,"##결과":7313,"##하였는바":7314,"##처분이":7315,"가만":7316,"##대에서":7317,"빚":7318,"하고요":7319,"96":7320,"##차로":7321,"##니까요":7322,"##처분은":7323,"신체":7324,"주위":7325,"표현을":7326,"##집니다":7327,"맞추":7328,"미술":7329,"##되었으나":7330,"의사표":7331,"유기":7332,"##돼서":7333,"문학":7334,"북미":7335,"남부":7336,"편의":7337,"##은요":7338,"대기":7339,"총리":7340,"##몇":7341,"있잖아":7342,"자신을":7343,"25일":7344,"##과학":7345,"증거에":7346,"이어서":7347,"론":7348,"##사에서":7349,"##ap":7350,"재무":7351,"ㅎㅎㅎ":7352,"갱":7353,"하던":7354,"변호사님":7355,"불교":7356,"너는":7357,"800":7358,"외부":7359,"대우":7360,"양수":7361,"경합":7362,"됩니까":7363,"##24":7364,"위조":7365,"회사는":7366,"의사가":7367,"옹":7368,"긍정":7369,"되잖아요":7370,"사립":7371,"##스리":7372,"##닉":7373,"했죠":7374,"지원을":7375,"186":7376,"기능을":7377,"못했다":7378,"편입":7379,"##스키":7380,"비상":7381,"직장":7382,"##ay":7383,"버려":7384,"유일한":7385,"번째는":7386,"학생이":7387,"싶어요":7388,"##보세요":7389,"스튜":7390,"사람들을":7391,"2일":7392,"새누리당":7393,"##지요":7394,"출근":7395,"##이한":7396,"##23":7397,"무너":7398,"그치":7399,"오르":7400,"##면으로":7401,"얻어":7402,"대가":7403,"증권":7404,"가까이":7405,"##준다":7406,"가압류":7407,"##ᆯ을":7408,"오고":7409,"##향이":7410,"##목을":7411,"무르":7412,"##결의":7413,"원고를":7414,"##탁을":7415,"스웨":7416,"쌀":7417,"고기":7418,"47":7419,"산출":7420,"한국의":7421,"##후의":7422,"##꽃":7423,"##일러":7424,"비례":7425,"고의":7426,"내용에":7427,"즉시":7428,"##나마":7429,"낸":7430,"##이행":7431,"##대금을":7432,"봐도":7433,"##사이":7434,"##보니까":7435,"이상한":7436,"전용":7437,"##놓은":7438,"##칙에":7439,"나뉘":7440,"##서도":7441,"97":7442,"색깔":7443,"범위를":7444,"울산":7445,"방향으로":7446,"바탕으로":7447,"중대한":7448,"자살":7449,"낭":7450,"듯":7451,"제1항은":7452,"실현":7453,"화물":7454,"원에":7455,"항소이유":7456,"발급":7457,"있나요":7458,"청산":7459,"아니죠":7460,"##조는":7461,"화가":7462,"출생":7463,"끝난":7464,"않았습니까":7465,"차가":7466,"배임":7467,"시작한":7468,"##펜":7469,"##고기":7470,"미세":7471,"원고들":7472,"유죄로":7473,"보게":7474,"애들이":7475,"##소송을":7476,"있다라고":7477,"##울러":7478,"고등":7479,"의사를":7480,"##섬":7481,"죽이":7482,"융":7483,"싶은데":7484,"##면서도":7485,"분은":7486,"88":7487,"명을":7488,"##ᆮ아":7489,"할아버":7490,"잉글랜드":7491,"세상에":7492,"영화를":7493,"하거든요":7494,"원심법원에":7495,"금방":7496,"##했기":7497,"영국의":7498,"##되거나":7499,"##형에":7500,"##져서":7501,"주변에":7502,"공립":7503,"위원장":7504,"의무를":7505,"두려":7506,"선생님이":7507,"##ᅪᆨ":7508,"이해가":7509,"아저":7510,"##사람":7511,"##비로":7512,"김상":7513,"##인민공화국":7514,"청문":7515,"흘러":7516,"위탁":7517,"내고":7518,"##류가":7519,"4일":7520,"당시에는":7521,"이상이":7522,"작성한":7523,"독자":7524,"##안의":7525,"##국가":7526,"해지":7527,"믿고":7528,"통지":7529,"다음날부터":7530,"며칠":7531,"##부분을":7532,"##봤습니다":7533,"의미한다":7534,"펜":7535,"##되게":7536,"al":7537,"말씀이":7538,"간다":7539,"의미를":7540,"앞두고":7541,"많습니다":7542,"살인":7543,"입학":7544,"##하이":7545,"편집":7546,"그랬는데":7547,"길을":7548,"2014":7549,"패배":7550,"것인가":7551,"팩":7552,"그렇다":7553,"##지구":7554,"공작":7555,"붙여":7556,"심각한":7557,"최순":7558,"부당이":7559,"그래가지고":7560,"여야":7561,"기다려":7562,"##하라고":7563,"중인":7564,"신기":7565,"허리케":7566,"체결한":7567,"포르":7568,"기하여":7569,"웬":7570,"예외":7571,"##무효":7572,"28일":7573,"##ip":7574,"결론을":7575,"가리킨다":7576,"대해서도":7577,"##청장":7578,"49":7579,"업체":7580,"모습이":7581,"187":7582,"국가의":7583,"말한":7584,"우리도":7585,"김동":7586,"않나":7587,"##카오":7588,"1997년":7589,"다르게":7590,"##목이":7591,"대책":7592,"##26":7593,"한마디":7594,"어른":7595,"주시":7596,"세종":7597,"##증거":7598,"검찰이":7599,"##결정을":7600,"다ᄅ":7601,"신고를":7602,"본인의":7603,"런던":7604,"초래":7605,"다이어":7606,"보건":7607,"##로로":7608,"일으켜":7609,"채무를":7610,"차원에서":7611,"지위를":7612,"했어":7613,"저장":7614,"##된다는":7615,"함으로써":7616,"아무튼":7617,"내용으로":7618,"점심":7619,"혁명":7620,"##청의":7621,"##ㅜㅜ":7622,"##속에":7623,"했었는데":7624,"도서":7625,"비싸":7626,"##ㅋㅋㅋㅋㅋ":7627,"법률사무소":7628,"부당이득":7629,"##ct":7630,"150":7631,"궤":7632,"##육이":7633,"식민":7634,"티비에스":7635,"##ers":7636,"##젠":7637,"취재":7638,"ㅋㅋㅋㅋㅋㅋㅋ":7639,"최소한":7640,"죄송합니다":7641,"간접":7642,"##철도":7643,"14일":7644,"끌어":7645,"##정과":7646,"효력을":7647,"##앞":7648,"##롭":7649,"동료":7650,"짧은":7651,"영토":7652,"흰":7653,"##뇌":7654,"개인적으로":7655,"##가고":7656,"공통":7657,"##드리고":7658,"##ᅳ는":7659,"##물은":7660,"강력한":7661,"##민주주의":7662,"46":7663,"영양":7664,"년에":7665,"위로":7666,"식품":7667,"반갑습니다":7668,"생각할":7669,"시공":7670,"시기에":7671,"그들은":7672,"노선":7673,"##콤":7674,"산입":7675,"##지기":7676,"좋고":7677,"제반":7678,"구할":7679,"##요건":7680,"씨의":7681,"동부":7682,"했었":7683,"불리는":7684,"##오십":7685,"심리미":7686,"확인을":7687,"여객":7688,"디자인":7689,"44":7690,"##라리":7691,"##가능":7692,"알바":7693,"##ul":7694,"10년":7695,"주식을":7696,"아아":7697,"##문학":7698,"인권":7699,"##ᆺ데":7700,"열차":7701,"자리에":7702,"아무것도":7703,"거두":7704,"정답":7705,"전체적으로":7706,"트리":7707,"김일":7708,"##하잖아요":7709,"학습":7710,"똑같":7711,"가자":7712,"##고에":7713,"번역":7714,"##웨이":7715,"##되었다는":7716,"아홉":7717,"제재":7718,"아이들이":7719,"부모님":7720,"지방자치단체":7721,"들어가서":7722,"상태로":7723,"것이니":7724,"6일":7725,"소요":7726,"##용으로":7727,"투입":7728,"##og":7729,"취소를":7730,"없애":7731,"어렵고":7732,"##촉진":7733,"돼야":7734,"리더":7735,"있었다는":7736,"높이":7737,"뻔":7738,"스코":7739,"청구할":7740,"##시와":7741,"전망":7742,"##미가":7743,"들어간":7744,"농업":7745,"직후":7746,"권력":7747,"8일":7748,"##륭":7749,"##27":7750,"주연":7751,"콜":7752,"패소자의":7753,"##헨":7754,"##증인":7755,"21일":7756,"돌아오":7757,"##일랜드":7758,"페르":7759,"66":7760,"면적은":7761,"##트워":7762,"17일":7763,"##사업을":7764,"되겠다":7765,"조작":7766,"조각":7767,"앵":7768,"게시":7769,"##하면은":7770,"말씀드린":7771,"차별":7772,"띠":7773,"##웨어":7774,"##실에서":7775,"아울러":7776,"첫째":7777,"정확히":7778,"뜻을":7779,"화학":7780,"내의":7781,"입찰":7782,"##사카":7783,"왜요":7784,"##인이다":7785,"##주시면":7786,"12일":7787,"적합":7788,"마시":7789,"상태에":7790,"도전":7791,"##로도":7792,"하나도":7793,"구성되어":7794,"호남":7795,"끝나고":7796,"##mm":7797,"27일":7798,"근본":7799,"26일":7800,"함에":7801,"##국은":7802,"소식":7803,"합의를":7804,"예예예":7805,"and":7806,"담배":7807,"##어음":7808,"##연히":7809,"교사":7810,"나가는":7811,"정하여":7812,"고구":7813,"##실의":7814,"자기의":7815,"구상":7816,"16일":7817,"부분도":7818,"64":7819,"##법은":7820,"##법위반":7821,"##묵":7822,"갖다가":7823,"##이십":7824,"1995년":7825,"말했다":7826,"태평":7827,"##치의":7828,"마리":7829,"##th":7830,"폰":7831,"스웨덴":7832,"상황입니다":7833,"##업체":7834,"##트에서":7835,"9일":7836,"##하거든요":7837,"##붕":7838,"한국에":7839,"수업":7840,"몸에":7841,"##그렇":7842,"장난":7843,"저희들이":7844,"법원이":7845,"양형":7846,"##되기도":7847,"연애":7848,"내년":7849,"가능하다":7850,"##문서":7851,"##사실에":7852,"네덜란드":7853,"##쇠":7854,"22일":7855,"##처분에":7856,"체계":7857,"청취자":7858,"유래":7859,"##모토":7860,"아무도":7861,"폴란드":7862,"##가서":7863,"87":7864,"디지털":7865,"적용하여":7866,"18일":7867,"정식":7868,"53":7869,"그중":7870,"##소리":7871,"마침":7872,"비디오":7873,"##29":7874,"목적이":7875,"마쳐":7876,"분들도":7877,"썰":7878,"빠른":7879,"보자":7880,"처분의":7881,"##취지를":7882,"발생할":7883,"일으키":7884,"##책임을":7885,"일종의":7886,"어울":7887,"##량은":7888,"교육을":7889,"데에":7890,"1987":7891,"폐기":7892,"86":7893,"##이고요":7894,"달려":7895,"플라":7896,"하잖아요":7897,"별도의":7898,"상업":7899,"##세포":7900,"##먹고":7901,"##이니까":7902,"1983":7903,"등록상표":7904,"선수이다":7905,"##이라든가":7906,"##정지":7907,"##솔":7908,"글로":7909,"안내":7910,"이듬":7911,"김기":7912,"얻은":7913,"자료가":7914,"##정리":7915,"사퇴":7916,"신분":7917,"오랫":7918,"##자이":7919,"훼손":7920,"자백":7921,"##베르":7922,"23일":7923,"1996년":7924,"변론의":7925,"##유가":7926,"##호선":7927,"##ᆨ시코":7928,"에어":7929,"온라인":7930,"가중":7931,"관여법관의":7932,"밝혔다":7933,"##ᆫ지":7934,"깜짝":7935,"도시계획":7936,"##종이":7937,"54":7938,"신청을":7939,"살펴보":7940,"같고요":7941,"했는데요":7942,"전제":7943,"요런":7944,"밑에":7945,"##짜리":7946,"원내대표":7947,"나갈":7948,"##ᆯ링":7949,"##어날":7950,"드는":7951,"##엠":7952,"되고요":7953,"재산을":7954,"사용하고":7955,"법원의":7956,"군대":7957,"11일":7958,"##범죄":7959,"유도":7960,"##그라":7961,"배출":7962,"##드릴게요":7963,"허리케인":7964,"곤란":7965,"성폭":7966,"##확인":7967,"##로의":7968,"아나운서":7969,"##경이":7970,"##븐":7971,"타인의":7972,"##스피":7973,"1988":7974,"##ᆻ구요":7975,"급여":7976,"유가":7977,"묶":7978,"소방":7979,"입단":7980,"받아서":7981,"뮤지":7982,"허가를":7983,"##결을":7984,"폭발":7985,"부적법":7986,"##월에":7987,"항고":7988,"정책을":7989,"그랬더니":7990,"괜찮은":7991,"뭐예요":7992,"##일까요":7993,"만들어서":7994,"분노":7995,"끝내":7996,"##잉":7997,"브라질":7998,"##되었던":7999,"항소인":8000,"동쪽":8001,"마친":8002,"납세의":8003,"말로":8004,"##좋":8005,"전원":8006,"들었":8007,"비로소":8008,"감독의":8009,"경부터":8010,"##인도":8011,"법인의":8012,"##하였다가":8013,"단순한":8014,"매매계약":8015,"##상황":8016,"곽":8017,"사업시행":8018,"계획을":8019,"생각은":8020,"##톨릭":8021,"##회사가":8022,"본질":8023,"##수입":8024,"수긍이":8025,"29일":8026,"말아":8027,"뇌물":8028,"열어":8029,"##릭":8030,"아니므로":8031,"드릴":8032,"없으니까":8033,"만나서":8034,"무죄":8035,"##부모":8036,"국토":8037,"있느냐":8038,"이듬해":8039,"멀리":8040,"##기만":8041,"##이라면":8042,"재밌":8043,"아닐까":8044,"않았고":8045,"죽은":8046,"갖춘":8047,"측정":8048,"존재하지":8049,"##보상":8050,"등에서":8051,"독일의":8052,"##이었는데":8053,"국세":8054,"모집":8055,"생기는":8056,"##면서요":8057,"상상":8058,"방송을":8059,"13일":8060,"그쪽":8061,"문제로":8062,"프레":8063,"거냐":8064,"미쳐":8065,"양도소득":8066,"이내에":8067,"원고들은":8068,"com":8069,"##면이":8070,"분배":8071,"엄격":8072,"오토":8073,"아이를":8074,"맡았다":8075,"블루":8076,"선의":8077,"행동을":8078,"채널":8079,"83":8080,"개편":8081,"평소":8082,"오랫동안":8083,"an":8084,"해산":8085,"유통":8086,"##법상의":8087,"다리":8088,"##골을":8089,"어떨":8090,"밟":8091,"입장이":8092,"소지":8093,"중간에":8094,"##크라":8095,"##ie":8096,"요즘에":8097,"##경에":8098,"1994년":8099,"중국의":8100,"##차례":8101,"##설을":8102,"1984":8103,"##중한":8104,"24일":8105,"얻을":8106,"##이션":8107,"##뚜":8108,"소개해":8109,"84":8110,"##갖고":8111,"58":8112,"마라":8113,"나왔습니다":8114,"떡":8115,"흔들":8116,"##주의의":8117,"##흔":8118,"자세히":8119,"1992년":8120,"사고로":8121,"오픈":8122,"돌리":8123,"얘기할":8124,"수집":8125,"##땅":8126,"미치는":8127,"##함과":8128,"동원":8129,"주신":8130,"##봐요":8131,"이득":8132,"##그ᄅ":8133,"89":8134,"##하러":8135,"유형":8136,"스마트":8137,"##행정":8138,"문을":8139,"##유를":8140,"시대에":8141,"사용되는":8142,"희생":8143,"명목으로":8144,"노출":8145,"인지":8146,"아니지만":8147,"말에":8148,"내는":8149,"행위에":8150,"##제1":8151,"모여":8152,"조치는":8153,"넘겨":8154,"kbs":8155,"검증":8156,"테이":8157,"##으셔":8158,"##방에":8159,"56":8160,"정부에":8161,"질문을":8162,"몸이":8163,"있다라는":8164,"만일":8165,"##님을":8166,"##동생":8167,"##사유가":8168,"펼쳐":8169,"##고가":8170,"세상":8171,"##하네요":8172,"땐":8173,"혼란":8174,"구역":8175,"##본을":8176,"부근":8177,"sp":8178,"19일":8179,"결성":8180,"##넘":8181,"구별":8182,"##하시고":8183,"의도":8184,"수영":8185,"##허가를":8186,"생성":8187,"사망한":8188,"닮":8189,"##무성":8190,"그녀의":8191,"맛있는":8192,"##하되":8193,"외에도":8194,"68":8195,"내리":8196,"프랑스의":8197,"같아서":8198,"적절한":8199,"##하라는":8200,"##둬":8201,"공격을":8202,"객관적으로":8203,"져":8204,"한하여":8205,"조절":8206,"자전":8207,"##제공":8208,"공부를":8209,"규정된":8210,"##산의":8211,"##륜":8212,"이뤄":8213,"##료가":8214,"4년":8215,"효과를":8216,"##대장":8217,"파리":8218,"될까요":8219,"자세한":8220,"신라":8221,"##색을":8222,"방식":8223,"측면에서":8224,"저게":8225,"판단하여":8226,"흐름":8227,"그래야":8228,"많은데":8229,"##부분에":8230,"나고":8231,"홈페이":8232,"##맛":8233,"지역을":8234,"진입":8235,"무죄를":8236,"##위원회의":8237,"피고인을":8238,"비핵":8239,"##방이":8240,"##안전":8241,"클래":8242,"다수":8243,"##ist":8244,"것이냐":8245,"체육":8246,"대금":8247,"고향":8248,"코미":8249,"무역":8250,"##판매":8251,"대통령을":8252,"오스트리":8253,"관련이":8254,"##증명":8255,"##하구":8256,"설립된":8257,"셰":8258,"판단하여야":8259,"##na":8260,"번도":8261,"맞어":8262,"루이":8263,"th":8264,"서쪽":8265,"그곳":8266,"곳에서":8267,"보건대":8268,"면제":8269,"57":8270,"대규모":8271,"##지면서":8272,"##치로":8273,"지명":8274,"자극":8275,"긴급":8276,"미사일":8277,"제4항":8278,"구성된":8279,"추측":8280,"##시험":8281,"접촉":8282,"하천":8283,"요구하는":8284,"조금씩":8285,"억울":8286,"진단":8287,"##각을":8288,"읽어":8289,"##사업의":8290,"##화로":8291,"작업을":8292,"씨를":8293,"흠":8294,"스물":8295,"##하기는":8296,"완벽":8297,"운영하는":8298,"해군":8299,"##보조":8300,"카메라":8301,"멕시코":8302,"관련한":8303,"##ᆻ습니까":8304,"##그렇다면":8305,"방위":8306,"자랑":8307,"록":8308,"##아파":8309,"누나":8310,"심리를":8311,"일본에":8312,"투쟁":8313,"풀어":8314,"체제":8315,"위자료":8316,"비교적":8317,"##각이":8318,"자의":8319,"제1차":8320,"원자":8321,"지급하라":8322,"##멍":8323,"##하겠다는":8324,"있었지만":8325,"##꾼":8326,"인정하는":8327,"들려":8328,"저항":8329,"##실을":8330,"재량":8331,"##영의":8332,"피보험":8333,"롯데":8334,"63":8335,"##정비":8336,"통보":8337,"활성":8338,"##얀":8339,"지금의":8340,"구조를":8341,"단백":8342,"000원에":8343,"몇몇":8344,"그러지":8345,"##서로":8346,"근저당권설정":8347,"인기":8348,"필요하다":8349,"##프라":8350,"1991년":8351,"##버린":8352,"공시":8353,"##오고":8354,"1982":8355,"경기를":8356,"술을":8357,"##해가":8358,"찰":8359,"택시":8360,"ar":8361,"음주":8362,"사령":8363,"사람들의":8364,"혐":8365,"최대한":8366,"유튜":8367,"##문은":8368,"##셜":8369,"바르":8370,"반대로":8371,"##이던":8372,"##ᆸ이":8373,"##되었는데":8374,"67":8375,"간주":8376,"아니라는":8377,"듯한":8378,"있겠죠":8379,"들은":8380,"좁":8381,"나가서":8382,"제이":8383,"잠깐만":8384,"1985":8385,"##니스":8386,"시내":8387,"소년":8388,"것이었다":8389,"달라고":8390,"타이틀":8391,"임용":8392,"하도":8393,"아니할":8394,"그라":8395,"1981":8396,"전주":8397,"##수수":8398,"우승을":8399,"원칙적으로":8400,"나면":8401,"안돼":8402,"73":8403,"##교회":8404,"현저":8405,"정말로":8406,"##ard":8407,"##기에는":8408,"마시고":8409,"하세요":8410,"없지만":8411,"##기일":8412,"주소":8413,"##자도":8414,"말해":8415,"1980년":8416,"치료를":8417,"결혼을":8418,"질환":8419,"기울":8420,"괜찮아":8421,"제14":8422,"트위":8423,"피신청":8424,"되나":8425,"피고들이":8426,"##되는데":8427,"거고요":8428,"핸드":8429,"1986":8430,"아카":8431,"강원도":8432,"##력으로":8433,"싸우":8434,"왔는데":8435,"##긋":8436,"주에":8437,"일상":8438,"##청에":8439,"여러분들":8440,"##마가":8441,"con":8442,"##거같":8443,"바까":8444,"##세무서":8445,"77":8446,"##끄러":8447,"성립에":8448,"##리스":8449,"##유예":8450,"##으면은":8451,"동의를":8452,"보안":8453,"사후":8454,"논리":8455,"부합하는":8456,"삼백":8457,"뭡니까":8458,"권한을":8459,"평론":8460,"##부르크":8461,"인해서":8462,"말할":8463,"포장":8464,"반하는":8465,"##으러":8466,"그야말로":8467,"없으면":8468,"1993년":8469,"도급":8470,"김형":8471,"자리에서":8472,"이외의":8473,"##분양":8474,"검은":8475,"##하지는":8476,"통치":8477,"##ᆨ에":8478,"형사소송법":8479,"미터":8480,"규정은":8481,"자네":8482,"나름대로":8483,"##아노":8484,"##주면":8485,"드리겠습니다":8486,"##서비스":8487,"뒤집":8488,"충족":8489,"눈이":8490,"똑같이":8491,"##데이":8492,"공화":8493,"공사를":8494,"붕괴":8495,"주관":8496,"제3호":8497,"##술을":8498,"탄핵":8499,"전하":8500,"제18":8501,"##리어":8502,"소집":8503,"정도를":8504,"사항을":8505,"건조":8506,"##ᆷ에도":8507,"엔진":8508,"유승":8509,"건물에":8510,"##면의":8511,"700":8512,"##받지":8513,"##행이":8514,"##ᆻ냐":8515,"반란":8516,"기회":8517,"##심의":8518,"##이버":8519,"##ᅳ레일":8520,"##나와":8521,"##and":8522,"에너지":8523,"원심판결에는":8524,"마늘":8525,"##실이":8526,"동안에":8527,"판단할":8528,"통제":8529,"해줘":8530,"un":8531,"혐의로":8532,"그러는":8533,"##잘":8534,"##리기":8535,"대북":8536,"처벌을":8537,"##부동산":8538,"시청자":8539,"링":8540,"국가가":8541,"히로":8542,"요양":8543,"정하고":8544,"바깥":8545,"협박":8546,"여당":8547,"말씀하셔":8548,"주된":8549,"여ᄍ":8550,"##였어요":8551,"들어갈":8552,"상담을":8553,"원심판":8554,"##전으로":8555,"##들로부터":8556,"한일":8557,"알아서":8558,"넘어서":8559,"스튜디오":8560,"예쁘":8561,"가치가":8562,"그러는데":8563,"서식":8564,"감독이":8565,"그러게요":8566,"##체로":8567,"운용":8568,"전후":8569,"##됐습니다":8570,"국정원":8571,"제발":8572,"오늘의":8573,"임무":8574,"물이":8575,"##항소인":8576,"중소":8577,"명백한":8578,"없기":8579,"1988년":8580,"##신고를":8581,"##하겠다고":8582,"범행을":8583,"복지":8584,"에스엔":8585,"##기관의":8586,"##정책":8587,"스피":8588,"##점의":8589,"멋":8590,"ue":8591,"판단가":8592,"되겠죠":8593,"결과적으로":8594,"##의원":8595,"황제":8596,"김현":8597,"가지가":8598,"공탁":8599,"김진":8600,"위원장이":8601,"그러네요":8602,"##산에":8603,"이로써":8604,"맞지":8605,"시효":8606,"실질적인":8607,"강하게":8608,"##회담":8609,"76":8610,"보기에는":8611,"##다라고":8612,"피고인들의":8613,"생존":8614,"지식":8615,"이사건":8616,"보완":8617,"저를":8618,"남용":8619,"##장도":8620,"훌륭":8621,"집안":8622,"고위":8623,"대단히":8624,"가담":8625,"##프를":8626,"자라":8627,"2개":8628,"있을까":8629,"깊은":8630,"지역이":8631,"바가":8632,"##년도":8633,"멈":8634,"형제":8635,"합의가":8636,"친일":8637,"##었지만":8638,"78":8639,"나타내":8640,"손해배상청구":8641,"세상을":8642,"않는다는":8643,"아이디":8644,"제2항에":8645,"##부담":8646,"##질러":8647,"##크의":8648,"서울고법":8649,"##볼까요":8650,"##론을":8651,"##못":8652,"uefa":8653,"##힐":8654,"원이":8655,"##취소":8656,"가로":8657,"토지가":8658,"##앗":8659,"##공무원":8660,"##마을":8661,"절반":8662,"주장이":8663,"곱":8664,"헝":8665,"현재까지":8666,"가능합니다":8667,"92":8668,"##축은행":8669,"일도":8670,"개통":8671,"움직":8672,"피해자를":8673,"했거든요":8674,"오브":8675,"표기":8676,"##과세":8677,"드리고":8678,"형님":8679,"뼈":8680,"돌아와":8681,"후원":8682,"가톨릭":8683,"로스":8684,"아동":8685,"있나":8686,"##길래":8687,"xxx":8688,"##폴리":8689,"갚는":8690,"##으실":8691,"##뒤":8692,"##투자":8693,"##둑":8694,"대위":8695,"##쳐서":8696,"멋이":8697,"2인":8698,"개가":8699,"분포":8700,"제17":8701,"알았어":8702,"성과":8703,"늦게":8704,"목소리":8705,"윌리":8706,"##고는":8707,"못해":8708,"##합의":8709,"##자이다":8710,"##디아":8711,"##팔십":8712,"어깨":8713,"르":8714,"이용한":8715,"궁금한":8716,"전개":8717,"##하자면":8718,"고발":8719,"이분이":8720,"##제이":8721,"하계":8722,"감안":8723,"##주인":8724,"##군과":8725,"목수":8726,"180":8727,"강의":8728,"제작된":8729,"취지에":8730,"위반하여":8731,"지가":8732,"하자가":8733,"##느리":8734,"축하":8735,"소멸시효":8736,"나의":8737,"입원":8738,"치러":8739,"병원에":8740,"되자":8741,"ㅋㅋㅋㅋㅋㅋㅋㅋ":8742,"여성이":8743,"##하였다면":8744,"퇴근":8745,"00경":8746,"멘":8747,"##당사":8748,"##딘":8749,"면접":8750,"민주주의":8751,"말하면":8752,"신성":8753,"분위기":8754,"부당한":8755,"답답":8756,"어렸을":8757,"문의":8758,"근거로":8759,"팀이":8760,"##겠느냐":8761,"##계에서":8762,"##딱":8763,"##언을":8764,"날이":8765,"펴":8766,"##었으나":8767,"name3":8768,"대립":8769,"남한":8770,"점포":8771,"꾸준":8772,"##겸":8773,"상태가":8774,"겉":8775,"동기":8776,"네트워":8777,"납세의무":8778,"갔는데":8779,"좌우":8780,"제4조":8781,"##수와":8782,"방치":8783,"오해하여":8784,"##선으로":8785,"무리":8786,"나쁘":8787,"이후에는":8788,"들을":8789,"제공하는":8790,"##복지":8791,"해체":8792,"한반도":8793,"코너":8794,"부르는":8795,"나오지":8796,"먹어야":8797,"##향을":8798,"신규":8799,"연령":8800,"##하기가":8801,"##대출":8802,"59":8803,"##던가":8804,"들어요":8805,"사실과":8806,"작품이":8807,"주장하고":8808,"이후의":8809,"##가락":8810,"구축":8811,"도모":8812,"##타민":8813,"방법은":8814,"##르의":8815,"김재":8816,"1989년":8817,"##ㅠㅠㅠㅠ":8818,"뮤직":8819,"##ᆸ션":8820,"##공개":8821,"요즘은":8822,"친노":8823,"지위":8824,"존재하는":8825,"##내에서":8826,"쪼금":8827,"날짜":8828,"연대보증":8829,"비해서":8830,"##장인":8831,"조약":8832,"않도록":8833,"스태":8834,"이하의":8835,"방법에":8836,"##활동":8837,"##내역":8838,"인간의":8839,"##하셔야":8840,"발명":8841,"##카와":8842,"학생부":8843,"얘기해":8844,"회사를":8845,"숲":8846,"##개시":8847,"명의신탁":8848,"##덩":8849,"재단":8850,"에피":8851,"새롭게":8852,"대여금":8853,"생물":8854,"##상과":8855,"역대":8856,"준공":8857,"##양도":8858,"무릎":8859,"아저씨":8860,"아가":8861,"##평을":8862,"69":8863,"##구로":8864,"79":8865,"각자":8866,"##십니까":8867,"자로":8868,"구체적":8869,"삶을":8870,"선수로":8871,"##화는":8872,"##ᆸ다":8873,"이집":8874,"##ab":8875,"게다가":8876,"열려":8877,"##랜":8878,"데려":8879,"##조로":8880,"흡수":8881,"쪽에서":8882,"회수":8883,"정상적인":8884,"아니면은":8885,"할인":8886,"포함하여":8887,"알렉":8888,"친박":8889,"이렇":8890,"##있고":8891,"존재한다":8892,"사찰":8893,"어릴":8894,"차라리":8895,"일치되어":8896,"##ᆷ과":8897,"##금액을":8898,"유대":8899,"하려고":8900,"피부":8901,"발언을":8902,"기다리":8903,"북한은":8904,"##넣":8905,"##est":8906,"되는데요":8907,"김무성":8908,"대화를":8909,"##이었고":8910,"집권":8911,"##처를":8912,"없잖아요":8913,"파일":8914,"##협회":8915,"가공":8916,"금전을":8917,"그해":8918,"맘":8919,"하도록":8920,"##기간을":8921,"##쾌":8922,"제5조":8923,"피고들은":8924,"일로":8925,"줄어들":8926,"##또":8927,"후의":8928,"김지":8929,"마이크로":8930,"##왜":8931,"증거로":8932,"크리스":8933,"경찰에":8934,"통계":8935,"기초로":8936,"어떻습니까":8937,"제15":8938,"수비":8939,"##민족":8940,"74":8941,"요소":8942,"##개혁":8943,"확인할":8944,"##운송":8945,"사람에":8946,"##미를":8947,"##판을":8948,"##형사소송법":8949,"카카오":8950,"##검사":8951,"##계좌":8952,"##툰":8953,"계획이":8954,"청구에":8955,"##하긴":8956,"##승을":8957,"##지인":8958,"씨에":8959,"##있어":8960,"sk":8961,"용도":8962,"데서":8963,"근거가":8964,"##니어":8965,"좋은데":8966,"##하였거나":8967,"자를":8968,"연락을":8969,"당사자의":8970,"제국의":8971,"반발":8972,"종종":8973,"이러면서":8974,"시작을":8975,"연관":8976,"가짜":8977,"전면":8978,"원고들에게":8979,"당한":8980,"##ᅳ레일리아":8981,"##장애":8982,"징수":8983,"##서와":8984,"##겐":8985,"박정희":8986,"취지에서":8987,"탄생":8988,"꺼내":8989,"오리":8990,"싶어서":8991,"제기한":8992,"##보존":8993,"일본에서":8994,"##수용":8995,"규제":8996,"사유로":8997,"##에만":8998,"경락":8999,"##조정":9000,"경상남도":9001,"뒤로":9002,"것이지":9003,"규정되어":9004,"##ᆻ잖아":9005,"어두":9006,"전취지를":9007,"용역":9008,"그들이":9009,"##ss":9010,"tr":9011,"앱":9012,"받았고":9013,"크고":9014,"컵":9015,"걸어":9016,"##쿨":9017,"아마도":9018,"출신의":9019,"##치에":9020,"환자":9021,"설시":9022,"##협약":9023,"세월호":9024,"재건축":9025,"##왕의":9026,"내각":9027,"들었습니다":9028,"기준이":9029,"여기에서":9030,"소녀":9031,"하기도":9032,"묘사":9033,"위치하고":9034,"최순실":9035,"이틀":9036,"존나":9037,"상해":9038,"향후":9039,"부칙":9040,"##구만":9041,"##삭":9042,"##등기가":9043,"조선민주주의":9044,"하여도":9045,"귀국":9046,"단기":9047,"변호사가":9048,"닫":9049,"부분의":9050,"의뢰인님":9051,"면에서":9052,"##드릴":9053,"##급을":9054,"##대회":9055,"지위에":9056,"##하였음을":9057,"죽을":9058,"2020년":9059,"검사가":9060,"상대적으로":9061,"것일":9062,"##근로":9063,"의원은":9064,"##입니까":9065,"설치되어":9066,"테러":9067,"했기":9068,"말하고":9069,"비용을":9070,"별다른":9071,"정착":9072,"##관에서":9073,"##신의":9074,"태풍":9075,"le":9076,"##보가":9077,"##민법":9078,"버리":9079,"위헌":9080,"귀족":9081,"모시고":9082,"##업에":9083,"오면":9084,"불복":9085,"##ine":9086,"##if":9087,"부른다":9088,"부분들이":9089,"##컴":9090,"##남이":9091,"일부러":9092,"키로":9093,"증거들에":9094,"##중인":9095,"영향이":9096,"##지사":9097,"렌":9098,"못한다":9099,"탓":9100,"##하면서도":9101,"여기는":9102,"탈출":9103,"강요":9104,"##인한":9105,"한글":9106,"밤에":9107,"##운전":9108,"##ㅋㅋㅋㅋㅋㅋㅋㅋㅋㅋㅋㅋㅋㅋㅋㅋ":9109,"##에선":9110,"아픈":9111,"##년을":9112,"##영이":9113,"이며":9114,"개인의":9115,"될지":9116,"예비적":9117,"유죄":9118,"보유하고":9119,"행사할":9120,"지난해":9121,"만날":9122,"증언에":9123,"##푼의":9124,"빙":9125,"인정을":9126,"현상":9127,"##국에서":9128,"하시고":9129,"##저축은행":9130,"##조선":9131,"이겨":9132,"##산으로":9133,"대륙":9134,"##av":9135,"있었기":9136,"쓰러":9137,"대답":9138,"경험이":9139,"1980":9140,"원래는":9141,"##단과":9142,"소화":9143,"3개":9144,"놈":9145,"선수권":9146,"뛰어":9147,"김준":9148,"사장님":9149,"제16":9150,"사람에게":9151,"서양":9152,"치고":9153,"이슬":9154,"##ᆷ입":9155,"어려울":9156,"해야지":9157,"##연금":9158,"이후로":9159,"##바라":9160,"태평양":9161,"목적을":9162,"장관이":9163,"효율":9164,"일관":9165,"##당에서":9166,"에서는":9167,"번째로":9168,"자전거":9169,"사회주의":9170,"의식":9171,"둥":9172,"핑":9173,"사건은":9174,"제6조":9175,"185":9176,"충분한":9177,"이쪽":9178,"한때":9179,"##자라고":9180,"가격이":9181,"판례":9182,"91":9183,"진정한":9184,"왼쪽":9185,"얘기하고":9186,"후쿠":9187,"기간이":9188,"엠비":9189,"몸을":9190,"형의":9191,"일에":9192,"##목에":9193,"위원회":9194,"항의":9195,"##ᆨ이나":9196,"##는가":9197,"풍부":9198,"주제":9199,"법원에":9200,"##발생":9201,"논쟁":9202,"주었다":9203,"경남":9204,"##병원":9205,"##셨죠":9206,"쏟아":9207,"아일랜드":9208,"공소외":9209,"서명":9210,"모르겠습니다":9211,"프로그램을":9212,"사전에":9213,"##것이":9214,"생길":9215,"승용":9216,"본격적으로":9217,"있거나":9218,"자금을":9219,"배가":9220,"달에":9221,"위반한":9222,"붙어":9223,"##수행":9224,"##중을":9225,"영구":9226,"##가루":9227,"사용한다":9228,"##적이다":9229,"##순위":9230,"했으면":9231,"성우":9232,"##ak":9233,"다가":9234,"오른쪽":9235,"필리핀":9236,"##볼게요":9237,"##기한":9238,"식물":9239,"도달":9240,"설탕":9241,"지금부터":9242,"지냈다":9243,"않지만":9244,"요시":9245,"경상북도":9246,"맡고":9247,"되겠습니다":9248,"글쎄요":9249,"##해지는":9250,"방사":9251,"끌고":9252,"하시면":9253,"부정한":9254,"인정된다":9255,"환지":9256,"모의":9257,"걱정이":9258,"##ess":9259,"믿을":9260,"##소외":9261,"##자로부터":9262,"전까지":9263,"아빠가":9264,"박영":9265,"태어난":9266,"##35":9267,"수여":9268,"##발명":9269,"정치를":9270,"##사인":9271,"##짓":9272,"피고인들이":9273,"이인":9274,"##형은":9275,"##드러":9276,"##뜨리":9277,"직접적인":9278,"오사카":9279,"유로":9280,"자체는":9281,"시절에":9282,"대개":9283,"##모가":9284,"오스트레일리아":9285,"피디":9286,"말라":9287,"##옵니다":9288,"##기지":9289,"##영화":9290,"인기를":9291,"나오면":9292,"##당시":9293,"ne":9294,"현실적으로":9295,"스키":9296,"해방":9297,"어머니가":9298,"손님":9299,"의미하는":9300,"1개":9301,"##ᆺ포":9302,"곧바로":9303,"##수익":9304,"이따":9305,"되나요":9306,"##의무를":9307,"나오는데":9308,"##되었을":9309,"##했죠":9310,"사기죄":9311,"##항공":9312,"애가":9313,"시정":9314,"분의":9315,"##으려고":9316,"##미널":9317,"당신이":9318,"피곤":9319,"기록이":9320,"전부터":9321,"친구들이":9322,"sh":9323,"진료":9324,"##석의":9325,"##하고도":9326,"인가":9327,"납세":9328,"재항고":9329,"누구나":9330,"2의":9331,"일본이":9332,"트로":9333,"그러게":9334,"기회가":9335,"일부가":9336,"넓은":9337,"성매매":9338,"전에는":9339,"빠르게":9340,"기록했다":9341,"베네":9342,"형태의":9343,"존속":9344,"테니까":9345,"##구십":9346,"##듭":9347,"한국에서":9348,"선전":9349,"세운":9350,"동계":9351,"신빙":9352,"셀":9353,"더불어민주":9354,"재료":9355,"개헌":9356,"##방해":9357,"변화가":9358,"피고들":9359,"시작하였다":9360,"##견을":9361,"##협의":9362,"여쭤":9363,"##tv":9364,"이리":9365,"관리를":9366,"있어서의":9367,"사단":9368,"하루에":9369,"부분에서":9370,"나랑":9371,"오래된":9372,"놓은":9373,"##고의":9374,"건축물":9375,"카톡":9376,"성인":9377,"확정판결":9378,"딸이":9379,"초과하는":9380,"시대의":9381,"2015":9382,"on":9383,"문화재":9384,"##파를":9385,"재산상":9386,"일자":9387,"줘야":9388,"덧":9389,"할지라도":9390,"뭔지":9391,"눌":9392,"##승인":9393,"가리키는":9394,"위법하다고":9395,"##임스":9396,"발표한":9397,"##석은":9398,"가시":9399,"베르":9400,"식사":9401,"법령의":9402,"바람에":9403,"용인":9404,"법인세":9405,"##이용":9406,"맞다":9407,"##으로도":9408,"북부":9409,"##친구":9410,"주기":9411,"나머지는":9412,"소리를":9413,"중반":9414,"계승":9415,"제19":9416,"##원들이":9417,"##마스":9418,"부디":9419,"단어":9420,"나왔는데":9421,"찬성":9422,"##영업":9423,"대다":9424,"송금":9425,"##문화재":9426,"대략":9427,"까지는":9428,"않았던":9429,"이르는":9430,"사정에":9431,"오스트리아":9432,"##보내":9433,"재임":9434,"헝가":9435,"##쌍":9436,"공소사실을":9437,"##분할":9438,"범위에":9439,"##제도":9440,"사고를":9441,"승객":9442,"어머님":9443,"##사령":9444,"집행유예":9445,"과실이":9446,"유행":9447,"정정":9448,"##렁":9449,"수표":9450,"뭐지":9451,"일주일":9452,"##빵":9453,"##능력":9454,"핫":9455,"옷을":9456,"가처분":9457,"1986년":9458,"기본적인":9459,"단위":9460,"##모를":9461,"가스":9462,"메뉴":9463,"##건물":9464,"날씨":9465,"##200":9466,"들이":9467,"작전":9468,"취소하고":9469,"소환":9470,"뒤를":9471,"##시즌":9472,"후손":9473,"아베":9474,"##면에서":9475,"##즈의":9476,"to":9477,"됐고":9478,"부가가치세":9479,"1987년":9480,"##레이션":9481,"국민이":9482,"##눈":9483,"##분들이":9484,"무료":9485,"##ᆯ리는":9486,"집으로":9487,"찾는":9488,"마사":9489,"철학":9490,"이행을":9491,"##정상":9492,"빨간":9493,"걸까요":9494,"가질":9495,"##싱턴":9496,"1945년":9497,"이십오":9498,"착오":9499,"##파가":9500,"요건을":9501,"##우가":9502,"비가":9503,"지나지":9504,"팀의":9505,"하나씩":9506,"심리미진":9507,"모르겠어요":9508,"승강장":9509,"아니었":9510,"터키":9511,"##교의":9512,"미칠":9513,"퇴직금":9514,"현저히":9515,"##ᆯ은":9516,"내놓":9517,"합류":9518,"##art":9519,"유리한":9520,"윈도":9521,"보내주":9522,"뛰어난":9523,"필수":9524,"원심판결은":9525,"개인적인":9526,"is":9527,"과정이":9528,"##파의":9529,"봤습니다":9530,"대표는":9531,"협상":9532,"회장님":9533,"조금만":9534,"내용과":9535,"##적의":9536,"민정":9537,"있긴":9538,"괜히":9539,"자율":9540,"##낭":9541,"연출":9542,"비타민":9543,"즉위":9544,"상위":9545,"##ᆺ불":9546,"##셰":9547,"아니하므로":9548,"연구를":9549,"동영":9550,"이만":9551,"들어온":9552,"조례":9553,"주식의":9554,"제7조":9555,"상가":9556,"##선에서":9557,"확정한":9558,"계약이":9559,"인출":9560,"##일로부터":9561,"##함은":9562,"트래":9563,"능력을":9564,"##해졌다":9565,"듣는":9566,"##감독":9567,"다음은":9568,"그러다가":9569,"000원의":9570,"아키":9571,"건립":9572,"꼼":9573,"브랜드":9574,"아이들":9575,"##유의":9576,"##삼십":9577,"##예정":9578,"폐쇄":9579,"##기관이":9580,"뚫":9581,"09":9582,"콘서":9583,"##드에":9584,"종합적으로":9585,"번에":9586,"꼽":9587,"가치를":9588,"##행위는":9589,"##역에":9590,"보여주는":9591,"가능성도":9592,"인정되지":9593,"##가액":9594,"미군":9595,"##ᆻ거나":9596,"삽":9597,"음력":9598,"아름다운":9599,"되었으며":9600,"자유한국당":9601,"미디어":9602,"특례":9603,"거친":9604,"우린":9605,"것들은":9606,"서서":9607,"##건이":9608,"많아서":9609,"적도":9610,"판결의":9611,"서부":9612,"##ob":9613,"포르투":9614,"##피아":9615,"가집행":9616,"황교":9617,"현행":9618,"##프는":9619,"31일":9620,"##ᆻ단":9621,"##셔도":9622,"카를":9623,"받아들이지":9624,"후에는":9625,"##크는":9626,"한두":9627,"외국인":9628,"있음에도":9629,"그런가":9630,"꿀":9631,"대조":9632,"오백":9633,"소리가":9634,"당사자가":9635,"갈라":9636,"##ity":9637,"##33":9638,"위험한":9639,"##ᆺ는데":9640,"과정에":9641,"특정한":9642,"애플":9643,"응원":9644,"1984년":9645,"인접":9646,"아이돌":9647,"임의로":9648,"공소사실에":9649,"작품을":9650,"일년":9651,"이전의":9652,"부족한":9653,"법조":9654,"박물":9655,"만나는":9656,"오일":9657,"##빨":9658,"##이어":9659,"우울":9660,"되었다고":9661,"얘기한":9662,"민사소송법":9663,"##경의":9664,"주장도":9665,"지속적으로":9666,"사랑을":9667,"다하지":9668,"##프가":9669,"##에다":9670,"##하냐":9671,"##해지고":9672,"수사기관":9673,"##마를":9674,"조카":9675,"개성":9676,"점차":9677,"##길이":9678,"소식이":9679,"성격이":9680,"쉬운":9681,"이수":9682,"처분은":9683,"##프ᄅ":9684,"유승민":9685,"시위":9686,"천황":9687,"과도":9688,"가라":9689,"##시까지":9690,"제9조":9691,"120":9692,"나라가":9693,"정리를":9694,"밥을":9695,"벌어진":9696,"별표":9697,"승진":9698,"증거들을":9699,"아래와":9700,"팽":9701,"지니":9702,"하므로":9703,"사용된다":9704,"재밌는":9705,"머물":9706,"##티아":9707,"아니지":9708,"주시면":9709,"어려우":9710,"##시키기":9711,"am":9712,"정체":9713,"사망하였다":9714,"영화배우":9715,"상고이유에서":9716,"##볶":9717,"##45":9718,"다니는":9719,"예약":9720,"있겠습니다":9721,"회생":9722,"쓰레":9723,"번씩":9724,"만들었다":9725,"비판을":9726,"엄청나게":9727,"의존":9728,"눈을":9729,"엑스":9730,"공식적으로":9731,"여자가":9732,"##종을":9733,"너도":9734,"체험":9735,"대출을":9736,"##ud":9737,"##전쟁":9738,"갖게":9739,"양쪽":9740,"한강":9741,"개를":9742,"말해서":9743,"선고한":9744,"음식을":9745,"수십":9746,"차단":9747,"전쟁을":9748,"인디":9749,"평창":9750,"이병":9751,"설치된":9752,"반하여":9753,"씨도":9754,"탈퇴":9755,"깊이":9756,"활발":9757,"강경":9758,"판단하고":9759,"##형으로":9760,"##계회":9761,"사회에":9762,"망인의":9763,"##껏":9764,"전직":9765,"삭제":9766,"동양":9767,"법에":9768,"숭":9769,"무엇이":9770,"봉사":9771,"독특":9772,"##판에":9773,"십구":9774,"제36":9775,"말이다":9776,"게이":9777,"다카":9778,"##행사":9779,"##ᅮᆫ다":9780,"애기":9781,"중개":9782,"##버트":9783,"모르겠는데":9784,"하긴":9785,"찍어":9786,"##현의":9787,"##ang":9788,"##령이":9789,"하셨는데":9790,"##크가":9791,"세계에서":9792,"껍":9793,"잎":9794,"시의":9795,"##먼트":9796,"계산한":9797,"##워드":9798,"1985년":9799,"악화":9800,"##색이":9801,"1979":9802,"왔어요":9803,"이르기까지":9804,"있었으나":9805,"##항을":9806,"##랑이":9807,"하였다고":9808,"실체":9809,"상의":9810,"로보":9811,"##현이":9812,"음악을":9813,"몰래":9814,"데는":9815,"부속":9816,"결정이":9817,"감염":9818,"##메달을":9819,"##하려면":9820,"##명령을":9821,"계약의":9822,"전라남도":9823,"##ㅋㅋㅋㅋㅋㅋ":9824,"피고와":9825,"물어봐":9826,"오로":9827,"보전":9828,"유월":9829,"아버님":9830,"윌리엄":9831,"캘리":9832,"지불":9833,"##등이":9834,"##만원을":9835,"관계없이":9836,"고전":9837,"##구조":9838,"소수":9839,"##민의":9840,"오지":9841,"않아서":9842,"결국에는":9843,"1970년":9844,"##연도":9845,"집이":9846,"##령을":9847,"##등급":9848,"데가":9849,"##보자":9850,"응응":9851,"##대와":9852,"불과한":9853,"포인트":9854,"토요일":9855,"않기":9856,"##ill":9857,"##ㄱㅋ":9858,"##맛이":9859,"05":9860,"오이":9861,"며느리":9862,"sc":9863,"다운":9864,"세무":9865,"##끈":9866,"##대문":9867,"사람들도":9868,"상대방의":9869,"무게":9870,"담아":9871,"당일":9872,"수급":9873,"지나가":9874,"치킨":9875,"이후에도":9876,"공모하여":9877,"뮤지컬":9878,"시인":9879,"고속도로":9880,"장성":9881,"##진은":9882,"걍":9883,"안되":9884,"호소":9885,"홈런":9886,"##보증금":9887,"##터를":9888,"토지는":9889,"장래":9890,"판단이":9891,"연고":9892,"##병을":9893,"##거지":9894,"마세요":9895,"기분이":9896,"모임":9897,"포지":9898,"현역":9899,"모르겠지만":9900,"있었으며":9901,"원천":9902,"해안":9903,"##늬":9904,"여부가":9905,"중국이":9906,"붉은":9907,"요구를":9908,"원심판결에":9909,"부상":9910,"1의":9911,"##고속":9912,"간호":9913,"서울고등법원에":9914,"##46":9915,"##능이":9916,"무효라고":9917,"만드":9918,"본인은":9919,"신호":9920,"살아가":9921,"공기":9922,"끈":9923,"입을":9924,"1982년":9925,"##셀":9926,"어마":9927,"주면":9928,"워싱턴":9929,"나왔다":9930,"##스트로":9931,"##비에스":9932,"많지":9933,"물건을":9934,"신속":9935,"전쟁이":9936,"유족":9937,"동남":9938,"유발":9939,"했지":9940,"것만":9941,"낫":9942,"양성":9943,"가만히":9944,"##해라":9945,"제20":9946,"별개의":9947,"##세로":9948,"##경매":9949,"경비":9950,"허락":9951,"사월":9952,"##브로":9953,"있었죠":9954,"없었고":9955,"##igh":9956,"창조":9957,"서비스를":9958,"으음":9959,"지정상품":9960,"포함한다":9961,"##신용":9962,"##서에서":9963,"##정으로":9964,"메이저":9965,"채권자":9966,"대장":9967,"상세":9968,"메모":9969,"이민":9970,"에도":9971,"항소심":9972,"##사라":9973,"나옵니다":9974,"완공":9975,"킬로":9976,"게임을":9977,"공동으로":9978,"실제로는":9979,"모데":9980,"헨":9981,"##콜":9982,"위법한":9983,"피의자신문":9984,"##nt":9985,"근대":9986,"여행을":9987,"임원":9988,"##주교":9989,"왔":9990,"##연이":9991,"##능을":9992,"해소":9993,"##특례":9994,"가려":9995,"위치해":9996,"월요일":9997,"형을":9998,"##활동을":9999,"교통사고":10000,"보도가":10001,"비율로":10002,"브로":10003,"중에는":10004,"##니깐요":10005,"##재가":10006,"2층":10007,"심한":10008,"복합":10009,"겹":10010,"법령에":10011,"mbc":10012,"##나라는":10013,"##ik":10014,"##주지":10015,"장악":10016,"친구들":10017,"훔":10018,"##이라서":10019,"상태를":10020,"##서울":10021,"주민등록":10022,"양자":10023,"##건의":10024,"제1점에":10025,"투수":10026,"어디에":10027,"실수":10028,"##셨습니까":10029,"##ᅢᆼ이":10030,"법을":10031,"아직까지":10032,"어허":10033,"소득세법":10034,"판단에":10035,"대회에서":10036,"헤이":10037,"##육십":10038,"텐데요":10039,"일요일":10040,"##럴":10041,"##하고요":10042,"기준을":10043,"채무자":10044,"은하":10045,"##대책":10046,"솔로":10047,"법이":10048,"##채권을":10049,"너희":10050,"남녀":10051,"##단계":10052,"막아":10053,"그러기":10054,"승소":10055,"##ell":10056,"있으니":10057,"##21":10058,"거라":10059,"정신적":10060,"승리를":10061,"cd":10062,"여의":10063,"소프트웨어":10064,"개정된":10065,"마케":10066,"알렉산":10067,"않았다고":10068,"스트레스":10069,"책이":10070,"##약품":10071,"범죄의":10072,"프로듀":10073,"광장":10074,"규칙":10075,"##대상이":10076,"동시":10077,"##판사":10078,"기후":10079,"출장":10080,"##망을":10081,"대표이":10082,"않았습니다":10083,"받기":10084,"한쪽":10085,"말입니다":10086,"미세먼":10087,"핸드폰":10088,"##성립":10089,"##세액":10090,"##포니아":10091,"십팔":10092,"보시는":10093,"##용을":10094,"마주":10095,"컬":10096,"요지는":10097,"닦":10098,"사건과":10099,"대단한":10100,"##즈를":10101,"잡혀":10102,"##갸":10103,"다를":10104,"##안은":10105,"##다시":10106,"놀이":10107,"도시로":10108,"해와":10109,"일부는":10110,"김병":10111,"나와요":10112,"된다면":10113,"아줌":10114,"지역은":10115,"##민사소송법":10116,"##산화":10117,"했잖아요":10118,"##거라":10119,"봤어요":10120,"##당과":10121,"다르다":10122,"184":10123,"무상":10124,"있어서도":10125,"잭":10126,"##이하게":10127,"뻐":10128,"포함된":10129,"##석에":10130,"화해":10131,"##오카":10132,"공원":10133,"권유":10134,"반면에":10135,"##씨는":10136,"ii":10137,"재판을":10138,"틈":10139,"##보도록":10140,"##ᆻ을까요":10141,"어긋":10142,"피항소인":10143,"가능성을":10144,"진행이":10145,"##일수":10146,"꺾":10147,"##돌이":10148,"##련의":10149,"##37":10150,"이태":10151,"##법인의":10152,"##우리":10153,"분위기가":10154,"김대중":10155,"실무":10156,"님이":10157,"08":10158,"##방의":10159,"진화":10160,"영수":10161,"같구요":10162,"국어":10163,"보시죠":10164,"해임":10165,"연락이":10166,"##선고":10167,"천안":10168,"##36":10169,"##용의":10170,"현지":10171,"선거에":10172,"주부":10173,"##인트":10174,"박상":10175,"새정치":10176,"학원":10177,"내지는":10178,"열두":10179,"그에게":10180,"수사기록":10181,"병합":10182,"##세이":10183,"##설립":10184,"인기가":10185,"제2항의":10186,"학부모":10187,"##인들을":10188,"판결은":10189,"수고":10190,"극복":10191,"괜찮아요":10192,"특성":10193,"생각보다":10194,"몰아":10195,"##과정에서":10196,"만들어져":10197,"##악이":10198,"##이거든요":10199,"오천":10200,"고급":10201,"하였으며":10202,"제주도":10203,"세부":10204,"공고":10205,"제1호증의":10206,"영입":10207,"fr":10208,"공을":10209,"마지막에":10210,"자연스럽게":10211,"유상":10212,"모두가":10213,"##우의":10214,"##진술":10215,"채권을":10216,"국민들":10217,"후배":10218,"스마트폰":10219,"편성":10220,"체크":10221,"뒤에서":10222,"십육":10223,"믿지":10224,"납입":10225,"바쁘":10226,"##력과":10227,"##달러":10228,"승인을":10229,"##가포":10230,"조건으로":10231,"아니고요":10232,"법원은":10233,"##변제":10234,"플로":10235,"황금":10236,"##연을":10237,"##소와":10238,"##터가":10239,"가져가":10240,"사해":10241,"완제":10242,"이경":10243,"공주":10244,"1983년":10245,"##션은":10246,"이외에":10247,"장치":10248,"900":10249,"피고로부터":10250,"요지":10251,"전당":10252,"고민을":10253,"##절한":10254,"##용이":10255,"역사를":10256,"##셔널":10257,"맛있게":10258,"방식이":10259,"규정의":10260,"라인":10261,"사항에":10262,"필승":10263,"5푼의":10264,"장군":10265,"근로자":10266,"모른":10267,"이상을":10268,"41":10269,"##동조합":10270,"##기보다는":10271,"전사":10272,"##놈":10273,"목격":10274,"정치적인":10275,"국회에서":10276,"노조":10277,"살려":10278,"손에":10279,"저지른":10280,"후보자":10281,"닿":10282,"대출금":10283,"대외":10284,"준다":10285,"마치고":10286,"밖의":10287,"부지":10288,"프레이":10289,"덴마":10290,"승격":10291,"전남":10292,"사건으로":10293,"샌":10294,"생각하면":10295,"거기에서":10296,"그나마":10297,"적정":10298,"##니가":10299,"삼천":10300,"양념":10301,"발견된":10302,"##잠":10303,"길게":10304,"만료":10305,"##본부":10306,"아니한다고":10307,"좋다고":10308,"압박":10309,"출자":10310,"유한":10311,"종중":10312,"호주":10313,"중대":10314,"마약":10315,"영화는":10316,"이벤":10317,"삼국":10318,"면책":10319,"비하여":10320,"변화를":10321,"현장에":10322,"따져":10323,"전체를":10324,"등장하는":10325,"혜택":10326,"미치지":10327,"말하자면":10328,"계기로":10329,"사기죄가":10330,"갔을":10331,"##공원":10332,"달아":10333,"카운":10334,"드시":10335,"넣어서":10336,"해양":10337,"사람들에게":10338,"긍까":10339,"꾸준히":10340,"이내":10341,"기술을":10342,"아내가":10343,"채증법칙을":10344,"도덕":10345,"성남":10346,"성적을":10347,"##나의":10348,"##님께서":10349,"황교안":10350,"현장에서":10351,"보기는":10352,"저질러":10353,"##절차에":10354,"널":10355,"##산시":10356,"듀":10357,"미국은":10358,"피아노":10359,"주장하나":10360,"통행":10361,"거대한":10362,"싱가포":10363,"팝":10364,"수긍할":10365,"부문":10366,"##초에":10367,"대통령과":10368,"법인세법":10369,"##이익":10370,"한나라":10371,"휴대폰":10372,"아리":10373,"건물이":10374,"비롯하여":10375,"##조직":10376,"사업자":10377,"경합범":10378,"##히고":10379,"하나에":10380,"햇":10381,"##세무서장":10382,"양육":10383,"얼른":10384,"먹이":10385,"캘리포니아":10386,"단백질":10387,"담보로":10388,"##소송의":10389,"밖으로":10390,"##올리":10391,"시나":10392,"##ub":10393,"##가이다":10394,"오월":10395,"좋겠어요":10396,"얼굴이":10397,"시작이":10398,"미니":10399,"상계":10400,"골라":10401,"필요하다고":10402,"참여하였다":10403,"진짜로":10404,"##38":10405,"무한":10406,"##티에":10407,"싹":10408,"##te":10409,"삼아":10410,"객관적":10411,"에드":10412,"왔습니다":10413,"화장실":10414,"##틱":10415,"##여자":10416,"유예":10417,"국유":10418,"긴장":10419,"물어보":10420,"지진":10421,"##름이":10422,"세이":10423,"160":10424,"##인이나":10425,"반도":10426,"댁":10427,"1981년":10428,"사회가":10429,"종이":10430,"경주":10431,"유튜브":10432,"se":10433,"만나고":10434,"##부인":10435,"인자":10436,"##에서부터":10437,"제8조":10438,"삼월":10439,"갈아":10440,"이스라":10441,"성명":10442,"##열이":10443,"했더니":10444,"짧게":10445,"준비해":10446,"야마":10447,"물에":10448,"##교를":10449,"##전한":10450,"등재":10451,"인쇄":10452,"때의":10453,"실천":10454,"찾을":10455,"##문제":10456,"##산은":10457,"##회복":10458,"거듭":10459,"##국민":10460,"##마저":10461,"예정이":10462,"##환이":10463,"자신들의":10464,"심의":10465,"사모":10466,"전랴":10467,"##종은":10468,"확인해":10469,"82":10470,"얘가":10471,"해석을":10472,"##사십":10473,"법정에서":10474,"하나를":10475,"##테인":10476,"##하였음은":10477,"권리가":10478,"의회":10479,"##됨으로써":10480,"진영":10481,"피고인과":10482,"이러면":10483,"고소를":10484,"암살":10485,"사용하지":10486,"올랐다":10487,"철저":10488,"##사업에":10489,"금요일":10490,"절차에":10491,"선진":10492,"않느냐":10493,"알았어요":10494,"##어머니":10495,"##구에서":10496,"뭉":10497,"제2점에":10498,"기존에":10499,"##네시아":10500,"##션을":10501,"땜에":10502,"내려가":10503,"넷":10504,"밀어":10505,"청주":10506,"아랍":10507,"죄를":10508,"##음으로":10509,"규정하는":10510,"창원":10511,"겁":10512,"일일":10513,"유료":10514,"등에게":10515,"자신에":10516,"##팩":10517,"공범":10518,"땡":10519,"시장이":10520,"힘들어":10521,"be":10522,"##미는":10523,"뽑아":10524,"##세와":10525,"건국":10526,"시작된":10527,"대체로":10528,"서면":10529,"배척한":10530,"##였으며":10531,"않다고":10532,"입게":10533,"##다나":10534,"뜨거운":10535,"##짐":10536,"소유권보존":10537,"##판결을":10538,"처분이":10539,"##47":10540,"이십일":10541,"미국과":10542,"싸워":10543,"말미":10544,"##냈다":10545,"가능할":10546,"부활":10547,"나타나는":10548,"석유":10549,"##회계":10550,"##운동을":10551,"자고":10552,"덩":10553,"검찰에":10554,"##영철":10555,"먹었":10556,"대처":10557,"##선수":10558,"입시":10559,"면역":10560,"월급":10561,"에피소":10562,"##가합":10563,"브ᄅ":10564,"장례":10565,"반응을":10566,"공연을":10567,"했고요":10568,"알아요":10569,"지리":10570,"불린다":10571,"금속":10572,"배상할":10573,"##공단":10574,"##그리":10575,"중소기업":10576,"전설":10577,"특검":10578,"머리를":10579,"느끼는":10580,"종전의":10581,"프라":10582,"취지는":10583,"##임금":10584,"1960년":10585,"타임":10586,"없거나":10587,"##ue":10588,"거구요":10589,"제도를":10590,"##공사를":10591,"위하여는":10592,"증거의":10593,"##국으로":10594,"유출":10595,"##밀리":10596,"천연":10597,"##라가":10598,"측면이":10599,"덕분에":10600,"공개된":10601,"하셨어요":10602,"무장":10603,"인증":10604,"##끝":10605,"등기부":10606,"##어와":10607,"수사가":10608,"##ᆷ이나":10609,"하나만":10610,"직전":10611,"결제":10612,"서른":10613,"학교에서":10614,"편취":10615,"씨씨":10616,"귀여":10617,"피고를":10618,"##위원회가":10619,"하구요":10620,"##ᆺ고":10621,"분도":10622,"가득":10623,"추징":10624,"단속":10625,"07":10626,"중재":10627,"프로젝트":10628,"삐":10629,"##ᆮ고":10630,"##ice":10631,"보급":10632,"##살이":10633,"택지":10634,"논문":10635,"##ᅳᆺ한":10636,"##젤":10637,"한계를":10638,"종목":10639,"추구":10640,"텍":10641,"하더라고요":10642,"##양을":10643,"법리":10644,"4개":10645,"짚어":10646,"트레이":10647,"보다는":10648,"경정":10649,"부채":10650,"정부에서":10651,"이해를":10652,"1978":10653,"##칠십":10654,"##소년":10655,"휴가":10656,"##all":10657,"at":10658,"재벌":10659,"##부지":10660,"명에":10661,"남자가":10662,"전과":10663,"##테이":10664,"경까지":10665,"옆에서":10666,"지지를":10667,"자체에":10668,"모스크":10669,"##소한":10670,"칭찬":10671,"mar":10672,"##자마자":10673,"캄":10674,"비싼":10675,"번호":10676,"임신":10677,"##해주는":10678,"폴리":10679,"##ian":10680,"##나서":10681,"1979년":10682,"지점":10683,"you":10684,"법률에":10685,"##이었어요":10686,"이월":10687,"즈":10688,"공중":10689,"아닌가요":10690,"영화가":10691,"조합의":10692,"일어나는":10693,"유무":10694,"##수사":10695,"구월":10696,"아니잖아요":10697,"할까요":10698,"보험계약":10699,"십사":10700,"십삼":10701,"식의":10702,"변호인의":10703,"06":10704,"대기업":10705,"부딪":10706,"구멍":10707,"소금":10708,"서민":10709,"창작":10710,"하락":10711,"부장":10712,"##치기":10713,"그랬어요":10714,"집어":10715,"##표가":10716,"베이징":10717,"한참":10718,"차량을":10719,"##ᆫ가":10720,"관객":10721,"그렇구나":10722,"##나라의":10723,"섭취":10724,"단정할":10725,"부회":10726,"##던지":10727,"##쓸":10728,"공제한":10729,"퀴즈":10730,"지체":10731,"독점":10732,"관해서":10733,"지방세법":10734,"##했다가":10735,"군인":10736,"##드와":10737,"반성":10738,"##청을":10739,"자에":10740,"대충":10741,"##보전":10742,"평론가":10743,"원고로부터":10744,"항소는":10745,"##권과":10746,"충청남도":10747,"##39":10748,"분열":10749,"있네요":10750,"사용된":10751,"어렵다고":10752,"나간":10753,"구금":10754,"##결과에":10755,"절도":10756,"스케":10757,"종류의":10758,"소유권이전등기가":10759,"시점":10760,"제임스":10761,"##참가인":10762,"순번":10763,"##나고":10764,"야당이":10765,"##둥이":10766,"##6년에":10767,"##리스트":10768,"##ive":10769,"곡을":10770,"하셔야":10771,"도저히":10772,"##적에":10773,"보도를":10774,"할려고":10775,"삼각":10776,"대부분이":10777,"##사유에":10778,"브루":10779,"가기":10780,"아이스":10781,"일탈":10782,"##판이":10783,"같은해":10784,"수반":10785,"알리":10786,"국가대표팀":10787,"##감정":10788,"세력이":10789,"오세요":10790,"사용자":10791,"그릇":10792,"발표를":10793,"사실오인":10794,"막을":10795,"갔다가":10796,"채택한":10797,"##그러므로":10798,"던져":10799,"조건을":10800,"삼일":10801,"##루스":10802,"탑재":10803,"에스엔에스":10804,"의학":10805,"매월":10806,"중국에":10807,"갖추고":10808,"이어가":10809,"드디어":10810,"이젠":10811,"할아버지":10812,"혈액":10813,"##보안":10814,"입사":10815,"보좌":10816,"##있습니다":10817,"유병":10818,"##드에서":10819,"노예":10820,"서울에":10821,"##분들":10822,"가능성":10823,"창립":10824,"폭탄":10825,"##하느냐":10826,"2억":10827,"사용을":10828,"올린":10829,"연맹":10830,"작년에":10831,"드래":10832,"소급":10833,"##텐데":10834,"해라":10835,"피해가":10836,"대신에":10837,"소송비용":10838,"해상":10839,"조기":10840,"##율은":10841,"어때요":10842,"사용되고":10843,"킹":10844,"기사를":10845,"지는":10846,"이십사":10847,"모순":10848,"##였다고":10849,"편안":10850,"후속":10851,"비대":10852,"꿈을":10853,"뚜려":10854,"이슬람":10855,"준용":10856,"오랜만에":10857,"됐던":10858,"노래가":10859,"발휘":10860,"반대하는":10861,"##픔":10862,"##궐":10863,"배포":10864,"##터리":10865,"##동으로":10866,"부착":10867,"병사":10868,"나온다":10869,"##공급":10870,"##이언":10871,"##사지방법원":10872,"동해":10873,"의장":10874,"나왔어요":10875,"##제품":10876,"##법으로":10877,"##곡을":10878,"허위의":10879,"환급":10880,"##프레":10881,"김창":10882,"마마":10883,"되구요":10884,"관점에서":10885,"캔":10886,"##ᆸ겠습니다":10887,"적용을":10888,"아시안":10889,"부실":10890,"영상을":10891,"베스트":10892,"##주시기":10893,"필요할":10894,"호흡":10895,"##흘":10896,"윗":10897,"김수":10898,"경북":10899,"심장":10900,"주무":10901,"##마이":10902,"마리아":10903,"구단":10904,"##법령":10905,"이용해":10906,"약속어음":10907,"예선":10908,"금액이":10909,"냉장":10910,"보일":10911,"자기는":10912,"##신은":10913,"집회":10914,"소식을":10915,"분에":10916,"쓰지":10917,"6개월":10918,"됐을":10919,"촛불":10920,"##배상":10921,"영장":10922,"##보니":10923,"##ᆻ다면":10924,"몰라요":10925,"##7년에":10926,"##뮤니":10927,"ap":10928,"이끄는":10929,"이나":10930,"영업을":10931,"이러고":10932,"500만":10933,"감시":10934,"본다면":10935,"##권자":10936,"회장이":10937,"보내고":10938,"가도":10939,"맞게":10940,"곳으로":10941,"핀란드":10942,"보기에":10943,"근육":10944,"설사":10945,"##념을":10946,"한국당":10947,"하느냐":10948,"##계는":10949,"것임을":10950,"원심판결의":10951,"아직은":10952,"작성된":10953,"##축을":10954,"강도":10955,"따뜻한":10956,"##로에":10957,"신중":10958,"##슈타":10959,"이르게":10960,"환매":10961,"##끗":10962,"있어도":10963,"##칠년":10964,"2개의":10965,"출범":10966,"##bo":10967,"##운영":10968,"순서":10969,"고문":10970,"##뭐":10971,"후에도":10972,"##년대":10973,"포르투갈":10974,"없어져":10975,"##분은":10976,"됐어":10977,"클라":10978,"##티브":10979,"##환을":10980,"##주의를":10981,"나라를":10982,"##엉":10983,"이미지":10984,"언니가":10985,"복잡한":10986,"조사한":10987,"박원":10988,"새끼":10989,"탕":10990,"선거에서":10991,"향상":10992,"##스틱":10993,"양파":10994,"것이라면":10995,"확실하게":10996,"##차에":10997,"성실":10998,"손해가":10999,"소유자":11000,"대부":11001,"선행":11002,"적응":11003,"호칭":11004,"맞고":11005,"세르":11006,"무관":11007,"##봤는데":11008,"도박":11009,"백만":11010,"ㅋㅋㅋㅋㅋㅋㅋㅋㅋㅋ":11011,"##채권의":11012,"수치":11013,"##프의":11014,"크기":11015,"몽골":11016,"톤":11017,"이스라엘":11018,"or":11019,"국왕":11020,"실시간":11021,"##었는데요":11022,"기간을":11023,"하니":11024,"박수":11025,"250":11026,"적용되는":11027,"모자":11028,"라이브":11029,"해당하여":11030,"##징수":11031,"화성":11032,"회전":11033,"평소에":11034,"##구와":11035,"인감":11036,"제1호증":11037,"헌법재판":11038,"대박":11039,"높다":11040,"정차":11041,"밝혔습니다":11042,"부족하고":11043,"지사":11044,"곳은":11045,"원칙이":11046,"너가":11047,"ex":11048,"어르":11049,"맡겨":11050,"##느라":11051,"승낙":11052,"전투에서":11053,"대가로":11054,"지시를":11055,"레코":11056,"민생":11057,"성적이":11058,"천천":11059,"형사고":11060,"경험을":11061,"불을":11062,"마이클":11063,"필요는":11064,"둘러싸":11065,"문제도":11066,"##셨을":11067,"일하는":11068,"복무":11069,"펀":11070,"계급":11071,"##트와":11072,"##주와":11073,"화면":11074,"채무자가":11075,"##49":11076,"##결이":11077,"##환의":11078,"##받침":11079,"거시":11080,"정산":11081,"우수":11082,"##역으로":11083,"시간은":11084,"님께서":11085,"위기":11086,"목포":11087,"##에게도":11088,"##체육":11089,"##보수":11090,"큐":11091,"노벨":11092,"의혹이":11093,"##간을":11094,"많을":11095,"예능":11096,"체결하고":11097,"인과":11098,"응급":11099,"않아도":11100,"##타를":11101,"라틴":11102,"식별":11103,"1972년":11104,"##어마":11105,"봐서":11106,"말씀하셨":11107,"##데미":11108,"##관과":11109,"가족이":11110,"손으로":11111,"##개가":11112,"합쳐":11113,"목소리가":11114,"현상이":11115,"가르쳐":11116,"메르":11117,"원주":11118,"체납":11119,"하드":11120,"##졸":11121,"##스케":11122,"##개로":11123,"##컨대":11124,"##병이":11125,"저당":11126,"분석을":11127,"전두":11128,"잃어":11129,"##실로":11130,"김주":11131,"속한":11132,"버리고":11133,"진심":11134,"##집에":11135,"급격":11136,"포도":11137,"지나치게":11138,"작성하여":11139,"엔터":11140,"##란다":11141,"얼굴을":11142,"당황":11143,"부담이":11144,"##통을":11145,"이들의":11146,"되므로":11147,"사랑하는":11148,"##직원":11149,"##화와":11150,"식당":11151,"되는지":11152,"확산":11153,"창설":11154,"에프":11155,"싶지":11156,"##채무를":11157,"##공항":11158,"##수이":11159,"기반으로":11160,"변호사의":11161,"##아지":11162,"실지":11163,"1973년":11164,"신앙":11165,"여보":11166,"1층":11167,"사귀":11168,"보러":11169,"인적":11170,"##방에서":11171,"잡지":11172,"179":11173,"샵":11174,"##ge":11175,"##예술":11176,"새겨":11177,"##공동":11178,"세우":11179,"않겠습니까":11180,"##론이":11181,"1950년":11182,"##플레이":11183,"쇼핑":11184,"각각의":11185,"잘하는":11186,"이용해서":11187,"장착":11188,"계십니다":11189,"지낸":11190,"계기가":11191,"##률을":11192,"##조사를":11193,"##거를":11194,"##보드":11195,"치매":11196,"증명이":11197,"##절차에서":11198,"슬로":11199,"##대전":11200,"이루어지지":11201,"사천":11202,"경과한":11203,"##cc":11204,"역사상":11205,"##셨으면":11206,"감옥":11207,"포항":11208,"어디로":11209,"스타일":11210,"코미디":11211,"신인":11212,"적시":11213,"빌리":11214,"회피":11215,"본원":11216,"사업의":11217,"큰일":11218,"홍준":11219,"어렵게":11220,"알아야":11221,"낙찰":11222,"있을지":11223,"레드":11224,"##ph":11225,"##평의":11226,"내야":11227,"무대":11228,"겨우":11229,"바이오":11230,"작동":11231,"고쳐":11232,"##되었다가":11233,"곁":11234,"##겠냐":11235,"화려":11236,"살이":11237,"나라의":11238,"##발명의":11239,"간단하게":11240,"존중":11241,"진행을":11242,"##한테는":11243,"양승":11244,"##탐":11245,"이어져":11246,"##너스":11247,"연금":11248,"높이는":11249,"##계약서":11250,"당연한":11251,"##숭":11252,"##총회":11253,"짝":11254,"나누어":11255,"의미에서":11256,"천천히":11257,"배고":11258,"건가":11259,"##머리":11260,"아버지는":11261,"잘해":11262,"대통령령이":11263,"##주주":11264,"열대":11265,"리스":11266,"있냐":11267,"깎":11268,"##시대의":11269,"키우":11270,"지목":11271,"해주세요":11272,"있기는":11273,"네가":11274,"동작":11275,"아메리카":11276,"운영하고":11277,"##차는":11278,"이르케":11279,"알파":11280,"##하지도":11281,"##합니까":11282,"그분이":11283,"제공한":11284,"부러":11285,"무거운":11286,"설령":11287,"군데":11288,"##ᆯ에":11289,"의사에":11290,"입력":11291,"영원":11292,"넘게":11293,"전체적인":11294,"않았을":11295,"돈은":11296,"요청을":11297,"세금계산":11298,"당이":11299,"영위":11300,"##영은":11301,"체결된":11302,"극단":11303,"##에서만":11304,"경력":11305,"언론에":11306,"속으로":11307,"##관계의":11308,"호의":11309,"익숙":11310,"가지를":11311,"화제가":11312,"실효":11313,"##하를":11314,"미나":11315,"콜로":11316,"가액":11317,"##밭":11318,"지은":11319,"매매계약을":11320,"형식으로":11321,"##자산":11322,"봤어":11323,"그때부터":11324,"학교에":11325,"매수한":11326,"개최된":11327,"주체":11328,"##확정":11329,"침공":11330,"벌어져":11331,"본부":11332,"하였다는":11333,"보는데":11334,"충당":11335,"어마어마":11336,"52":11337,"저작권":11338,"피해자에게":11339,"##떠":11340,"##본법":11341,"여기가":11342,"올라와":11343,"무섭":11344,"양반":11345,"편하게":11346,"##ᆸ시다":11347,"미성":11348,"##청은":11349,"그림을":11350,"##족의":11351,"했으나":11352,"##능력이":11353,"속도":11354,"##했는데요":11355,"##선과":11356,"이끌고":11357,"##타이":11358,"##밤":11359,"표현이":11360,"조건이":11361,"##거래법":11362,"1회":11363,"이번엔":11364,"당뇨":11365,"183":11366,"보도록":11367,"때려":11368,"선택을":11369,"##보이":11370,"있겠지만":11371,"제출된":11372,"##년간":11373,"느낌을":11374,"##되었지만":11375,"##관광":11376,"##셨던":11377,"3차":11378,"갑니다":11379,"주제로":11380,"지방의":11381,"연계":11382,"밀려":11383,"빼고":11384,"비행기":11385,"##시티":11386,"계세요":11387,"##브라":11388,"반려":11389,"약속을":11390,"패션":11391,"열한":11392,"목표로":11393,"##팡":11394,"##거워":11395,"원작":11396,"주간":11397,"병역":11398,"매니":11399,"해당하므로":11400,"년이":11401,"외에는":11402,"수단":11403,"##해주세요":11404,"춤":11405,"철회":11406,"##ᅳ럽":11407,"##와이":11408,"제25":11409,"##우를":11410,"놀러":11411,"##업의":11412,"보내는":11413,"회사에서":11414,"자진":11415,"##생활을":11416,"직권으로":11417,"직접적으로":11418,"세계적으로":11419,"뿌리":11420,"##협동조합":11421,"인정될":11422,"##즈는":11423,"유력":11424,"맛을":11425,"##금지":11426,"득점":11427,"##주신":11428,"##세기에":11429,"성격을":11430,"주위적":11431,"이회":11432,"또다시":11433,"얘기하면":11434,"베를":11435,"밴":11436,"주재":11437,"개봉한":11438,"나왔던":11439,"##니는":11440,"이사회":11441,"팀은":11442,"법리와":11443,"직원이":11444,"##여야":11445,"서방":11446,"할까":11447,"토대로":11448,"인물이":11449,"제2항은":11450,"3개월":11451,"대성":11452,"##절이":11453,"##ᆻ구나":11454,"본소":11455,"##연한":11456,"납품":11457,"인용한":11458,"##ib":11459,"##기간에":11460,"내신":11461,"곰":11462,"시행규칙":11463,"인정사실에":11464,"이루어지는":11465,"플랫포":11466,"##마의":11467,"후보를":11468,"내내":11469,"간부":11470,"붙잡":11471,"##스트라":11472,"##ts":11473,"과징":11474,"미치":11475,"실용":11476,"이용할":11477,"하네요":11478,"경유":11479,"들여다":11480,"샘":11481,"일종이다":11482,"##으시면":11483,"빠진":11484,"다이어트":11485,"##유럽":11486,"눌러":11487,"위법을":11488,"위장":11489,"##헨티":11490,"##증의":11491,"맞이":11492,"기록상":11493,"##자면":11494,"##좀":11495,"하에":11496,"1974년":11497,"어디까지":11498,"사회의":11499,"보이는데":11500,"훌륭한":11501,"유인":11502,"지난번에":11503,"수시":11504,"정관":11505,"탈락":11506,"후보로":11507,"노인":11508,"박성":11509,"기준에":11510,"##패를":11511,"실종":11512,"불법행위":11513,"##미래":11514,"되며":11515,"소송대리인의":11516,"모바":11517,"##컷":11518,"##벅":11519,"엿":11520,"아르헨티":11521,"부가":11522,"거치지":11523,"박종":11524,"교수가":11525,"##씨의":11526,"지연손해금을":11527,"오페":11528,"개그":11529,"이석":11530,"카카오톡":11531,"##게임":11532,"법적으로":11533,"기재한":11534,"접속":11535,"것임에도":11536,"볼까요":11537,"대표변호사":11538,"##너무":11539,"유지하고":11540,"##즈가":11541,"그거에":11542,"##수이다":11543,"수도권":11544,"gr":11545,"##쩍":11546,"##결정에":11547,"않으며":11548,"떨어지는":11549,"연간":11550,"##경부터":11551,"##막이":11552,"그중에":11553,"써서":11554,"액면":11555,"##랭":11556,"달갸":11557,"상황인데":11558,"결정에":11559,"서버":11560,"대한민국에":11561,"매매대금":11562,"감독을":11563,"더블":11564,"최근에는":11565,"##범죄가":11566,"담겨":11567,"##료의":11568,"소는":11569,"1978년":11570,"##아시아":11571,"금융기관":11572,"정보가":11573,"엑":11574,"여신":11575,"자원":11576,"권력을":11577,"##늦":11578,"name4":11579,"그랬죠":11580,"진압":11581,"근로기준":11582,"법규":11583,"게재":11584,"전송":11585,"개혀":11586,"해주는":11587,"##팬":11588,"유치원":11589,"금강":11590,"진술하고":11591,"##역에서":11592,"투자를":11593,"후인":11594,"소유하고":11595,"##스트를":11596,"위험이":11597,"##이도":11598,"중에서도":11599,"##명과":11600,"계속하여":11601,"팀을":11602,"공직선거":11603,"기상":11604,"이웃":11605,"##함으로":11606,"혼합":11607,"들었어요":11608,"인정하여":11609,"설마":11610,"홍준표":11611,"##오일":11612,"하였는데":11613,"데이비":11614,"##훼손":11615,"##차의":11616,"전파":11617,"##임대":11618,"사업에":11619,"중화민국":11620,"강릉":11621,"고구려":11622,"##등기의":11623,"사본":11624,"상임":11625,"##태를":11626,"##지않":11627,"##스러워":11628,"원상":11629,"역사적":11630,"그후":11631,"객관적인":11632,"가난":11633,"사우":11634,"마쓰":11635,"뜻으로":11636,"##다리":11637,"숨겨":11638,"근처에":11639,"개념이":11640,"##아도":11641,"가능성은":11642,"천문":11643,"##66":11644,"##동은":11645,"행사를":11646,"절대로":11647,"이용하는":11648,"000원으로":11649,"##인으로서":11650,"니코":11651,"관계로":11652,"유일하게":11653,"일련의":11654,"연설":11655,"다음으로":11656,"##배를":11657,"전신":11658,"구분소유":11659,"도중":11660,"필요로":11661,"그저":11662,"보여주고":11663,"he":11664,"생각해요":11665,"쓰여":11666,"##놀":11667,"피담보":11668,"크다":11669,"같으므로":11670,"분을":11671,"##희의":11672,"없으나":11673,"본관은":11674,"프리미":11675,"최우":11676,"대학생":11677,"말레이":11678,"덧붙":11679,"하라":11680,"기자회":11681,"바람직":11682,"대하여도":11683,"현황":11684,"공사대금":11685,"없음에도":11686,"##연맹":11687,"##ae":11688,"51":11689,"추정된다":11690,"##욱이":11691,"주장했다":11692,"작성의":11693,"부담하는":11694,"보여줘":11695,"##람표":11696,"방식을":11697,"매주":11698,"##부대":11699,"마땅":11700,"김석":11701,"su":11702,"생방송":11703,"일월":11704,"##관련":11705,"##박한":11706,"부담을":11707,"이들이":11708,"의미로":11709,"보인":11710,"##띠":11711,"가는데":11712,"신도":11713,"느낄":11714,"과다":11715,"##절차의":11716,"뜻하는":11717,"드릴게요":11718,"오신":11719,"학교를":11720,"통상의":11721,"la":11722,"##었거든요":11723,"이준":11724,"효력":11725,"이루고":11726,"파트":11727,"강제집행":11728,"트랙":11729,"주연으로":11730,"장비":11731,"알아보":11732,"국민들의":11733,"눈치":11734,"##고지":11735,"일본은":11736,"군대를":11737,"상법":11738,"나가고":11739,"댄":11740,"연체":11741,"발표했다":11742,"종결":11743,"서울중앙":11744,"포함하는":11745,"피청구":11746,"##재의":11747,"프란":11748,"따뜻":11749,"3인":11750,"종로":11751,"용어":11752,"시작되었다":11753,"깨끗":11754,"없으니":11755,"배정":11756,"공소사실의":11757,"##부장관":11758,"같기도":11759,"ㅜㅜ":11760,"이행하지":11761,"##행에":11762,"##물질":11763,"유학":11764,"##군으로":11765,"먹은":11766,"독특한":11767,"써야":11768,"##말이":11769,"##경은":11770,"학문":11771,"##이상":11772,"인정하기에":11773,"의심을":11774,"축소":11775,"##8년에":11776,"코스":11777,"조선민주주의인민공화국":11778,"속한다":11779,"돌아다니":11780,"##방법에":11781,"경우와":11782,"제10조":11783,"근로자의":11784,"구제":11785,"담고":11786,"남성이":11787,"##르가":11788,"##항은":11789,"하나인":11790,"대표하는":11791,"금원":11792,"프로그램이":11793,"전력":11794,"##늄":11795,"가지로":11796,"##류에":11797,"me":11798,"수색":11799,"##외로":11800,"##들하고":11801,"가맹":11802,"찾아볼":11803,"서울대":11804,"되지만":11805,"1976년":11806,"거래를":11807,"재개":11808,"##까진":11809,"호르":11810,"##났다":11811,"이년":11812,"##되나":11813,"카르":11814,"##으리":11815,"제37조":11816,"측에서":11817,"경찰은":11818,"##드레":11819,"일들이":11820,"매장":11821,"제32":11822,"들어가면":11823,"##9년에":11824,"플러스":11825,"형태를":11826,"##그로":11827,"밖에서":11828,"아미":11829,"버전":11830,"완전한":11831,"부처":11832,"경고":11833,"##금과":11834,"쟤":11835,"##사키":11836,"##시설을":11837,"글로벌":11838,"초에":11839,"파라":11840,"##침을":11841,"빼앗":11842,"##se":11843,"##아가지고":11844,"퍼센트가":11845,"조종":11846,"##픽":11847,"##밀한":11848,"진주":11849,"##ong":11850,"##적용":11851,"##크라이나":11852,"##번의":11853,"##기름":11854,"##재산의":11855,"앵커":11856,"원으로":11857,"추적":11858,"쪽이":11859,"페이스":11860,"##양이":11861,"있은":11862,"민주화":11863,"검사를":11864,"공용":11865,"하위":11866,"의거":11867,"##슬라":11868,"시집":11869,"비교대상":11870,"단체협약":11871,"가면은":11872,"##수당":11873,"##민이":11874,"쓰인다":11875,"##브를":11876,"바닥":11877,"##텍":11878,"돈으로":11879,"반찬":11880,"##키아":11881,"과일":11882,"##군다나":11883,"##목의":11884,"##등본":11885,"공업":11886,"과실로":11887,"이일":11888,"사임":11889,"내린":11890,"저렴":11891,"국가에":11892,"열고":11893,"대표를":11894,"##죄는":11895,"관리하는":11896,"주민들이":11897,"##자들에":11898,"실망":11899,"전라북도":11900,"81":11901,"합성":11902,"자유를":11903,"행하여":11904,"서류를":11905,"발라":11906,"산하":11907,"##톱":11908,"일자리":11909,"제외하고는":11910,"가이":11911,"학술":11912,"lg":11913,"##흑":11914,"인용하고":11915,"합니까":11916,"사람으로":11917,"박사님":11918,"##틀랜드":11919,"언제든지":11920,"선보":11921,"존재를":11922,"대학에":11923,"1주":11924,"이야기는":11925,"협조":11926,"우측":11927,"##환으로":11928,"모스크바":11929,"지붕":11930,"##시스테":11931,"시티":11932,"씨와":11933,"##청구에":11934,"나카":11935,"우리나라에":11936,"##져야":11937,"기도":11938,"나타내는":11939,"대동":11940,"##찾":11941,"들어와서":11942,"수송":11943,"##ㅋㅋㅋㅋㅋㅋㅋ":11944,"머리가":11945,"전부를":11946,"1971년":11947,"##텐츠":11948,"##오년":11949,"##해질":11950,"##절을":11951,"됐죠":11952,"재위":11953,"##기구":11954,"향해":11955,"##장에게":11956,"##이다라고":11957,"협회":11958,"##해와":11959,"원리":11960,"시작합니다":11961,"활성화":11962,"##먹는":11963,"장사":11964,"괴롭":11965,"밀리":11966,"##하기를":11967,"북서":11968,"##건데":11969,"동성":11970,"것보다":11971,"##난다":11972,"만들기":11973,"해볼":11974,"탈당":11975,"강점":11976,"af":11977,"##윈":11978,"결과는":11979,"말미암":11980,"수의":11981,"정치권":11982,"##최고":11983,"입니다":11984,"##케이션":11985,"십년":11986,"의혹을":11987,"메시지를":11988,"##ᆻ느냐":11989,"수수료":11990,"성공을":11991,"김광":11992,"미루":11993,"자기네":11994,"어르신":11995,"목소리를":11996,"##량에":11997,"공군":11998,"##레스":11999,"할게요":12000,"채워":12001,"하는지":12002,"##똑":12003,"##훈련":12004,"##ta":12005,"상식":12006,"외의":12007,"##으라고":12008,"드립니다":12009,"##억이":12010,"주최":12011,"예전에는":12012,"잡는":12013,"우크라이나":12014,"##등에관한법률":12015,"중순":12016,"1975년":12017,"##4년에":12018,"정도면":12019,"법률의":12020,"북한을":12021,"억제":12022,"관료":12023,"신동":12024,"ad":12025,"거군요":12026,"과반":12027,"잘라":12028,"불가능한":12029,"대수":12030,"##무가":12031,"얇":12032,"##로그":12033,"당의":12034,"##oh":12035,"위안":12036,"인사를":12037,"윈도우":12038,"##방미터":12039,"성향":12040,"밝힌":12041,"##말을":12042,"조리":12043,"식민지":12044,"인간이":12045,"둬":12046,"##치면":12047,"들어오는":12048,"약간의":12049,"보험금":12050,"끓여":12051,"철수":12052,"1968년":12053,"확실한":12054,"이규":12055,"어이":12056,"강간":12057,"##ate":12058,"기다리고":12059,"위법하다":12060,"고통을":12061,"의원들이":12062,"저녁에":12063,"잠수":12064,"오스":12065,"##ᆻ거든":12066,"이순":12067,"##달리":12068,"행성":12069,"사회통":12070,"아카데미":12071,"##천시":12072,"정해진":12073,"매운":12074,"생각하지":12075,"개방":12076,"무사":12077,"##검찰":12078,"적당":12079,"연구소":12080,"날인":12081,"##인들에게":12082,"돼지":12083,"채권의":12084,"##ᆺ날":12085,"이모":12086,"##1호로":12087,"장식":12088,"확립":12089,"##ore":12090,"중국에서":12091,"##위원회에":12092,"##위에서":12093,"곳을":12094,"왔어":12095,"명확하게":12096,"방향을":12097,"##우드":12098,"규모의":12099,"##권한":12100,"빗":12101,"게임이":12102,"발굴":12103,"##꼼":12104,"커뮤니":12105,"양이":12106,"##화국의":12107,"##었기":12108,"받는다":12109,"내놔":12110,"##ㄱㄱ":12111,"간단한":12112,"십칠":12113,"##닐":12114,"##라의":12115,"##되던":12116,"일어날":12117,"진정성립":12118,"그걸로":12119,"얘기했":12120,"거기는":12121,"권한이":12122,"대학을":12123,"해에":12124,"되느냐":12125,"켜":12126,"최선을":12127,"감자":12128,"##왕이":12129,"제1심판결을":12130,"이은":12131,"알레":12132,"목숨을":12133,"경기에":12134,"##념에":12135,"이들을":12136,"처한다":12137,"그들":12138,"아님":12139,"동음이":12140,"수술을":12141,"해설":12142,"됐다고":12143,"ph":12144,"##전화":12145,"정상회담":12146,"돕":12147,"배려":12148,"하되":12149,"네트워크":12150,"못하여":12151,"누군가":12152,"가동":12153,"보이스피":12154,"메인":12155,"제기할":12156,"##루를":12157,"##원심은":12158,"##졌고":12159,"있었거든요":12160,"애매":12161,"썼다":12162,"##5년에":12163,"##라스":12164,"생일":12165,"##졌습니다":12166,"사서":12167,"않았다는":12168,"##청구권을":12169,"확인이":12170,"드는데":12171,"159":12172,"시스템을":12173,"##행의":12174,"영광":12175,"남는":12176,"발견된다":12177,"제외하고":12178,"1세":12179,"pc":12180,"동음이의":12181,"##분야":12182,"잇는":12183,"쫙":12184,"중화인민공화국":12185,"##넌":12186,"##집이":12187,"누락":12188,"남동":12189,"막기":12190,"반응이":12191,"##이년":12192,"##사업법":12193,"##어진다":12194,"##면적":12195,"전인":12196,"교섭":12197,"인도네시아":12198,"재배":12199,"돌아온":12200,"발송":12201,"##박쥐":12202,"##음악":12203,"해가":12204,"유명하다":12205,"감정을":12206,"높습니다":12207,"화합":12208,"위치한다":12209,"##범죄가중":12210,"##시행규칙":12211,"wh":12212,"수소":12213,"##초등학교는":12214,"##이게":12215,"##진에":12216,"##율에":12217,"경료된":12218,"베를린":12219,"하라고":12220,"죽음":12221,"##없다":12222,"교토":12223,"##io":12224,"##들인":12225,"델":12226,"네이버":12227,"##혐의":12228,"##회사에":12229,"싸움":12230,"한도":12231,"##점유":12232,"보냈다":12233,"함부로":12234,"1963년":12235,"씨씨티":12236,"진학":12237,"바람이":12238,"촌":12239,"기대를":12240,"셔":12241,"##토리":12242,"스파":12243,"시작하여":12244,"남의":12245,"정권이":12246,"##경쟁":12247,"본선":12248,"##조의3":12249,"시골":12250,"엄마는":12251,"가구":12252,"삼촌":12253,"군의":12254,"과장":12255,"보신":12256,"북한에서":12257,"안타까운":12258,"1969년":12259,"방출":12260,"상황은":12261,"##56":12262,"준비한":12263,"그러니":12264,"놀래":12265,"제12조":12266,"짱":12267,"##직에":12268,"##리게":12269,"공사가":12270,"넉":12271,"1977년":12272,"부수":12273,"교도":12274,"##자금을":12275,"다닐":12276,"원판결을":12277,"한화":12278,"음식이":12279,"재생":12280,"팔아":12281,"##라구":12282,"##곡이":12283,"법인이":12284,"##2년에":12285,"나빠":12286,"면이":12287,"비용이":12288,"오직":12289,"중구":12290,"##다카":12291,"초등학교이다":12292,"제안을":12293,"정복":12294,"그동안에":12295,"지어":12296,"나중":12297,"하였":12298,"사례가":12299,"##앉":12300,"##아파트":12301,"그런지":12302,"있는가":12303,"대행":12304,"명령을":12305,"구성원":12306,"윤리":12307,"구성하는":12308,"##채무의":12309,"##하에서":12310,"##마토":12311,"면적":12312,"미성년":12313,"독재":12314,"##다시피":12315,"임진":12316,"프로세":12317,"##하시죠":12318,"##블리":12319,"수탁":12320,"##전자":12321,"좋죠":12322,"대부분은":12323,"주택건설":12324,"##업무를":12325,"요한":12326,"부당하게":12327,"##견이":12328,"공산주의":12329,"##더러":12330,"##망이":12331,"범죄를":12332,"여성의":12333,"##시설의":12334,"내역":12335,"관세":12336,"110":12337,"##기간의":12338,"얻고":12339,"이해할":12340,"김정일":12341,"고무":12342,"끝으로":12343,"보이스피싱":12344,"##표의":12345,"130":12346,"지급하고":12347,"##자료를":12348,"백화":12349,"맞춰서":12350,"cr":12351,"음성":12352,"경성":12353,"비슷하게":12354,"극장":12355,"파는":12356,"보였다":12357,"결론그렇다면":12358,"데도":12359,"초기에":12360,"스위스":12361,"오염":12362,"쾌":12363,"부작용":12364,"임명되었다":12365,"##평균":12366,"완화":12367,"##아는":12368,"아이구":12369,"알았는데":12370,"##치료":12371,"사람한테":12372,"행위로":12373,"들으":12374,"뛰어나":12375,"##지마":12376,"걸린":12377,"결코":12378,"번의":12379,"의문":12380,"가면서":12381,"아까도":12382,"함에도":12383,"##겠구나":12384,"새로이":12385,"하도급":12386,"##34":12387,"거리가":12388,"##심사":12389,"선호":12390,"이쁘":12391,"재개발":12392,"낮아":12393,"판단하게":12394,"##ich":12395,"벨기에":12396,"가상":12397,"보편":12398,"##일람표":12399,"스리":12400,"얻었다":12401,"젖":12402,"##슨은":12403,"##범죄가중처벌":12404,"##결정이":12405,"시작으로":12406,"모바일":12407,"##달에":12408,"72":12409,"##ᅳ르":12410,"오빠가":12411,"##해주신":12412,"아줌마":12413,"##측의":12414,"거론":12415,"지고":12416,"박준":12417,"기성":12418,"일방적으로":12419,"선거를":12420,"지식을":12421,"기온":12422,"된다라고":12423,"문건":12424,"끊임":12425,"##연대":12426,"부분과":12427,"맡은":12428,"무서운":12429,"종업":12430,"불이익":12431,"헝가리":12432,"받았는데":12433,"달라는":12434,"발매되었다":12435,"기가":12436,"광역":12437,"그로부터":12438,"##뚱":12439,"진행하는":12440,"##m의":12441,"제30조":12442,"##철이":12443,"170":12444,"##길을":12445,"1위를":12446,"오바":12447,"오로지":12448,"기자가":12449,"앞으로도":12450,"대량":12451,"힘드":12452,"cou":12453,"오만":12454,"사용자가":12455,"변호사를":12456,"훈련을":12457,"##리다":12458,"재결":12459,"##씨를":12460,"##됨에":12461,"##미의":12462,"북동":12463,"용서":12464,"##미니":12465,"##ㅌㅌ":12466,"조사가":12467,"문언":12468,"##tr":12469,"##여행":12470,"이회창":12471,"인식이":12472,"재해":12473,"문자를":12474,"잘못을":12475,"읽고":12476,"그리구":12477,"실질적":12478,"의원을":12479,"청문회":12480,"러시아의":12481,"##대금의":12482,"손해의":12483,"동반":12484,"검찰에서":12485,"##86":12486,"##거죠":12487,"지급하지":12488,"포함하고":12489,"##팔년":12490,"힌":12491,"제작에":12492,"공무원이":12493,"법의":12494,"멸망":12495,"되돌":12496,"성질을":12497,"이래서":12498,"한양":12499,"나이에":12500,"리더십":12501,"##00년":12502,"##발전":12503,"출산":12504,"co":12505,"합동":12506,"us":12507,"용산":12508,"건네":12509,"이해관계":12510,"불가피":12511,"##디션":12512,"물려":12513,"다음의":12514,"다행히":12515,"시월":12516,"##업이":12517,"5개":12518,"거로":12519,"##사이트":12520,"수백":12521,"파워":12522,"불리한":12523,"없었다고":12524,"안동":12525,"년간":12526,"채무자의":12527,"사기죄로":12528,"흙":12529,"##르기":12530,"교류":12531,"육상":12532,"##위원회는":12533,"##의무가":12534,"##호와":12535,"집행을":12536,"##하였음에도":12537,"용도로":12538,"땅을":12539,"율":12540,"스카":12541,"##3년에":12542,"만주":12543,"##룩":12544,"##롤":12545,"##리즘":12546,"약정한":12547,"제11조":12548,"선수들이":12549,"인구가":12550,"##갔다":12551,"나오셨습니다":12552,"활동하고":12553,"참작하여":12554,"사용되었다":12555,"끝날":12556,"인터뷰를":12557,"의정부":12558,"담은":12559,"명도":12560,"구두":12561,"##장치":12562,"##먹을":12563,"측근":12564,"##병대":12565,"업무에":12566,"유해":12567,"맛있어요":12568,"이천십육":12569,"자존":12570,"19세기":12571,"초등":12572,"k리그":12573,"2세":12574,"국도":12575,"팔월":12576,"장면이":12577,"##쌀":12578,"##로드":12579,"비핵화":12580,"않았지만":12581,"뿐이다":12582,"1000":12583,"이지":12584,"린":12585,"해줄":12586,"##축이":12587,"힙":12588,"얘기죠":12589,"콜라":12590,"사립학교":12591,"상을":12592,"##수산":12593,"고종":12594,"##고사":12595,"북아":12596,"제어":12597,"##임에도":12598,"이어지":12599,"반소원고":12600,"##였죠":12601,"대통령께서":12602,"납득":12603,"지지율이":12604,"장교":12605,"##절차가":12606,"##1년에":12607,"원판결은":12608,"구글":12609,"야간":12610,"선거운동":12611,"참가인":12612,"정수":12613,"전체가":12614,"##침이":12615,"책은":12616,"어떡해":12617,"##젤레":12618,"##uc":12619,"혐의를":12620,"모리":12621,"스크리":12622,"아뇨":12623,"##바다":12624,"원심증인":12625,"세웠다":12626,"대공":12627,"셋째":12628,"기운":12629,"##심한":12630,"했으며":12631,"김민":12632,"면할":12633,"##념상":12634,"경기가":12635,"유용":12636,"##살을":12637,"이탈리아의":12638,"심판청구":12639,"뜻한다":12640,"있더라고요":12641,"진지":12642,"꼴":12643,"기구":12644,"얼마든지":12645,"##규정에":12646,"다니고":12647,"소극":12648,"드시는":12649,"대표님":12650,"모를":12651,"혼자서":12652,"불과하여":12653,"없거든요":12654,"처분에":12655,"위성":12656,"보여집니다":12657,"맞서":12658,"함수":12659,"##트랙":12660,"구현":12661,"미드":12662,"181":12663,"그레이":12664,"##밀하게":12665,"십이월":12666,"##증서":12667,"소스":12668,"##물인":12669,"제2호증의":12670,"난리":12671,"##99":12672,"아휴":12673,"착수":12674,"상반":12675,"올리고":12676,"##바르":12677,"발명의":12678,"총리가":12679,"적극적인":12680,"졸업하고":12681,"정해":12682,"##계약은":12683,"##십니다":12684,"아니며":12685,"##표에":12686,"장수":12687,"178":12688,"채무의":12689,"sbs":12690,"로버트":12691,"기사가":12692,"사직":12693,"as":12694,"무덤":12695,"경찰관":12696,"##ᇀ은":12697,"농민":12698,"모셨습니다":12699,"특히나":12700,"62":12701,"##채를":12702,"##폴":12703,"##ᆯ런":12704,"영웅":12705,"기간에":12706,"광복":12707,"기능이":12708,"##염이":12709,"사과를":12710,"총장":12711,"##층의":12712,"불공":12713,"상당하다고":12714,"웹툰":12715,"##탱":12716,"1심":12717,"사람이다":12718,"##으라":12719,"##례를":12720,"이윤":12721,"시작하는":12722,"귀찮":12723,"운반":12724,"##루가":12725,"짤":12726,"의원의":12727,"철도역이다":12728,"녹색":12729,"시키는":12730,"서초":12731,"계시는":12732,"있으면서":12733,"제3자에게":12734,"##층이":12735,"일구":12736,"##란에":12737,"새우":12738,"그레":12739,"먹어도":12740,"##잇":12741,"나두":12742,"아니기":12743,"높게":12744,"##실험":12745,"##포를":12746,"##테르":12747,"##감한":12748,"##57":12749,"보고서":12750,"어쩌면":12751,"##거는":12752,"제1항에서":12753,"도움":12754,"소개를":12755,"뜯":12756,"랩":12757,"1948년":12758,"ㅋㅋㅋㅋㅋㅋㅋㅋㅋㅋㅋ":12759,"##떡":12760,"지닌":12761,"##사기":12762,"평범":12763,"의지":12764,"민주당이":12765,"이어지는":12766,"수를":12767,"정유":12768,"정태":12769,"농촌":12770,"국회가":12771,"이재명":12772,"##있는데":12773,"민사소송":12774,"##화한":12775,"우유":12776,"무서워":12777,"이현":12778,"윌":12779,"간이":12780,"서울에서":12781,"액션":12782,"위험을":12783,"청나라":12784,"##팀이":12785,"감정평가":12786,"제품을":12787,"정무":12788,"##비와":12789,"창업":12790,"탈북":12791,"쓰레기":12792,"크레":12793,"병원에서":12794,"변경되었다":12795,"느끼고":12796,"뒷받침":12797,"멍":12798,"시를":12799,"나요":12800,"작품은":12801,"##도르":12802,"전날":12803,"관계는":12804,"언제나":12805,"##이어서":12806,"조달":12807,"후기":12808,"##이네":12809,"앓":12810,"남서":12811,"취지가":12812,"죽고":12813,"1에":12814,"등록을":12815,"패턴":12816,"폼":12817,"전형적인":12818,"증상이":12819,"##념이":12820,"##철의":12821,"이루는":12822,"극히":12823,"약칭":12824,"##때문에":12825,"포지션은":12826,"##통지":12827,"밀접":12828,"기억을":12829,"##ys":12830,"시어머니":12831,"상무":12832,"en":12833,"유언":12834,"응용":12835,"지분을":12836,"##심에":12837,"##니의":12838,"우연히":12839,"역으로":12840,"정권을":12841,"갈등이":12842,"상습":12843,"콤":12844,"다툼":12845,"주장할":12846,"야권":12847,"2016":12848,"환영":12849,"막상":12850,"##당사자":12851,"동북":12852,"관계에서":12853,"##사랑":12854,"주목을":12855,"140":12856,"아니하였다":12857,"동년":12858,"피고인들은":12859,"##부분은":12860,"바보":12861,"산맥":12862,"건강한":12863,"긍정적인":12864,"금품":12865,"##아를":12866,"살펴본":12867,"##권자가":12868,"##타는":12869,"##ect":12870,"1964년":12871,"##일까지는":12872,"이루어지고":12873,"들어보겠습니다":12874,"갓":12875,"차려":12876,"얻는":12877,"코드":12878,"개발한":12879,"##진흥":12880,"점검":12881,"역을":12882,"노란":12883,"있단":12884,"낯":12885,"오오":12886,"들었는데":12887,"복원":12888,"환불":12889,"##ᆷ임":12890,"브":12891,"주교":12892,"출간":12893,"최종적으로":12894,"충남":12895,"##라고도":12896,"부상을":12897,"전북":12898,"이차":12899,"측은":12900,"발전을":12901,"##과정":12902,"##늦게":12903,"대학이":12904,"일체의":12905,"쓰이는":12906,"쫓아":12907,"##뱅":12908,"이시":12909,"제23조":12910,"않았는데":12911,"마음대로":12912,"정시":12913,"국경":12914,"##발이":12915,"세기":12916,"약한":12917,"##야죠":12918,"시간입니다":12919,"칠월":12920,"##ok":12921,"이끌어":12922,"외환":12923,"세탁":12924,"더군다나":12925,"우리나라가":12926,"상응":12927,"제공하고":12928,"##약에":12929,"정치적으로":12930,"음료":12931,"제도가":12932,"ㅋㅋㅋㅋㅋㅋㅋㅋㅋㅋㅋㅋㅋㅋㅋㅋㅋ":12933,"가격을":12934,"기업의":12935,"김해":12936,"굿":12937,"라면":12938,"경작":12939,"과세관":12940,"##다란":12941,"마드리":12942,"매달":12943,"곳곳":12944,"두었다":12945,"미화":12946,"이전에는":12947,"심지어는":12948,"##매수":12949,"##파는":12950,"반환을":12951,"3억":12952,"위치를":12953,"##위원장":12954,"배신":12955,"비정":12956,"##화물":12957,"마음으로":12958,"시설을":12959,"즐겨":12960,"자격을":12961,"하나하나":12962,"연말":12963,"##납부":12964,"쎄":12965,"##이잖아요":12966,"사이트":12967,"##제국":12968,"십만":12969,"제4호":12970,"바뀐":12971,"국방부":12972,"소의":12973,"눈물":12974,"대결":12975,"유산":12976,"했는지":12977,"##먹어":12978,"##공을":12979,"##하시기":12980,"동서":12981,"##ert":12982,"##들끼리":12983,"##연의":12984,"치열":12985,"조현":12986,"##판단":12987,"침입":12988,"장남":12989,"정치가":12990,"정당하다":12991,"스트리":12992,"중부":12993,"명백히":12994,"##후보":12995,"단서":12996,"생각하십니까":12997,"주말에":12998,"요번에":12999,"##됐던":13000,"##없어":13001,"1940년":13002,"디스":13003,"개념을":13004,"유병언":13005,"부패":13006,"1967년":13007,"브레":13008,"##000":13009,"교육이":13010,"스무":13011,"과목":13012,"사인":13013,"##에게서":13014,"일조":13015,"안나":13016,"범죄일람표":13017,"##원심판결":13018,"##상호":13019,"##화학":13020,"1977":13021,"##열을":13022,"이재용":13023,"##딸":13024,"인종":13025,"##내지":13026,"##하구요":13027,"기록한":13028,"서구":13029,"세계적인":13030,"여러분들이":13031,"있음":13032,"오피":13033,"##소프트":13034,"주둔":13035,"산정한":13036,"진술이":13037,"사면":13038,"중요합니다":13039,"진술한":13040,"떨어":13041,"부정적인":13042,"식구":13043,"김일성":13044,"국가를":13045,"후회":13046,"되어야":13047,"상대방에게":13048,"명예훼손":13049,"파란":13050,"##요일에":13051,"김한":13052,"좋아서":13053,"비비":13054,"받았다고":13055,"앉아서":13056,"수습":13057,"저희도":13058,"ㅠㅠㅠ":13059,"##당했다":13060,"속이":13061,"위배하여":13062,"부르고":13063,"반소피고":13064,"어머니는":13065,"부탁을":13066,"아기":13067,"있었는데요":13068,"받았습니다":13069,"보컬":13070,"경향이":13071,"지역으로":13072,"자유롭게":13073,"##생을":13074,"04":13075,"##ly":13076,"카이":13077,"위치에":13078,"준비가":13079,"추석":13080,"노동자":13081,"어업":13082,"깃":13083,"사회에서":13084,"##률은":13085,"준수":13086,"계약금":13087,"분야에서":13088,"##더라면":13089,"중립":13090,"중지":13091,"##오가":13092,"매립":13093,"##조회":13094,"나선":13095,"중이다":13096,"씹":13097,"가보":13098,"##본이":13099,"한성":13100,"국내에서":13101,"거기가":13102,"##해석":13103,"않았어요":13104,"변동":13105,"##해야지":13106,"1962년":13107,"드림":13108,"원정":13109,"잠재":13110,"비리":13111,"뿐이고":13112,"##뽕":13113,"움직이는":13114,"바퀴":13115,"채권자가":13116,"운영을":13117,"박탈":13118,"##스트리":13119,"상품의":13120,"##으루":13121,"비트":13122,"##하셨습니다":13123,"진상":13124,"상장":13125,"지급받은":13126,"신경을":13127,"뉘":13128,"바꿀":13129,"쓰리":13130,"##방향":13131,"전두환":13132,"부자":13133,"##권도":13134,"참여한":13135,"##kg":13136,"주실":13137,"##약정":13138,"사항은":13139,"##계획을":13140,"나아":13141,"찢":13142,"놈이":13143,"##불이행":13144,"##식과":13145,"##천군":13146,"골든":13147,"##자로서의":13148,"거네요":13149,"##리한":13150,"했으니까":13151,"저번에":13152,"##문과":13153,"진행하고":13154,"모여서":13155,"##제2":13156,"##강을":13157,"##게는":13158,"김덕":13159,"사이버":13160,"##들과의":13161,"상고이유로":13162,"끝이":13163,"##하가":13164,"최재":13165,"찍은":13166,"아티":13167,"##들에서":13168,"##다섯":13169,"##노이":13170,"##클럽":13171,"삶의":13172,"##항소취지":13173,"##크래":13174,"##오프":13175,"##제와":13176,"오케이":13177,"않으므로":13178,"##그램":13179,"엔터테인":13180,"##범이":13181,"##생이":13182,"곡은":13183,"스코틀랜드":13184,"##오면":13185,"여보세요":13186,"불법행위로":13187,"인정하기":13188,"손상":13189,"##하진":13190,"아들을":13191,"인재":13192,"감면":13193,"##했지":13194,"##뤄":13195,"##곽":13196,"될까":13197,"지향":13198,"##층에":13199,"피고인들에":13200,"모르지만":13201,"바른미래":13202,"##단에서":13203,"이번에도":13204,"막내":13205,"싶고":13206,"것이기":13207,"배를":13208,"이메":13209,"##스포":13210,"부를":13211,"부임":13212,"평등":13213,"필요성이":13214,"##대행":13215,"메시지":13216,"참모":13217,"걔네":13218,"줄어":13219,"픽":13220,"총괄":13221,"길이는":13222,"##색으로":13223,"마디":13224,"충격을":13225,"차량의":13226,"처형":13227,"fa":13228,"##매를":13229,"건물은":13230,"부과처분":13231,"시장에":13232,"신한":13233,"평가가":13234,"맥주":13235,"말미암아":13236,"박지원":13237,"대한민국에서":13238,"##되도록":13239,"아래에서":13240,"전통적인":13241,"##겁게":13242,"되기도":13243,"##자원":13244,"##에프":13245,"중복":13246,"지급하기로":13247,"드루":13248,"##1호":13249,"서울민":13250,"##있게":13251,"##비치":13252,"무엇을":13253,"랭":13254,"사냥":13255,"자발":13256,"##교사":13257,"해주고":13258,"타이완":13259,"차지하는":13260,"##경기에":13261,"후임":13262,"왕이":13263,"자체의":13264,"시스템이":13265,"##잖습니까":13266,"놓여":13267,"중고":13268,"요금":13269,"##순이":13270,"자격이":13271,"##규의":13272,"카드를":13273,"잠을":13274,"우편":13275,"도주":13276,"사백":13277,"충실":13278,"예수":13279,"지난번":13280,"##버그":13281,"후지":13282,"##역의":13283,"태도를":13284,"##하마":13285,"청와대가":13286,"김명":13287,"명은":13288,"다큐":13289,"##범의":13290,"묵시":13291,"불이익을":13292,"하구":13293,"똥":13294,"주택을":13295,"##ᅱᆫ":13296,"과거의":13297,"##사유로":13298,"##3호로":13299,"답변을":13300,"##탁이":13301,"독서":13302,"현존":13303,"피고인김":13304,"성과를":13305,"아테":13306,"변형":13307,"정부를":13308,"##쿠라":13309,"것이지만":13310,"담긴":13311,"자신은":13312,"기록과":13313,"찾아서":13314,"##할까":13315,"동업":13316,"ww":13317,"기대가":13318,"##기념":13319,"##보기":13320,"##per":13321,"전수":13322,"왠지":13323,"학생들":13324,"ma":13325,"실업":13326,"주한":13327,"##했으면":13328,"변경된":13329,"사람과":13330,"누워":13331,"##채권에":13332,"선조":13333,"##양의":13334,"간첩":13335,"아니거든요":13336,"이원":13337,"신화":13338,"보낼":13339,"주사":13340,"##감도":13341,"순위":13342,"압도":13343,"있구나":13344,"제3호증의":13345,"하더라고":13346,"여유":13347,"##공사의":13348,"브레이":13349,"이러는":13350,"##일본":13351,"법무부":13352,"말라고":13353,"없다면":13354,"주의를":13355,"저의":13356,"##탄을":13357,"1946년":13358,"##전환":13359,"##바닥":13360,"##고속도로":13361,"##시킨다":13362,"사드":13363,"항복":13364,"비율이":13365,"이념":13366,"부른":13367,"##버리는":13368,"걔가":13369,"##근거":13370,"##iz":13371,"##ne":13372,"##58":13373,"##속으로":13374,"버린":13375,"천만":13376,"최진":13377,"##져요":13378,"##두에":13379,"##키스탄":13380,"사진이":13381,"꽂":13382,"명절":13383,"공소장":13384,"국내에":13385,"시나리오":13386,"##ᆿㅋㅋㅋ":13387,"이진":13388,"요즘에는":13389,"죄가":13390,"몰려":13391,"##하였지만":13392,"날까지는":13393,"권리의":13394,"불합":13395,"성을":13396,"##놀이":13397,"실험을":13398,"##인으로부터":13399,"리포":13400,"기술이":13401,"이상으로":13402,"##평방미터":13403,"아들인":13404,"재밌게":13405,"예쁜":13406,"깔끔":13407,"##리면":13408,"서해":13409,"반기":13410,"정치에":13411,"조선일보":13412,"두려워":13413,"무소":13414,"패러":13415,"##잡아":13416,"##법과":13417,"##2호로":13418,"##문으로":13419,"it":13420,"되었는데":13421,"원활":13422,"봤더니":13423,"대표의":13424,"1965년":13425,"##ight":13426,"후유":13427,"회의를":13428,"명칭을":13429,"켄":13430,"독립운동":13431,"71":13432,"사형":13433,"많죠":13434,"합의부에":13435,"177":13436,"##종으로":13437,"받으면":13438,"##셨다":13439,"영향력을":13440,"좌측":13441,"##셨는데요":13442,"차량이":13443,"##상보험":13444,"요게":13445,"인정하지":13446,"##총리":13447,"포탈":13448,"기재가":13449,"훗날":13450,"##만으로도":13451,"있으신":13452,"3개의":13453,"##적으로도":13454,"갱신":13455,"박원순":13456,"##ps":13457,"고려하면":13458,"시작해서":13459,"대목":13460,"##어가는":13461,"양승태":13462,"##ᆺ의":13463,"무단":13464,"바라는":13465,"전차":13466,"포위":13467,"지급하는":13468,"정치인":13469,"품질":13470,"순수":13471,"보복":13472,"##겠는가":13473,"전술":13474,"##해주고":13475,"##시지":13476,"살아야":13477,"##큰":13478,"##까지만":13479,"##비용을":13480,"##통이":13481,"그런데도":13482,"감동":13483,"날로부터":13484,"##나이티":13485,"##ᆷ프":13486,"화를":13487,"##ver":13488,"노후":13489,"규모가":13490,"##뜨":13491,"##부과":13492,"##퍼센":13493,"썩":13494,"te":13495,"십일월":13496,"1961년":13497,"드리는":13498,"촉진":13499,"##스리그":13500,"반증이":13501,"##란이":13502,"사이에는":13503,"명백하므로":13504,"##내의":13505,"기술적":13506,"아파트의":13507,"성분":13508,"사업계획":13509,"정리해":13510,"화장품":13511,"##사한":13512,"사회를":13513,"작곡가":13514,"거리를":13515,"모으":13516,"학생의":13517,"행복한":13518,"씻":13519,"행위의":13520,"신정":13521,"부사":13522,"정식으로":13523,"오키":13524,"##되었으므로":13525,"관광객":13526,"대대":13527,"부친":13528,"촉구":13529,"##량한":13530,"망원":13531,"##식품":13532,"##꾸로":13533,"구경":13534,"진술기재":13535,"해석할":13536,"흐르":13537,"열리는":13538,"항쟁":13539,"역사가":13540,"차트":13541,"계약에":13542,"무효로":13543,"##끄럽":13544,"일대":13545,"제24":13546,"##계로":13547,"같으면":13548,"와중에":13549,"코리아":13550,"관할한다":13551,"내세워":13552,"##래의":13553,"확인하고":13554,"##미야":13555,"##림이":13556,"##당하고":13557,"잡을":13558,"쌓아":13559,"보정":13560,"되어서":13561,"구원":13562,"잘하고":13563,"않았을까":13564,"세계에":13565,"꼼꼼":13566,"##틀러":13567,"##론으로":13568,"##다이":13569,"특거":13570,"모양의":13571,"연산":13572,"그렇습니까":13573,"뭘까요":13574,"가지게":13575,"유동":13576,"##혀서":13577,"##전과":13578,"체코":13579,"나라에":13580,"춘천":13581,"발효":13582,"##한테도":13583,"첩":13584,"넥":13585,"아니구요":13586,"풀려":13587,"특이한":13588,"노부":13589,"##및항소취지":13590,"분명한":13591,"차지했다":13592,"##일영":13593,"시리아":13594,"명명":13595,"제작한":13596,"##인민공화국의":13597,"멋진":13598,"느낀":13599,"col":13600,"짠":13601,"신원":13602,"건축물의":13603,"비례대표":13604,"하얀":13605,"피고들에":13606,"추억":13607,"용의":13608,"골을":13609,"##는요":13610,"잠깐만요":13611,"##론의":13612,"##백을":13613,"오버":13614,"유나이티":13615,"판문":13616,"성분이":13617,"##설이":13618,"##규제":13619,"걸친":13620,"행정구역":13621,"조용히":13622,"##셈":13623,"세력을":13624,"결정적인":13625,"##됨":13626,"유지한":13627,"##슬러":13628,"지원하는":13629,"얹":13630,"일으킨":13631,"불려":13632,"##등록을":13633,"세트":13634,"태국":13635,"##궈":13636,"없도록":13637,"안양":13638,"최다":13639,"엠비씨":13640,"##밖":13641,"부분들을":13642,"리가":13643,"농구":13644,"##무라":13645,"노사":13646,"개막":13647,"상관없이":13648,"목요일":13649,"##달라는":13650,"황태":13651,"채소":13652,"날까지":13653,"짜증":13654,"해결할":13655,"밝은":13656,"캡":13657,"프로그램이다":13658,"뉴질":13659,"서울대학교":13660,"##가스":13661,"고마워":13662,"축제":13663,"이집트":13664,"##가입":13665,"부산광역시":13666,"못하였다":13667,"이상은":13668,"원시":13669,"청탁":13670,"거기다":13671,"제소":13672,"파티":13673,"결정할":13674,"##단지":13675,"특이":13676,"미만":13677,"##효과":13678,"공간을":13679,"제1조":13680,"##해줘":13681,"지적을":13682,"잃은":13683,"생기고":13684,"##경원":13685,"협상을":13686,"애를":13687,"돌파":13688,"기재내용":13689,"지도자":13690,"##들고":13691,"##ord":13692,"1966년":13693,"##하셔서":13694,"보더라도":13695,"제3자":13696,"##기에서":13697,"검거":13698,"##순의":13699,"분담":13700,"##가족":13701,"##증에":13702,"##하셨어요":13703,"1로":13704,"이광":13705,"상륙":13706,"##경영":13707,"특수한":13708,"경기는":13709,"맞은":13710,"도서관":13711,"시상":13712,"##에관한법률":13713,"##류는":13714,"피고인들":13715,"##ant":13716,"아사":13717,"하냐":13718,"기둥":13719,"##도서":13720,"신뢰를":13721,"이강":13722,"##보장":13723,"차지하고":13724,"마감":13725,"경향":13726,"##행한":13727,"피고보조":13728,"주장하면서":13729,"대의":13730,"##화되어":13731,"뭐랄":13732,"키워드":13733,"시대가":13734,"세금을":13735,"대금을":13736,"##청구권":13737,"부도":13738,"금액에":13739,"응답":13740,"임기":13741,"##사년":13742,"들어가고":13743,"취하지":13744,"##뼈":13745,"##있지":13746,"년대":13747,"롤":13748,"헨리":13749,"험":13750,"심하게":13751,"1970":13752,"기망하여":13753,"공인":13754,"터널":13755,"하겠다는":13756,"1976":13757,"여긴":13758,"커플":13759,"주장의":13760,"여론이":13761,"천구백구십":13762,"##위와":13763,"##가격을":13764,"담당하는":13765,"대표로":13766,"소비에":13767,"##츠를":13768,"호르몬":13769,"단편":13770,"증언을":13771,"로스앤":13772,"##타운":13773,"진짜요":13774,"1949년":13775,"요코":13776,"왔고":13777,"자동차를":13778,"##기기":13779,"약정이":13780,"태극":13781,"이례":13782,"지칭":13783,"운동이":13784,"1번":13785,"##처에":13786,"왜곡":13787,"##셨나요":13788,"##our":13789,"##녹":13790,"감액":13791,"시즌을":13792,"디자":13793,"##ᆻ대":13794,"한꺼":13795,"전임":13796,"##로스":13797,"벌어지":13798,"##고한":13799,"해봐야":13800,"추상":13801,"간장":13802,"오프":13803,"추락":13804,"로서":13805,"중독":13806,"고령":13807,"보고를":13808,"30분":13809,"읽는":13810,"##시에서":13811,"세계의":13812,"##주군":13813,"들었다":13814,"본인에":13815,"##버리고":13816,"나치":13817,"취하":13818,"만나게":13819,"로스앤젤레":13820,"궁금합니다":13821,"사료":13822,"유효한":13823,"오기":13824,"했구요":13825,"콜레":13826,"퀸":13827,"합산":13828,"발행한":13829,"프":13830,"일인":13831,"연재":13832,"꿈이":13833,"##스라는":13834,"오세":13835,"발레":13836,"주장한":13837,"진행되고":13838,"방조":13839,"존경":13840,"포함해서":13841,"추심":13842,"이루어졌다":13843,"투명":13844,"득표":13845,"답을":13846,"사이가":13847,"여태":13848,"있었는지":13849,"박재":13850,"여러가지":13851,"##룬":13852,"이야기도":13853,"##보도":13854,"백성":13855,"##ᆮ는":13856,"왕국":13857,"혈관":13858,"아스":13859,"신용보증":13860,"7년":13861,"##지나":13862,"생태":13863,"활동이":13864,"##펀":13865,"지분에":13866,"말아야":13867,"뚝":13868,"전철":13869,"패소부분을":13870,"##희가":13871,"1974":13872,"풋":13873,"##스팅":13874,"원고들에":13875,"재산이":13876,"기초가":13877,"##5원":13878,"##셨네요":13879,"해당되는":13880,"182":13881,"합법":13882,"사유를":13883,"정동":13884,"##시스":13885,"결정하는":13886,"대법원판사":13887,"모습으로":13888,"##송달":13889,"스미":13890,"똑똑":13891,"신용장":13892,"양형부":13893,"##햇":13894,"##즐":13895,"##담당":13896,"조선의":13897,"고양이":13898,"방정":13899,"청구취지및항소취지":13900,"##다라는":13901,"결정한다":13902,"재산의":13903,"##관리법":13904,"2할":13905,"##들만":13906,"수면":13907,"얘긴":13908,"##틸":13909,"우리나라에서":13910,"약관":13911,"이를테":13912,"흥미":13913,"군수":13914,"##됐다고":13915,"모르겠다":13916,"콘서트":13917,"나지":13918,"장학":13919,"납치":13920,"개조":13921,"터미널":13922,"애국":13923,"거기다가":13924,"회담을":13925,"##음으로써":13926,"취약":13927,"##ld":13928,"바빠":13929,"행사에":13930,"공개를":13931,"한꺼번에":13932,"거치":13933,"같은법시행령":13934,"식초":13935,"않았나":13936,"해당하는지":13937,"경우의":13938,"발생을":13939,"연결하는":13940,"##저우":13941,"같다고":13942,"영화의":13943,"연기를":13944,"61":13945,"미국으로":13946,"원금":13947,"관습":13948,"취득세":13949,"계약서":13950,"이가":13951,"명으로":13952,"점거":13953,"아이테":13954,"죽었다":13955,"구하고":13956,"소정":13957,"시카":13958,"##할지":13959,"개인이":13960,"해석이":13961,"끝나는":13962,"##넉":13963,"프라이":13964,"##뚝":13965,"##조항":13966,"취한":13967,"영혼":13968,"건의":13969,"히트":13970,"##end":13971,"위기에":13972,"##공이":13973,"문헌":13974,"해준":13975,"제기하여":13976,"굽":13977,"sm":13978,"##쪼":13979,"가속":13980,"제기된":13981,"##겹":13982,"대통령도":13983,"야기":13984,"어딜":13985,"하야":13986,"아들로":13987,"대학교에서":13988,"장소에서":13989,"무지":13990,"말았다":13991,"김선":13992,"##혔다":13993,"##사항을":13994,"##청구는":13995,"출신으로":13996,"반대의":13997,"건강을":13998,"##55":13999,"##어에":14000,"공소사실은":14001,"여름에":14002,"멈추":14003,"개신":14004,"사망했다":14005,"오페라":14006,"학과":14007,"##당으로":14008,"활동에":14009,"사실상의":14010,"경선":14011,"특집":14012,"성폭력":14013,"들어올":14014,"##주기":14015,"지자":14016,"약을":14017,"잘못한":14018,"주가":14019,"##에르":14020,"로드":14021,"##77":14022,"상속재산":14023,"중세":14024,"톡":14025,"이었다":14026,"사실관계에":14027,"러브":14028,"감정이":14029,"유류":14030,"적용될":14031,"##등포":14032,"용이하게":14033,"##왔습니다":14034,"거래의":14035,"모래":14036,"고사":14037,"사람들에":14038,"기재는":14039,"1973":14040,"별지목록":14041,"브리핑":14042,"떡볶":14043,"예뻐":14044,"마침내":14045,"차에":14046,"소유권이전등기의":14047,"##이냐":14048,"참나":14049,"##세계":14050,"뭔가를":14051,"##니아의":14052,"비용으로":14053,"검토하여":14054,"아웃":14055,"안되는":14056,"환산":14057,"활동하였다":14058,"상해를":14059,"둘러싼":14060,"##고시":14061,"찾고":14062,"튜":14063,"논술":14064,"1971":14065,"가진다":14066,"임무를":14067,"변호사입니다":14068,"##권리":14069,"끊임없이":14070,"##닭":14071,"재판에":14072,"명의를":14073,"해리":14074,"##부산":14075,"국회에":14076,"같다는":14077,"표면":14078,"안으로":14079,"입장에":14080,"한창":14081,"##편이":14082,"않을까요":14083,"성립될":14084,"거짓말을":14085,"##였어":14086,"차명":14087,"##기각":14088,"수호":14089,"점수":14090,"당연무효":14091,"나이로":14092,"당에":14093,"균형":14094,"차기":14095,"##명의로":14096,"개인정보":14097,"혈압":14098,"##물과":14099,"##약의":14100,"녀":14101,"##학에":14102,"##통합":14103,"죽어":14104,"시점에서":14105,"##체와":14106,"진술에":14107,"상고는":14108,"근로자가":14109,"2회":14110,"##기일에":14111,"냄새가":14112,"어렵습니다":14113,"분묘":14114,"이의를":14115,"먹기":14116,"독자적인":14117,"일억":14118,"##학에서":14119,"헤르":14120,"낚":14121,"##라니":14122,"신선":14123,"##오의":14124,"참전":14125,"압수수":14126,"##자격":14127,"##내기":14128,"##인이라고":14129,"아버지의":14130,"뿌려":14131,"해명":14132,"고려할":14133,"탄압":14134,"##기준에":14135,"이유있다":14136,"국가보안":14137,"부드러":14138,"##보에":14139,"권고":14140,"1920년":14141,"영문":14142,"##주의에":14143,"인문":14144,"발표하였다":14145,"##안으로":14146,"사실인정과":14147,"##학원":14148,"이유만으로":14149,"정신을":14150,"##뿌":14151,"그러죠":14152,"비틀":14153,"조직이":14154,"계실":14155,"명단":14156,"보라":14157,"사위":14158,"우리나라의":14159,"##쥬":14160,"광범위":14161,"했다가":14162,"제13조":14163,"초청":14164,"마케팅":14165,"짓을":14166,"##로워":14167,"식이":14168,"의제":14169,"기록하였다":14170,"이날":14171,"적용할":14172,"등도":14173,"덴마크":14174,"##기획":14175,"없다라고":14176,"나오게":14177,"##89":14178,"##혁명":14179,"보증금":14180,"경호":14181,"빡":14182,"체제를":14183,"정교":14184,"없었어요":14185,"돈도":14186,"넣는":14187,"맞죠":14188,"##퇴직":14189,"의원에":14190,"판매하는":14191,"##싶다":14192,"다뤄":14193,"제30":14194,"##특정":14195,"검찰은":14196,"자식이":14197,"##44":14198,"태도":14199,"초반에":14200,"위대한":14201,"제21":14202,"##pa":14203,"친정":14204,"중요하다":14205,"인용상표":14206,"웨스트":14207,"##하자는":14208,"분해":14209,"##집행을":14210,"절차가":14211,"원칙을":14212,"##숙이":14213,"아오":14214,"##편에":14215,"##은행에":14216,"##원고는":14217,"달하는":14218,"원인을":14219,"최영":14220,"양의":14221,"##마리":14222,"국민들은":14223,"소형":14224,"횟":14225,"im":14226,"##ure":14227,"##박물":14228,"살아남":14229,"웅웅":14230,"##베리":14231,"있었어":14232,"내부에":14233,"나은":14234,"나라에서":14235,"시민들이":14236,"이외에도":14237,"대원":14238,"한마디로":14239,"뻗":14240,"소비자":14241,"kt":14242,"끔":14243,"세우고":14244,"한국어":14245,"저하":14246,"갤러":14247,"양보":14248,"그들을":14249,"인격":14250,"##병우":14251,"##용에":14252,"요리를":14253,"맞을":14254,"##사단":14255,"차이를":14256,"##준비":14257,"홍순":14258,"##빡":14259,"줄여":14260,"목사":14261,"그리하여":14262,"##조판":14263,
[...]
