[PAD]
[UNK]
[CLS]
[SEP]
[MASK]
!
"
%
'
(
)
*
+
,
-
.
/
0
1
2
3
4
5
6
7
8
9
:
;
<
=
>
?
A
B
C
D
E
F
G
H
I
J
K
L
M
N
O
P
R
S
T
U
V
W
X
Y
[
]
^
_
a
b
c
d
e
f
g
h
i
k
l
m
n
o
p
r
s
t
u
v
w
x
y
z
~
·
×
‘
’
“
”
①
②
③
○
〈
〉
《
》
「
」
ㄱ
ㅇ
ㅋ
ㅎ
ㅜ
ㅠ
㎡
大
山
李
金
가
각
간
갈
감
갑
값
갔
강
갖
같
갚
개
객
갱
걔
거
걱
건
걸
검
겁
것
게
겐
겠
겨
격
겪
견
결
겸
겼
경
계
고
곡
곤
곧
골
곱
곳
공
과
곽
관
괄
광
괜
괴
굉
교
구
국
군
굳
굴
궁
권
궤
귀
규
균
그
극
근
글
금
급
긍
기
긴
길
김
깊
까
깐
깔
깜
깝
깨
꺼
께
껴
꼬
꼭
꽃
꽤
꾸
꾼
꿀
꿈
꿔
뀌
끄
끈
끊
끌
끓
끔
끝
끼
낌
나
낙
난
날
남
납
낫
났
낭
낮
낳
내
낸
낼
냄
냈
냉
냐
냥
너
넌
널
넓
넘
넣
네
넷
녀
녁
년
념
녕
노
녹
논
놀
놈
농
높
놓
놔
놨
뇌
뇨
누
눈
눠
뉴
느
는
늘
능
늦
니
닉
닌
닐
님
닙
닝
다
닥
단
달
닭
담
답
당
대
댄
댓
더
덕
던
덜
덟
덤
덩
덮
데
덴
델
도
독
돈
돌
동
돼
됐
되
된
될
됨
됩
두
둔
둘
둥
뒤
뒷
듀
드
득
든
듣
들
듬
듭
듯
등
디
딘
딜
딩
따
딱
딴
딸
땅
때
땐
떠
떡
떤
떨
떻
떼
또
똑
뚜
뛰
뜨
뜻
라
락
란
랄
람
랍
랐
랑
래
랙
랜
램
랫
랬
랭
략
량
러
럭
런
럴
럼
럽
렀
렇
레
렉
렌
려
력
련
렬
렴
렵
렸
령
례
로
록
론
롤
롭
롯
롱
뢰
료
룡
루
룬
룹
뤄
류
륙
률
르
른
를
름
릇
릉
리
릭
린
릴
림
립
릿
링
마
막
만
많
말
맘
맙
맛
망
맞
맡
매
맥
맨
맹
맺
머
먹
먼
멀
멋
멍
메
멘
멜
멤
며
면
멸
명
몇
모
목
몬
몰
몸
못
몽
묘
무
묵
문
묻
물
뭐
뭔
뭘
뮤
므
미
민
믿
밀
밌
밍
및
밑
바
박
밖
반
받
발
밝
밤
밥
방
배
백
밴
버
번
벌
범
법
벗
베
벤
벨
벼
벽
변
별
병
보
복
볶
본
볼
봄
봅
봉
봐
봤
부
북
분
불
붕
붙
뷔
뷰
브
블
비
빅
빈
빌
빙
빛
빠
빨
빵
빼
뽑
뿌
뿐
쁘
쁜
사
삭
산
살
삶
삼
상
새
색
생
샤
서
석
섞
선
설
섬
섭
섯
섰
성
세
센
셀
셋
셔
션
셨
소
속
손
솔
송
쇄
쇠
쇼
수
숙
순
술
숨
숫
숭
쉬
쉽
슈
스
슨
슬
슴
습
슷
승
시
식
신
실
싫
심
십
싱
싶
싸
싼
쌀
쌍
쌓
써
썼
쎄
쓰
쓴
쓸
씀
씨
씩
씬
아
악
안
앉
않
알
암
압
앗
았
앙
앞
애
액
앤
앨
야
약
양
얘
어
억
언
얻
얼
엄
업
없
엇
었
엉
에
엑
엔
엘
엠
여
역
연
열
염
엽
였
영
옆
예
옛
오
옥
온
올
옮
옳
옵
옷
옹
와
완
왔
왕
왜
외
왼
요
욕
용
우
욱
운
울
움
웃
웅
워
원
월
웠
웨
웹
위
윈
윌
유
육
윤
율
융
으
은
을
음
읍
응
의
이
익
인
일
읽
잃
임
입
잇
있
잉
잊
잎
자
작
잔
잖
잘
잠
잡
장
재
쟁
저
적
전
절
젊
점
접
정
제
젝
젠
젤
져
졌
조
족
존
졸
좀
종
좋
좌
죄
죠
주
죽
준
줄
줌
중
줘
줬
쥐
즈
즉
즌
즐
즘
증
지
직
진
질
짐
집
짓
징
짜
짝
짧
째
쨌
쩌
쪼
쪽
쫌
쫓
쭉
쯤
찌
찍
차
착
찬
찮
찰
참
창
찾
채
책
챔
챙
처
척
천
철
첨
첩
첫
청
체
쳐
쳤
초
촉
촌
총
촬
최
쵸
추
축
춘
출
춤
충
춰
취
츠
측
층
치
칙
친
칠
침
칭
카
칸
칼
캐
캠
커
컨
컬
컴
컵
케
켓
켜
켰
코
콘
콜
콤
콩
쿄
쿠
퀴
큐
크
큰
클
큼
키
킨
킬
킹
타
탁
탄
탈
탐
탑
탕
태
택
탱
터
턴
털
테
텍
텐
텔
템
토
톡
톤
톨
통
퇴
투
툼
튀
튜
트
특
튼
틀
티
틱
틴
팀
팅
파
판
팔
패
팩
팬
퍼
페
펜
펴
편
펼
평
폐
포
폭
폰
폴
폼
표
푸
푼
풀
품
풍
퓨
프
픈
플
피
픽
핀
필
핑
하
학
한
할
함
합
항
해
핵
핸
햇
했
행
향
허
헌
헐
험
헤
헨
헬
혀
혁
현
혈
혐
협
혔
형
혜
호
혹
혼
홀
홈
홉
홍
화
확
환
활
황
회
획
횡
효
후
훈
훨
훼
휘
휴
흉
흐
흑
흔
흘
흠
흡
흥
희
히
힌
힐
힘
##여
##워
##졌
##어
##프
##게
##만
##색
##제
##로
##은
##i
##s
##a
##n
##e
##먹
##들
##가
##면
##서
##업
##을
##위
##한
##의
##양
##도
##하
##고
##울
##줄
##까
##분
##자
##이
##며
##는
##렉
##트
##닉
##계
##에
##기
##취
##득
##시
##효
##를
##였
##죠
##지
##박
##우
##익
##따
##뜻
##었
##네
##요
##돌
##라
##초
##미
##3
##합
##2
##끼
##호
##텔
##다
##수
##일
##클
##드
##회
##등
##록
##주
##식
##동
##감
##구
##민
##나
##질
##세
##0
##1
##단
##7
##8
##럭
##럽
##아
##버
##니
##원
##생
##삼
##인
##r
##t
##행
##첩
##성
##과
##급
##사
##무
##으
##신
##처
##럼
##대
##바
##령
##력
##있
##싶
##선
##m
##5
##테
##당
##승
##정
##교
##두
##국
##금
##비
##스
##거
##래
##려
##보
##셨
##치
##학
##책
##장
##경
##냈
##던
##진
##했
##더
##ㅋ
##싸
##맞
##추
##깔
##야
##달
##르
##되
##부
##조
##설
##말
##리
##해
##십
##오
##왕
##간
##쿠
##잔
##든
##파
##건
##론
##f
##d
##l
##6
##종
##소
##칸
##략
##난
##픽
##셀
##디
##랑
##역
##것
##c
##새
##족
##전
##잇
##임
##낼
##E
##A
##매
##4
##억
##k
##노
##u
##산
##와
##터
##블
##뭘
##발
##적
##물
##므
##방
##촬
##영
##데
##플
##레
##상
##할
##M
##갑
##격
##범
##죄
##명
##털
##유
##체
##9
##붙
##강
##패
##용
##환
##변
##염
##험
##토
##퍼
##잖
##례
##연
##끄
##러
##져
##년
##히
##키
##약
##관
##화
##태
##개
##켜
##P
##R
##운
##랜
##언
##알
##길
##외
##철
##술
##접
##결
##윤
##천
##닭
##갈
##집
##현
##절
##겼
##L
##I
##V
##피
##메
##케
##묘
##좌
##예
##반
##채
##희
##속
##실
##공
##욕
##내
##송
##흥
##복
##겠
##점
##렵
##김
##탐
##같
##입
##끈
##판
##즈
##쪽
##잃
##료
##탁
##심
##재
##포
##항
##군
##베
##T
##K
##때
##훨
##표
##번
##칼
##마
##릭
##균
##g
##엔
##랭
##그
##린
##살
##놓
##턴
##혁
##날
##능
##둘
##춘
##뜨
##긴
##티
##짜
##음
##컬
##꼬
##덕
##월
##석
##볶
##션
##㎡
##봐
##휴
##멸
##목
##코
##겸
##곤
##충
##습
##센
##v
##류
##본
##활
##규
##머
##출
##직
##순
##타
##녀
##권
##써
##육
##징
##투
##크
##애
##듀
##왔
##배
##w
##백
##컵
##협
##중
##옥
##풍
##축
##밀
##함
##문
##좀
##줘
##빈
##법
##o
##열
##톡
##놨
##째
##립
##편
##형
##특
##괄
##모
##델
##불
##담
##쌀
##증
##릴
##악
##평
##풀
##손
##됨
##창
##C
##카
##페
##롤
##찰
##착
##청
##준
##몰
##별
##램
##덩
##맨
##냐
##씨
##앤
##ㅠ
##X
##님
##란
##필
##켓
##브
##된
##쇄
##킹
##봤
##봉
##근
##안
##윈
##차
##남
##끔
##온
##탈
##웃
##첨
##뿐
##및
##너
##B
##받
##롭
##광
##골
##확
##융
##념
##궁
##쳐
##침
##루
##룬
##랙
##택
##찬
##른
##람
##팔
##통
##녕
##커
##향
##혼
##홍
##액
##x
##획
##p
##쌍
##깐
##누
##림
##앙
##칙
##품
##닝
##켰
##멀
##움
##견
##렸
##셔
##저
##렇
##탄
##겨
##y
##느
##각
##붕
##곡
##쓰
##헨
##벤
##욱
##얼
##퇴
##글
##혈
##웠
##콩
##끌
##병
##됐
##률
##킨
##b
##z
##련
##총
##넌
##검
##팀
##앉
##늘
##후
##푼
##톤
##쟁
##작
##웨
##줬
##층
##엇
##덴
##촌
##넷
##D
##귀
##럴
##슈
##벌
##돈
##많
##캐
##갔
##완
##꼭
##h
##②
##슨
##율
##힘
##맘
##극
##꿀
##짝
##못
##G
##랍
##허
##락
##죽
##딘
##갖
##망
##닥
##닌
##쥐
##측
##될
##O
##W
##N
##츠
##듯
##놔
##넘
##압
##잠
##았
##척
##량
##없
##황
##랄
##올
##홀
##헬
##ㅇ
##렌
##링
##훈
##핑
##답
##ㄱ
##싱
##런
##ㅎ
##왜
##륙
##걸
##F
##렀
##찾
##빠
##틀
##폴
##쳤
##께
##힐
##콜
##친
##북
##엠
##암
##값
##맛
##엄
##잎
##핵
##첫
##굴
##①
##즘
##밥
##햇
##틴
##뭐
##막
##웅
##덤
##쭉
##멘
##S
##좋
##랐
##ㅜ
##뒤
##덟
##잘
##잡
##줌
##댄
##섬
##씩
##묻
##혀
##빛
##킬
##U
##렬
##뤄
##혜
##쇼
##젤
##샤
##돼
##빙
##쉬
##름
##쇠
##템
##꿈
##뿌
##섯
##녁
##푸
##뢰
##냄
##팩
##볼
##냉
##넣
##쿄
##옵
##꺼
##탑
##밝
##맥
##존
##텍
##몸
##휘
##긍
##않
##롱
##엑
##픈
##숙
##칭
##널
##꾸
##섭
##짐
##독
##셋
##딩
##봅
##응
##몽
##최
##먼
##녹
##팅
##둥
##벽
##곳
##벼
##폐
##큐
##○
##폰
##낙
##납
##슬
##릇
##갱
##겐
##뷰
##횡
##듭
##엽
##됩
##밖
##또
##랫
##퓨
##얘
##씀
##둔
##엉
##칠
##낌
##틱
##춤
##헌
##딸
##혹
##컴
##떡
##릉
##참
##폭
##빌
##앗
##꽃
##걱
##냥
##뮤
##혔
##핀
##놀
##Y
##컨
##찍
##텐
##솔
##졸
##홉
##딱
##났
##삭
##흔
##벨
##찮
##읍
##빵
##놈
##봄
##쁘
##펜
##떼
##맹
##떤
##곽
##쯤
##룡
##혐
##룹
##흐
##논
##뉴
##빨
##닐
##큼
##캠
##H
##덮
##눈
##촉
##뷔
##뇌
##농
##숭
##멋
##떨
##덜
##괴
##랬
##싫
##쓸
##엘
##헤
##빼
##즌
##탕
##몬
##꾼
##×
##듣
##낸
##썼
##끝
##앞
##옆
##멍
##힌
##깨
##퀴
##튀
##젠
##튼
##콘
##떠
##꿔
##뇨
##멜
##짓
##흑
##객
##씬
##펴
##옷
##떻
##쎄
##쁜
##홈
##탱
##챔
##렴
##챙
##잉
##찌
##롯
##쪼
##늦
##밍
##듬
##옹
##낭
##땐
##톨
##슴
##밌
##J
##뛰
##숨
##낳
##콤
##껴
##흡
##툼
##뽑
##높
##눠
##큰
##폼
##훼
##릿
##깝
##튜
##뚜
##헐
##흠
##곱
##겁
##깜
##춰
##묵
##슷
##흘
##쉽
##쓴
##밤
##궤
##낮
##젝
##흉
##맙
##똑
##즐
##갚
##밴
##섰
##굉
##쫓
##괜
##깊
##팬
##쩌
##땅
##숫
##뭔
##뒷
##낫
##닙
##섞
##앨
##겪
##딜
##쵸
##핸
##밑
##싼
##몇
##멤
##웹
##벗
##딴
##댓
##옛
##③
##쌓
##걔
##얻
##맺
##끊
##맡
##곧
##끓
##쨌
##읽
##뀌
##잊
##믿
##옳
##즉
##왼
##짧
##삶
##쫌
##빅
##윌
##넓
##굳
##옮
##펼
##젊
##꽤
##으로
##에서
##니다
##하여
##하고
##하는
##습니다
##는데
##니까
##00
##ㅋㅋ
##다고
아니
있는
19
피고
##이다
##라고
##렇게
그런
##하였
그러
있다
##들이
그래
사건
원고
이제
지금
##었다
대한
같은
##에는
사실
##에게
우리
것이
##한다
##해서
이런
##어요
##적으로
##까지
##부터
200
그렇
##면서
이렇게
사람
경우
##하게
##지만
제1
20
그래서
##적인
하는
##리고
##라는
##다는
생각
##아요
##oc
doc
##므로
##하였다
하고
때문
##지고
##하기
##했다
##하지
원심
이유
근데
얘기
그리고
##ㅋㅋㅋㅋ
때문에
들어
201
피고인
부분
##으며
인제
##하면
따라
##입니다
많이
같이
어떤
인정
있어
##들은
##되어
한다
있었
다음
##거든
판결
상고
이게
문제
다른
제가
주장
##지는
##이나
10
199
정도
대하여
사용
##에도
또는
##들을
##되었다
하나
것으로
없다
어떻
##거든요
제2
##에서는
판단
##되는
##잖아요
##세요
있습니다
있고
12
그렇죠
##들의
어떻게
##겠습니다
##거나
없는
##자가
오늘
관한
##기를
그렇게
##면은
##기에
##대로
그런데
##예요
규정
되는
이를
저는
##라도
##판결
너무
하여
##인이
##다가
##통령
000
그러니까
##인데
대통령
미국
##이에
당시
여러
서울
내가
##으면
##이고
그냥
것은
이상
##학교
이후
11
이거
내용
말씀
##지를
굉장
##리를
제3
필요
다시
##사를
##기가
##이라고
굉장히
정말
한국
있는데
##기도
일본
대표
계속
아이
아니라
##구요
가지고
시간
해당
것이다
##법원
##으나
##합니다
198
함께
##로서
##습니까
선고
##도록
##자의
관련
보면
시작
##한테
##0년
상황
대해서
만들
지급
##인의
의하여
##하다
있을
그럼
것을
##되었
##네요
나오
거예요
진짜
##어서
소유
우리가
##사가
여기
있다고
가능
자신
이야
##성이
가장
그게
그거
18
상당
피해
해서
프로
거죠
청구
기재
이러
##하면서
많은
##행위
가지
국민
지역
##정을
##장이
##계약
소송
모두
현재
하였
않았
주문
##으므로
기록
##리는
정치
##이유
##민국
저희
##원을
##이라
##는데요
변호
원고의
영화
있어서
관하여
##처럼
국가
##기는
그러면
##고요
아무
원심판결
대한민국
그니까
##시는
##이었
네네
##사의
##주의
사업
##보다
##로부터
제1항
법률
아닌
##장을
##스트
##8년
관계
##더라도
받아
보고
북한
또한
된다
사회
##지가
등을
증거
일부
중요
15
##원이
##정이
처음
##호증
그것
이에
발생
등의
않는
##or
##까요
이번
##9년
정부
결국
##7년
##6년
##5년
##4년
##된다
포함
##겠다
##되고
있어요
위법
바로
수도
##권을
토지
##이라는
결과
부담
##가지고
합니다
##2년
조금
해야
이름
좋은
경우에는
상고이유
##금을
그러나
그때
##리가
197
위한
##er
진행
모르
##하며
일단
재판
##3년
##제로
따라서
정당
사이
일반
##처분
이용
##1년
##으로서
주식
선수
모든
자기
##자를
의하면
##리아
방법
직접
사람이
##상의
손해
이루
중국
한번
기각
##성을
##부분
16
사실은
##이는
##해야
##회사
하면
이미
무슨
##사실
원고가
되고
되었다
##동산
이하
행위
이것
##상을
상태
회사
위해
##다면
활동
##들에
##관계
계약
좋아
##력을
세계
##원의
그는
기준
하지
##자는
제4
결정
거기
##회의
보니까
의한
##려고
##았다
##고인
사실을
이러한
위하여
##으니까
17
아주
##들에게
##시면
##하였고
##아가
14
##청구
##la
겁니다
##으로써
것도
얘기를
마음
나는
##에서도
##권이
의미
##되지
30
위해서
##이가
##나라
13
##ㅋㅋㅋㅋㅋㅋㅋㅋ
학생
얼마
라고
##on
번째
되어
특별
##력이
확인
##전에
##지의
##추어
부동산
영향
새로
변호사
##me
##무를
자체
##리에
않고
경제
위와
동안
##기로
소외
특히
##어진
교육
명의
어디
의원
##사업
##하여야
약간
##시에
196
하지만
아직
위치
##이에요
수가
전에
없이
건물
##한다고
알려
##이며
##시아
조선
피고의
##데요
경찰
##위원
여부
엄마
##일에
아마
들어가
방송
##비용
했다
먼저
선거
사고
있었다
##아서
##다음
후보
##정한
##하기로
##임을
예예
생각을
적용
지방
##머니
##들도
그랬
##레이
##의를
어느
구성
의견
진술
보여
##in
##잖아
##지에
친구
준비
##지로
전체
없고
나가
##상이
##에요
그의
그걸
시행
지난
취득
잘못
아까
비추어
##어나
##정의
등에
그다음
이십
하더라도
선생
거의
않은
##소송
처분
있으며
##했던
##가를
자유
것이고
상대
##an
사이에
어려
말이
##서는
종합
있지
생각이
연구
중요한
##구나
대학
만나
이천
##서를
##하다고
##더라고
행정
노래
관리
아버
##도를
일이
피고가
##등학교
범죄
##조의
##인을
학교
존재
거야
##원에
이는
도시
##소를
것이므로
하는데
##위를
대법원
##시키
알고
##하거나
##시고
##느냐
않을
제5
때는
나왔
##관의
공동
25
거기에
##자로
그렇습니다
안녕
있다는
##자인
##장에
문제가
배우
##기간
나타
사람들이
##으로부터
만들어
##도가
없어
##리스
##화를
내지
했는데
통해
것인
##호증의
됩니다
##ame
##든지
변경
한편
##정에
나머
운영
보내
같다
같애
재산
##음을
##도로
##가요
선생님
등이
그래요
##구하고
역시
##군요
##이지
이야기
같습니다
채권
##명의
##으로는
신청
달리
감사
##아야
##들과
모습
##중에
다음과
되게
라는
설치
받은
이건
민주
이유로
원래
공소
위반
하면서
교수
위원
사망
##액을
정보
원고는
##스의
자신의
그다음에
경우에
보험
아니고
##밖에
수사
검찰
##었는데
안녕하
##기의
새로운
피고는
갖고
##명을
이해
운동
고려
요즘
for
##식을
##mu
표현
작성
##행을
제공
취소
조사
중에
##호로
채무
왜냐
개발
이와
감독
개인
결혼
##ar
##어야
##게요
프랑
##도의
전문
##인은
불구하고
어렵
name
같아요
거는
되면
##대리
요구
기간
제1심
##정은
위법이
##스를
인정할
에서
없다고
서로
물론
가서
##있는
따른
영향을
제출
건축
저도
##나요
거래
##주는
되는데
재판장
마지
22
개정
##mula
올라
평가
##지방
체결
##였다
##었고
여러분
발표
##했고
나머지
formula
주문과
##는지
##해요
21
뭔가
실제로
등록
##겠죠
의해
이전
하였다
24
마지막
발견
##자에
##정에서
##랜드
받았
##졌다
원심이
살펴
##센트
나와
받고
있던
그래도
완전
성립
23
수는
추가
기본
##수를
인하여
당연
아닙
##신청
##동차
보통
31
##치를
##개의
확정
##십니까
상당히
##대를
##께서
근로
참여
돈을
28
대부분
##었던
조합
만약
##ㅋㅋㅋ
##관이
##부에
합의
여성
앞서
##스는
이사
입장
##어가
참조
되지
영국
양도
인한
##전을
##비용은
나라
돌아
가족
의사
##적이
생활
제기
음악
이르
이익
##자에게
##스로
제6
바와
##en
제2항
##하므로
지나
기술
000원
대법
##수가
아니면
이루어
사랑
26
문화
최고
##했습니다
전쟁
경기
##그램
##절차
##라이
기억
맞아요
그건
구체
공개
##하자
돼요
유지
노동
판결한다
##히려
업무
저희가
있었던
194
해석
##스가
인터
##치는
동일
195
오히려
##하신
않습니까
##대의
게임
##대에
매매
중심
##지도
작품
피고인이
제작
##하도록
부터
27
대해
찾아
국제
##당이
##장님
관여
독일
##보고
했습니다
부분에
##장의
항소
씨가
규정하고
여자
##물을
책임
상고를
##명이
일치
신고
##ti
앞으로
괜찮
##보면
##더니
##al
##가가
그대로
사기
##권의
##제를
지원
##부를
보이
역할
##한다는
통해서
##되기
##동안
지정
퍼센트
원고에게
기업
제일
판시
다양
으로
##상에
예를
이걸
6월
3월
##과의
##료를
##이트
것이라고
이어
##수의
부산
당사
##회를
판매
소송대리
##하는데
말을
##디오
##장은
설립
##더라
12월
전화
누구
주식회사
##드는
사진
사무
##파트
10월
우리나라
충분
##격을
떨어
29
최근
##시죠
##함으로써
적법
여기서
다만
##드리
제외
##위에
ㅋㅋㅋㅋㅋ
하게
##분이
보는
중앙
8월
4월
대한민국의
##운데
전혀
것처럼
형사
원심은
나온
100
아니한
정상
##사에
보호
7월
##계획
##자기
어머니
원심의
구조
필요한
소속
##같은
##가는
엄청
##이야
파기
대출
##은행
##더라고요
1월
해주
5월
같은데
건데
##도에
계획
가는
##es
##대가
##리오
선택
국회
있기
처벌
남편
아래
그럴
대통령이
힘들
이라
도로
있죠
축구
사유
참가
목적
9월
##거래
##에서의
프로그램
##문을
##사는
사건을
##세법
##시간
##피고인
##없이
##겠어요
나도
분명
어제
##이죠
알아
후에
##받은
연결
정도로
정책
느낌
원칙
변론
임대
##조에
##하였다고
##자들이
얼마나
싶은
의무
삼십
언제
실제
소유권이
주택
이야기를
지적
우선
##어도
##함에
위험
제7
하기
독립
어쨌
기타
##대한
과거
담당
##위원회
연락
조직
##마다
정신
##하시
내려
##재인
부담으로
국내
##인데요
건강
기각한다
과세
##보험
지지
##식이
##국의
##까지는
인구
##업을
부분이
권리
불법
성공
시즌
안녕하세요
형태
##부의
##전등
##와의
##상으로
심리
부과
대법관
언론
도움
##동을
11월
하셨
비교
없으므로
최초
관심
##로는
상고인
다르
스타
피고인의
비슷
##인지
주로
일을
운전
##하던
상대방
해결
규정에
##점을
##해주
경우는
특정
##니아
먹고
제한
자연
빨리
##부가
##인으로
해요
##조합
##하셨
기록에
주민
##었습니다
제대로
##세의
근거
##시설
부분을
하루
##하였으며
보면은
반대
효과
무효
##제가
가능성이
##점에
문재인
유명
손해배
오해
건설
##냐면
따르
행사
소송대리인
##법에
##보증
##요일
##이자
소개
##서에
##가지
부족
##기관
저기
미국의
절차
어쨌든
인간
남자
경험
크게
2월
알았
있으므로
차량
감사합니다
##선을
혹시
역사
아니에요
인정한
정확
아들
출신
대신
##인가
##he
##원은
##라마
상담
##었어요
프랑스
이행
##님이
이거는
##어났
아파트
그만
가진
매우
갑자기
##금의
##되었고
단체
##ㅠㅠ
##ic
가운데
누가
있으
##법인
다음에
설명
##든가
##겠습니까
피해자
##이스
소유권이전등
맞습니다
가져
그러므로
##는다
해당하는
정리
특별한
과학
있지만
오십
받을
계산
공소사실
기자
##장으로
##식으로
박근
##시행
이번에
ㅋㅋㅋㅋㅋㅋㅋㅋㅋ
##했는데
나서
당해
자동차
나중에
##세를
##대상
그까
##만을
분들이
##이를
같애요
193
본건
##대표
주변
실질
아니다
##도는
사항
##이었다
부분은
매수
공격
박근혜
소정의
##원으로
그렇지
##관리
이라고
##is
있잖아요
만약에
인용
##고를
맛있
한다고
관련된
인사
##림픽
생산
때에는
이유가
불과
해도
없을
##지방법원
했던
50
두고
비용
당신
##화가
다양한
시간이
공사
부당
제8
이천십
상속
##리카
##하려
##물의
외국
##치가
##계를
분이
아침
당연히
자료
사람들
남아
기준으로
높은
부모
영업
오래
점을
식으로
리그
출연
##보다는
##장에서
금액
범위
아닌가
기존
궁금
청와
나오는
달라
검사
##비에
##상고인
혼자
유럽
##인에
전부
공무
##건을
언니
스스로
안에
##일이
##고등
수밖에
유사
비판
항상
결론
##비를
##겠지만
##하기도
대하여는
##지지
##어난
주요
불가
환경
왜냐하면
비율
자체가
소득
##르는
기초
환송
있으면
사실이
##원에서
아버지
작은
정한
것에
##물이
경영
가까
대회
가고
전투
약속
얼굴
##셔야
주장은
전의
러시아
만든
##일을
안전
드라마
##사유
아하
표시
주는
없어요
대해서는
이다
##간에
##스템
##대학교
사례
##년에
별지
##재산
분양
목적으로
원을
과정에서
근무
기능
현실
있도록
##리의
보기
이후에
집에
##소송법
우리는
##만이
에스
##나는
그에
위치한
투자
아닙니까
사람은
집행
시설
##스터
##이터
2008
알겠습니다
있거든요
##렸다
##세기
되었
적이
##음에도
실시
올림픽
발행
상황이
192
##성의
단순
수입
##군의
있는데요
시민
담보
지금은
동시에
아빠
교통
##at
맞아
그녀
##하였으나
제9
##시의
있게
사정
변제
2007
손해배상
##서의
보증
그렇다면
##겠다고
것으로서
말씀드
내용을
##겠다는
대체
##시오
##권에
보수
아무런
여기에
법인
과연
의견으로
인도
잠깐
##스타
##리지
##어를
점에
된다고
않는다
고소
##계약을
##0조
않을까
고맙
경우가
등장
##피고
##it
##자와
하겠습니다
역할을
옛날
그러한
##건설
2009
##의가
##대금
##시켜
##스크
충분히
##사무
마찬
##le
헌법
증언
##비스
##하시는
부정
500
##ou
수행
패소
지하
##인에게
##했으며
##음이
거쳐
##개발
공급
기다
##건대
받는
혹은
분석
비롯
등기
##점이
주고
##래도
자리
피상고인
사정이
##으니
대구
밖에
나오고
어린
사실상
2006
2005
##민주
타이
없었
없다는
##란드
##특별
##시를
없습니다
이탈
##하나
##단체
##안을
가격
##개월
##이션
에이
나아가
말씀을
지도
마이
일치된
등으로
하자
일어나
말고
뿐만
봐야
우승
##호의
##사로
##주고
하시
본인이
훨씬
다니
들고
그것이
점유
들어서
2010년
완전히
##성에
있었는데
논란
처리
하니까
##했을
못한
했어요
현대
어려운
인해
##쪽으로
각각
##만으로
아니냐
거기서
##소득
스트
##했다고
그거는
##인다
산업
본다
받아들
##과는
문제는
##으면서
아내
상표
##주시
요청
상고이유를
##소에
명백
고민
질문
적극
물어
##라면
문제를
##드시
것들이
한다는
얘기가
어머
않았다
시절
라이
파기하고
있어야
듣고
까지
회사의
법령
##였던
살아
##레스
상고비용은
무엇
ㅋㅋㅋ
받았다
상대로
##선의
자기가
상품
차지
방향
이른
남북
그것도
조건
##하였다는
##마는
은행
만한
모양
##소가
##리그
법리를
##기준
##셨어요
자신이
##트를
##고등법원
공식
##km
별로
##회가
내일
##10
통하여
재밌
##단을
자꾸
민사
바뀌
특허
바람
##회에
2003
공연
정의
##된다고
대전
발전
##하라
전국
시스템
##하다는
드러
191
어떠
일으
##명령
지금까지
대학교
2004
뒤에
있으나
군사
주장하는
##상표
지구
반환
시대
##el
수준
##20
확실
40
움직
당시에
##심히
선정
##ㅎㅎ
##립니다
평균
하다
논지는
##단의
부탁
##이기
이때
##어로
쉽게
금융
자주
걱정
주장을
##조건
과실
거를
##취지
이래
##하지만
정당한
##면에
국정
최종
데뷔
따르면
##드를
##성은
##치고
자세
와서
걸로
##스럽
발언
##공사
내용이
않아
개최
거고
##호를
필요가
오빠
경쟁
그와
##되었으며
보아야
소재
김정은
##50
대로
공간
##주택
##re
그리
이름을
##금액
신용
절대
그룹
이라는
감정
##셔서
##집행
##프트
허위
##있다
사람을
##인과
장관
##운동
하며
##금이
##죄로
피고인은
##저당
아프
2010
##채권
##채무
명이
##되어야
법무
사십
##랍니다
##적을
오늘은
이상의
걸쳐
반드시
징역
구분
소론
이루어진
허용
원고들의
범행
대상
측면
##수는
##함이
피고에게
2008년
##호에
##리즈
##2조
방법으로
##당의
다이
그림
일본의
의료
##오는
##일까지
##놓고
공부
발매
##등록
##시가
보이는
##변호
소리
##일부터
못하고
아니하고
수익
다섯
기대
##선이
그동안
법리오
뭐가
열심히
김영
인터넷
예정
등급
생각해
사이의
##ol
##보는
공유
##수한
있으니까
이동
보다
법리오해
##스에
소멸
##대학
##르고
밝혀
거부
의뢰
말하는
##화국
따로
##인들이
위에
기관
그렇군요
##이랑
당사자
있었고
##스러
징계
개정되기
국회의
##감을
대단
2007년
전기
2002
##기업
##체를
발생한
미리
여행
텐데
ㅋㅋ
추정
동의
대리
##교육
##번째
하여금
##체가
##대는
시장
이탈리아
공공
인식
문자
가수
##소유
취지
##서가
돌아가
##산업
교부
합계
##등기
아니야
마련
형성
가리
반응
작가
##7조
치료
임명
시험
##어는
사는
고맙습니다
나이
내용의
구속
##들한테
활동을
##미터
대응
결국은
##전의
제품
로마
##5조
##us
##하다가
먹는
그러면은
합리
##심을
정당하고
넘어
알려져
##비아
내부
2009년
내에서
##원고
개념
앨범
시행령
놓고
하나의
##주세요
권한
##형을
##주를
수상
##지역
전해
주의
모습을
##적으로는
##3조
목록
미친
##시키는
그가
봅니다
인천
증거가
##남도
신경
해외
거지
우려
##정보
2011년
졸업
삼성
침해
##단이
##리와
교수님
##키는
근저당
##하죠
추진
##허가
##체의
나올
##쪽에
금지
제조
##tion
##부는
##우스
##했지만
규모
앞에
때까지
컴퓨
원판결
케이
단계
##호는
그거를
직원
지켜
뉴스
중에서
2000
올해
말씀하신
그쵸
##ing
바랍니다
광주
그러고
이유없
열린
노력
경기도
##기록
뭐야
객관
채택
##1조
살펴보면
분야
##구역
##함을
##리로
음반
##이면
1년
##받아
##as
제시
아무래도
강제
수학
##분에
##간의
종류
##과를
##과에
##선거
경우도
방문
2012년
사람들은
##당을
##봐야
원심판결을
의무가
퇴직
수용
이것은
##4조
분위
불러
##0년대
있고요
예상
##르크
월드
##이므로
##부장
항공
##주식
이혼
주심
그러면서
연합
산정
##우는
판사
드리
운행
##의로
갔다
가면
##지게
소설
저녁
정부가
같고
청와대
##제의
##내는
보도
##단에
끝나
##구를
가야
작업
전략
##당에
일반적으로
##수로
분들
##세가
##여서
##자료
대여
##금으로
했고
음식
했을
있는지
여론
가능한
##9조
명의로
##8조
##니깐
행복
컴퓨터
니가
추천
청구를
거주
##위가
판단은
##om
##자로서
##항에
##종의
다툼
차이가
##비가
스페
##위반
전제로
지배
선언
##관한
##임이
분류
있어서는
목소
2006년
##전히
##il
00
외교
##시켰
인정되는
##자들
아닙니다
##제한
##군이
ㅋㅋㅋㅋ
느끼
구하는
##동에
##분을
##지원
그리스
##방송
이외
사건에
##문에
##보겠습니다
##하였는데
타고
비슷한
부여
매도
이재
입증
xx
더욱
초과
보유
보아
##행위를
있었다고
##주에
1일
위배
태어났
##려서
시청
좋을
확보
##분의
통합
2014년
라디오
동생
##법칙
##기고
##이드
##했다는
##장과
##내용
트럼
##라서
바이
내에
분명히
직무
간에
##규칙
증여
전달
거라고
##이익
##워서
이론
구체적인
포기
##명은
납부
##주가
이익을
저렇게
뭐냐
그럼요
##이었던
##법이
##6조
##관을
##만큼
미래
본인
만에
##회에서
##듯이
##려면
##적이고
모델
##셨습니다
증가
의혹
000원을
경상
마을
없었다
제주
집중
##되면서
##심이
유리
하면은
해당한다고
##군은
씨는
##법을
차례
##생활
##금에
종합하여
##하실
2011
상태에서
##약을
생각합니다
##로써
활용
##죄가
상호
앞에서
말한다
밝혔
2년
##이란
통일
##성과
정도의
젊은
종교
개혁
의원이
때도
2001
먹을
여름
가입
재미
취지의
속하는
손해를
것인데
##번에
2013년
주인
벌어
넣어
##같이
트럼프
##행위에
명칭
도와
특수
##사건
서울특별
##nd
도입
부인
기원
관할
특징
보입니다
최근에
판단을
이것이
##시다
##소의
언급
상당한
대표가
##당은
##11
것들을
190
그러니까요
부르
##ch
완성
지상
청소
##문화
인수
검토
##격이
실패
프리
그렇기
연대
##et
사안
60
##조사
##변호사
받지
정하는
##표를
시리즈
인물
##만에
육십
변화
않습니다
##다라고
행동
여부를
상황에서
다음날
위임
만드는
배척
책임을
민족
맞는
여전히
##변경
토지를
전자
바꾸
계좌
것입니다
##구가
철도
광고
전통
##이의
마치
살피
채증
거거든요
##nt
기재와
만큼
국민의
##법의
##겠어
지속
것인바
##했어요
##대요
생긴
판단한다
수긍
북한이
아닐
벌써
##시킨
왜냐면
보상
토지의
##롭게
##구에
중심으로
고등학교
인생
태양
##하니까
##사고
2015년
기각하고
##거리
##문이
영어
진출
아는
토지에
있는바
평화
##신을
분할
이유는
거짓
##수에
##FA
비밀
##가의
##30
쓰는
##냈다
##초등학교
##되었다고
##질을
비록
전형
원고에
신뢰
원고와
소위
조사를
처음으로
유일
피의
주장에
그러다
##트로
##ra
지휘
회담
것과
주세요
증인
##겠네요
##자들은
##갔다
돼서
때에
귀속
##류를
##면을
그럼에도
김정
브라
돈이
되니까
훈련
임차
아르
대상이
심판
##선에
불가능
##입니까
봐요
법정
잠시
##법률
##진다
일단은
나누
이전에
배상
아예
##죄의
##받고
##품을
제목
중간
소비
##처분을
##점에서
##증을
도움이
봤을
겁니까
행위를
강화
개의
##린다
##산을
더불
처음에
된다는
장애
##의무
##트가
위에서
방식
통과
##제에
선임
시간을
##역을
허가
채증법칙
2005년
##었다고
##이사
요렇게
핵심
##내에
사법
##구의
##디어
##물에
동일한
사용하는
순간
##위로
##북도
회의
심각
##ro
가게
##겠지
##력에
솔직
##이기도
##관은
##지면
해보
##드로
##구백
경료
##해도
사라
##해를
취지로
2016년
서울고등법원
이거를
##시행령
##12
바라
##전이
##누리
아우
경매
##평가
최소
이른바
적절
설정
##19
##져서
이유에
기반
집에서
##십시오
임야
3년
텔레
2018년
##한데
가르
수술
##뿐만
제3항
사정을
명예
관련하여
지연
##되면
실험
##음은
##감이
##부로
##됐다
##60
##와서
몰라
예술
안녕하십니까
##권은
회복
부동산에
##신고
제1호
##시기
겨울
보인다
하나는
아나
이끌
증명
포함한
##었어
##야지
of
있었습니다
봄이
죄송
##치지
그것을
##량이
##자들의
간단
예비
경우에도
떠나
머리
경과
쓰고
오른
대화
300
접근
불안
오는
##증이
##자치
##계가
2차
칠십
##사무소
##광역
저런
##더라구요
전문가
##스와
##내고
우주
그죠
대중
형식
레이
##40
000만
많았
명령
위해서는
어떠한
출전
천구백
##나가
##학생
최대
##BS
물리
제10
##죄를
##였습니다
과정
2004년
오후
안철
##량을
##회는
임시
화장
비행
서울특별시
70
이케
아니라고
##두고
대통령령
제1심판결
##관계에
##만으로는
채용
기사
에너
고용
불리
##연구
송달
진실
스포
함은
범죄사실
관련해서
##받을
인터뷰
새누리
뭐라고
##계에
##었을
청구취지
##번호
##사항
강력
공정
종료
있음을
80
##인인
무렵
연기
자가
제도
사건이
살고
전환
##질이
##관에
들어오
것이며
2017년
신문
이분
당시의
이명
청구는
해가지고
##비전
유명한
##단은
사무실
살피건대
##자리
나눠
생기
왔다
보면서
반영
##케이
마음이
##제는
서비스
##결정
희망
일정
안정
미안
결과를
보조
##것도
보관
##심판
##ed
거잖아요
##인민
더불어
유효
원내
사람의
아유
회사가
답변
초기
못하는
##되며
상실
2012
몰랐
하시는
유치
조정
구십
##와는
가정
오스트
병원
안에서
##한국
##드가
개별
##80
도착
##하에
먹어
##력은
35
표준
##적은
어렵다
지역에
90
##만한
요새
구체적으로
분리
대비
이슈
플레이
국방
##관계가
제외한
##던데
않다
판결에
요거
제2조
조성
어우
기념
명의의
##안에
##라인
보장
야구
임대차
장소
민주당
##액의
##금은
쪽으로
##만원
입장에서는
법관의
##상은
##받았
참석
안타
주도
워낙
##지급
마찬가
##국이
계속해서
##책임
이름이
##로를
##관계를
##액이
##트는
##신청을
토론
##전에서
배치
1998
속에서
않아요
요리
##우고
했다고
##드릴
정치적
생겼
나타나
잡아
당선
##형의
##트남
다녀
형법
박사
##상태
32
뜻은
##로서는
들어보
2002년
말이죠
##학을
아시
1인
엄마가
주주
##가로
##하시면
##났다
##트의
등과
##없는
##까지도
돌려
누군
##계의
관광
책을
##보를
빠져
관하여는
##학과
결합
작용
##가에
폐지
1999
속에
##말로
국민들이
##려는
수석
##군을
계약을
받으
느낌이
됐습니다
##아버
지역의
공무원
개월
목표
하다가
##드의
안철수
##하려고
바다
중단
네네네
청년
##조를
##신탁
##id
모르는
주인공
부적
##나다
하죠
##진이
어서
##집니다
##해보
오랜
아니하는
김종
뉴욕
##재를
##당한
애니
그렇고
입장을
##저히
##매매
name1
##처벌
했지만
다툼이
약정
성장
공모
촬영
알게
들면
##르게
좋아하는
김용
당초
##지와
이제는
##수록
없는데
갈등
듭니다
##이요
##이었습니다
##하세요
최초의
나무
논란이
미사
여부에
되었고
종합하면
대선
42
생각하는
팔십
없으며
매입
베이
##시효
##하겠습니다
##됩니다
많아
매일
##절차를
##러스
자는
매매계약
수령
##가가치
것이어서
기원전
##크로
통상
선출
원고들이
##표준
투표
##어들
올라가
민법
##만의
수출
아직도
권리를
상황을
월드컵
출발
교과
계신
작곡
야당
##하고자
##os
이곳
##하려는
선박
##나무
각종
1997
취득한
판단한
음음
조세
거절
##율이
데이터
되죠
중화
189
명확
배당
##라든지
파악
있다면
##이라도
##정부
말이에요
당원
아무리
시기
할머니
##호가
공제
인구는
##으로서는
##학자
자본
근까
설계
##am
2003년
평양
옆에
시도
##형이
요건
##하겠다
##담보
이것을
시켜
분들은
제거
##회사의
전체의
심지
싶습니다
##다니
있구요
실행
때부터
가까운
사회적
주장과
의해서
소론과
주목
동물
이자
##비에스
소련
점점
##직을
점에서
여섯
금원을
적법한
결과가
베트남
정보를
소송비용은
##안이
나한테
이용하여
현재의
##책을
진보
매각
넘어가
않으면
지시
멤버
연장
것이죠
부합
하나로
##왔다
받아들이
직업
이주
##세는
##건축
##을까
효력이
정해
마찬가지로
당심
어찌
간의
내용은
제국
초등학교
저작
##재판
관계가
것이라
피해자의
뭐냐면
결의
충청
환송한다
##경을
예산
##문의
등은
어쩌
재심
적극적으로
##참가
##하였던
##었죠
도움을
##줘야
##15
##씨가
임금
참고
한다면
이유없다
것인지
그를
장면
45
글쎄
##옵니다
신탁
##70
도쿄
체포
클럽
이정
##인트
이것도
노무
##부터는
기재에
싱글
##ac
##13
입법
북한에
##이라든지
지적하는
##지에서
지금도
FC
같은데요
대부분의
##독교
소식
##스코
법무법인
진정
회원
##ig
##기재
##압류
판결을
생각하고
비롯한
33
##년이
보이고
수수
##사람
승강
선발
##등에
##광역시
##쳤다
적어도
물건
##겠는데
사건의
김성
주말
입장에서
쪼끔
##십니다
이백
커피
##받는
가해
싶어
되기
언어
예전에
##하였을
##공무
##율을
받게
의견이
##는바
2000년
기각하기로
태어났다
##스탄
올려
정도가
다행
##군에
##차를
하나가
아니한다
##체에
전반
선물
방법이
##손해
대상으로
협의
의심
사용할
##기술
마무
종전
##자동차
국회의원
티비
##사와
##들로
공익
영상
##별로
다들
##른다
##리면
반복
거다
싫어
소유권
##조서
시각
저거
적법하게
하였고
강원
비서
근저당권
나타난
입은
점이
그분
솔직히
위의
##사용
##시킬
##ur
##스러운
스포츠
확장
살짝
The
##신문
텔레비전
빌려
일정한
세월
##조의2
부가가치
##거운
시작했다
규정을
마음을
장기
인근
실질적으로
##부에서
##라스
비난
자녀
##처리
되면은
사태
차용
##14
##스럽게
남성
교황
힘든
기여
바꿔
아름
같아
최초로
이름으로
가슴
##기와
어어
캐릭
드릴
##16
바탕
조항
##시키고
아시아
그날
이적
##드립니다
대지
활약
이란
전라
강조
##노동
수능
기계
출판
##od
기한
36
##규모
국립
한데
확대
회사에
##사소송법
상관
만화
때문이다
##끼리
나와서
집단
있었어요
##메이션
##이지만
보겠습니다
있습니까
##로운
##연합
심사
관계를
무조건
##하기에
##했으나
##냐고
##인민공
##대체
2019년
대통령의
성격
##카이
외에
the
배우이다
맞춰
##프로
영역
근처
사상
##로서의
##교통
##리케
통신
##움을
최저
메이
매출
##행위가
계열
##이니까
피해자가
주거
연속
메시
강한
저지
어떡
계시
방식으로
기획
합병
##일의
캐릭터
조치
하는데요
자치
좋아요
자산
유사한
곳에
자격
조치를
##명으로
주차
관심을
##에스
것이라는
해당하지
소유의
판시와
떨어진
##천만
재항
사실인
##형법
자금
오해한
##지기
한반
캐나다
지급을
힘을
시간에
얘길
올랐
##소는
##진을
공장
손실
중의
갖추
사전
십이
동아
달러
##후에
##고등학교
불편
##하더라도
자동
설명을
성적
##간다
크리스
으흠
일은
세워
이름은
기독교
의뢰인
##하였으므로
의미가
단순히
##액에
##위의
개봉
해제
##르트
가지는
승인
아냐
##나게
휴대
##거야
횡령
##처분의
이의
1차
한정
400
하이
하기로
피고인에게
나름
없어서
1995
##시대
이유를
서울시
전세
##운드
##으로서의
이럴
명시
자식
피해를
압수
거짓말
원인
##주로
##였는데
##학적
많다
##라든가
##드리겠습니다
제1항에
보십니까
##목으로
정규
아들이
방지
하신
카드
받아들일
##선은
이번에는
##이로
사연
##수도
충돌
##동이
방해
2001년
폭행
##경찰
복잡
반소
##차가
##90
도대체
키워
청취
##ation
건가요
가끔
연방
##주식회사
블랙
변호인
본격
법원
##ad
나쁜
##자나
느껴
1996
그만큼
##시마
연예
경제적
아니겠습니까
건물의
후반
부동산을
사실에
세력
호텔
##25
높아
입금
버스
준비를
예전
사과
위협
아이고
적은
말도
방어
밝히
절차를
비율에
##항소
남은
애니메이션
현장
출입
34
##다른
과정을
##지면서
때가
민간
고통
지급할
말씀하셨
##신이
그것은
38
##BC
선배
어디서
있을까요
참작
그들의
있다가
원인으로
좋았
승리
좋지
굳이
보존
##류의
##셔도
이명박
##조가
아니요
문제에
역임
기분
##정도
단지
얘기는
구입
만났
조국
됐다
학년
지하철
개설
영화이다
##행위의
경위
정기
청소년
능력
노동조합
살해
안보
출시
일종
##법원에
건지
##그룹
검색
##인들
자유한국
##계약의
ㅠㅠ
업무를
알려진
소장
둘러
좋다
##워요
##바로
##님은
##설정
##센터
##17
세포
무서
없게
선수가
교환
일부를
##죄에
##경제
낮은
이승
정권
센터
##te
현재는
##리기
제2차
##석이
##청구를
입고
##이행
##피언
##바이
결과에
##으신
일찍
##18
##어버
##성도
제안
조심
1994
##이라든가
공산
##방을
기본적으로
##점은
아나운
고생
##계산
가치
##님의
사업을
좋습니다
상고이유에
마지막으로
##로가
십오
경기에서
얘기하는
일어난
처음에는
##공업
2013
##식의
하늘
파산
흔히
바에
검사의
보시면
개선
단정
km
했다는
하겠다
배달
##석을
방법을
운송
법적
개시
##기까지
수록
##일은
일반적인
고정
규정한
##지법
철거
##구는
##목적
됐는데
##음에
전시
지키
형태로
물을
상징
나를
금액을
감소
건데요
유전
것이나
십일
고객
하거나
효과가
##등기를
##관한법률
방영
지출
물품
달성
대표적인
##료로
##상품
배제
##하의
##화된
맛이
주장한다
여기까지
부부
예측
##했어
당장
고속
판단하였다
주지
들어갔
출원
##목록
##시켰다
공항
##학의
소유권이전등기를
끝에
에는
ㅋㅋㅋㅋㅋㅋ
##셨는데
총선
##행위로
##봤습니다
상환
##회담
제정
고유
제2호
생명
출마
거에
통화
##많은
단독
김경
정확하게
##세대
보세요
애들
##였고
인정하고
##려야
그로
기재되어
##급여
##하고는
프로젝
생략
3일
수사를
1990
거니까
사람도
없었던
육군
일곱
##보호
FI
규정이
결정을
##um
##범위
##ot
기름
초대
##가격
관계에
사용한
논의
취업
55
생활을
무기
##일인
시키
프레
신축
##이었는데
반면
##리게
그렇다고
##에게는
않게
수요
##도와
되면서
##동의
않는다고
##규정
상당의
정도에
기록을
##명이다
##일로
기억이
정도는
맨날
눈에
평가를
공천
예금
똑같은
##졌고
시에
##아이
다루
##상에서
오인
소송을
TV
제11
정부의
##개를
생겨
##트에
##업무
##ec
파이
##가락
##이던
##중앙
말이야
별도로
널리
ㅎㅎ
정비
##점으로
##들어
##이라면
188
새벽
99
많고
세대
고시
획득
얘기도
둘이
##종합
이야기가
책임이
원하는
##으시
##차피
재정
이영
복귀
37
##어의
##자고
박정
##22
##겠네
노래를
##그러
95
하실
물러
기재된
아닌데
바른
충격
일시
##백만
국가대표
##일보
##킨다
이기
말소
##가와
시사
후보가
##ri
옛날에
구매
가산
그녀는
사이에서
##비는
신의
미국에서
피고인에
##세에
##방법
어차피
##ow
기회를
구간
보충
1993
원인이
보낸
운동을
##마트
39
##취득
이로
글을
댓글
폭력
행위가
##면허
말은
배경
우와
##렀다
지방자치
연주
그렇지만
피고에
##께서는
발달
##버스
옮겨
조합원
마찬가지
##ter
길이
강남
취급
골프
북한의
##경기
피고들의
소프트
##인들의
##류가
15일
##인가요
##메리카
이들
사유가
상승
행위는
승계
##드라
1998년
넣고
챔피언
##식에
임의
집을
내세
슈퍼
1999년
크로
보여주
하여야
입주
저한테
직권
완료
##시장
##량의
끝까지
파괴
농지
##상속
좋겠다
잘못이
관심이
##ve
집합
최고의
##진의
##체는
만족
소유권이전등기
벗어나
##종결
##배우
개입
소유권을
자리를
##지요
##학년
물질
공판
1991
통한
질병
엄청난
일방
##원과
ㅇㅇ
하였으나
의결
수많은
상처
공포
아침에
단일
공작
##려가
##조차
건물을
파견
##식은
성질
조작
견해
점은
##중학교
##액은
##토지
##보다도
스토
name2
정지
보이지
##금융
지급한
##고법
##청이
30일
5년
10일
대사
혼인
지정되었다
마무리
그때는
사고가
됐어요
김태
스페인
##실에
재직
기존의
수원
##가루
떨어져
전공
대통령은
벌금
조지
의견을
협력
제출한
해당한다
반갑
노무현
##로의
부대
일주
사건에서
넘는
저희는
무시
##스카
##조치
못할
도망
상고이유의
##치게
##계약에
##었다는
거에요
1992
현금
협박
수정
##중의
제1항의
가사
1억
소를
##화의
취임
매년
아이가
경우를
쪽에
손을
##도시
인민
##명에
포함되어
서비
기망
세금
##에이
은퇴
에게
##등의
피의자
##렸을
제3조
##만은
여부는
기소
##성으로
둘째
때마다
이들은
##어주
##환경
고양
##부와
##는가
##역이다
제12
공감
##화에
뭐라
##리트
가만
오늘날
##통신
그려
합리적인
##자들을
유엔
너무나
남쪽
##발을
할지
업무상
스테
담당변호사
권력
##페이
특별히
상대방이
대형
그린
문학
##메달
##웠다
20일
생각하
회계
처음부터
공화국
초반
보시
##작용
##글랜드
시원
생각도
우려가
동네
취지를
202
##국에
만들고
가을
조각
발사
화재
교회
##비의
경찰이
가요
발생하는
봤는데
##한다면
와이
관찰
##래요
##물로
##증권
환송하기로
했었
##소에서
##이고요
앉아
들어가는
각하
홍콩
되거든요
공직
##반환
쉽지
합격
살았
이중
정확한
예방
본래
과거에
##원심
대변
좋겠습니다
오늘도
보니
##항의
5일
##관으로
확실히
고대
소통
##시피
갖다
오전
##기간이
출석
친구가
얻어
관여법
원의
##위는
75
인상
##법시행령
##스턴
식품
의원님
##자금
##은요
어때
부동산의
북쪽
##되자
한마
고지
제13
항소를
1997년
##졌습니다
어음
여보
##되므로
##원인
카메
탄핵
한미
600
없죠
부담한다
금전
##하네
데이
정부는
중도
동맹
일제
먹으면
스위
교체
##아니
##무서
94
##달라고
잘못된
취소한다
말씀드렸
지역에서
학생들이
알지
냄새
심지어
##마자
비해
##자들에게
정황
어린이
##복을
##ir
잡고
전화를
지분
접수
대통령에
##집을
##법상
수리
고려하여
중학교
것들
##ia
93
해고
나이가
##인들은
하여튼
결승
싶다
여덟
대표이사
##에다가
만들어진
인공
##op
48
포괄
조용
관측
항변
연극
모르고
문서
따뜻
작년
##으면은
FIFA
St
이성
아버지가
신설
##카드
##갖고
##해가지고
평생
판결이
##으세요
98
##단으로
##받았다
사실오
##률이
경계
종사
##등을
##과학
총리
홍보
받아야
능력이
##로로
65
상황에
증거를
마르
많아요
과세표준
이종
사용하여
녹음
분쟁
##국을
지연손해
확정된
연습
##다운
갖는
##겼다
Ch
자체를
##도에서
##사회
추가로
노력을
여겨
여지가
점령
기부
네덜
##전은
아프리카
정답
혁신
원칙에
국무
설득
##시로
진술을
##까지의
첨부
서류
##전문
면허
마음에
##야말로
만난
법리오해의
법률상
회장
##명한
잉글랜드
##사실을
변론종결
데리고
방금
##야마
보지
차를
##정치
다음을
대법관의
부모님
다수의
타당
변호사님
형이
이익이
위탁
처분을
85
대항
사진을
올리
상당하다
##히는
43
우리의
시가
##24
7일
##산이
거리
##라가
자료를
건너
법리에
미국에
디지
지내
##대에서
보냈
하나이다
1990년
김대
##리어
##28
##결과
수립
##하였는바
불이익
유기
하고요
미국이
##처분은
남편이
신체
표현을
오르
힘이
96
미술
주위
들여
##되었으나
의사표
모아
##소로
##돼서
북미
호남
1995년
그곳
있잖아
편의
##해지
며칠
대기
자신을
##이한
25일
##사에서
##처분이
비상
이어서
증거에
없지
ㅎㅎㅎ
하던
재무
##달라
1996년
너는
외부
800
불교
양수
##보니까
경합
됩니까
회사는
긍정
위조
대우
##ce
찾아가
이루어져
직장
의사가
했죠
되잖아요
사립
지원을
일어났
##문학
186
기능을
편입
있었을
##려요
원에
유일한
2일
새누리당
##크를
번째는
싶어요
스튜
##임에도
사람들을
출근
##시코
##ag
무너
증권
##었으며
다소
##로도
못했다
##스에서
압류
가압류
##면으로
대가
곳이
대답
##목을
원고를
47
산출
오고
##아의
한국의
##후의
##th
##스티
즉시
44
내용에
비례
열차
김치
가까이
##대금을
입학
이상한
봐도
전용
##놓은
아니하여
그치
번역
색깔
그르
범위를
배임
울산
바탕으로
중대한
##나이
내고
자살
방향으로
화물
양념
제1항은
실현
97
항소이유
발급
##23
청산
학생이
##라의
##조는
있나요
출생
아니죠
##향이
##하니
끝난
시작한
않았습니까
고등
원고들
받아들여
##고기
네덜란드
화가
유죄로
##소송을
88
의사를
##으셨
특검
있다라고
분은
##울러
명을
할아버
##했기
싶은데
애들이
영화를
하거든요
금방
원심법원에
##준다
세상에
영국의
##되거나
##형에
##결의
##이었고
주변에
스웨
살인
공립
##나마
의무를
아저
##인민공화국
4일
김상
청문
이해가
##렸습니다
1994년
당시에는
비로
##안의
작성한
독자
믿고
##국가
고마
다음날부터
##이거든요
##부분을
##지구
##일랜드
의미한다
의미를
깜짝
길을
많습니다
앞두고
미세
통지
기하여
편집
해지
들었
여야
패배
것인가
그랬는데
필리
심각한
최순
말한
부당이
카페
1989
중인
그래가지고
##서도
허리케
ㅋㅋㅋㅋㅋㅋㅋ
다투
포르
체결한
28일
압박
신기
예외
##무효
##레일
결론을
가리킨다
대해서도
주시
않나
어른
이상이
49
위원장
우리도
국가의
폴란드
187
김동
1992년
대책
##카오
밴드
##cm
##ㅜㅜ
세종
##청장
##결정을
64
신고를
런던
본인의
다르게
끌어
##하라고
##증거
한마디
초래
보건
업체
검찰이
채무를
##비로
차원에서
혁명
지위를
점심
##ver
##된다는
저장
함으로써
아무튼
##속에
##청의
내용으로
도서
법률사무소
150
부당이득
구역
식민
노선
##스테
최소한
14일
간접
##파이
##가고
##철도
챙겨
죄송합니다
##물은
##라리
디자인
했어
##정과
효력을
취재
보게
짧은
동료
##un
영토
다이어
##어져
공통
차이
강력한
46
##민주주의
##스토
##26
영양
##ay
년에
##목이
인권
생각할
시공
그들은
좋고
산입
구할
반갑습니다
유니
차가
제반
씨의
54
##고에
##요건
규칙
자리에
불리는
시기에
##오십
심리미
확인을
교사
동부
##봐요
여객
화학
##리스트
10년
##mm
말씀이
주식을
간다
알바
아무것도
##가능
##그래
모습이
김일
똑같
학습
사장님
아홉
들어간
가자
##되었다는
도시계획
들어가서
지방자치단체
제재
6일
##시와
고기
##이십
것이니
내년
##되게
투입
취소를
##촉진
어렵고
##용으로
전체적으로
소요
돼야
리더
있었다는
청구할
##움이
전망
8일
##ㅋㅋㅋㅋㅋ
농업
페르
##증인
아이들이
주연
##스키
패소자의
21일
직후
상태로
거두
이르러
면적은
못하게
개인적으로
17일
말씀드린
66
##사업을
##미가
아아
##있어
##하면은
게시
차별
##실에서
##웨어
정확히
도전
뜻을
입찰
12일
##해진
내의
##사카
되겠다
##어음
나갈
아울러
첫째
적합
상태에
왜요
바닥
함에
하나도
구성되어
##주시면
1991년
27일
26일
##법은
끝나고
##인이다
근본
바가
##국은
합의를
예예예
##연히
구상
##실의
자기의
##그렇
16일
고구
##법위반
부분도
갖다가
풀어
##차로
나가는
##치의
마침
##톨릭
태평
##니까요
9일
##27
스웨덴
그렇다
상황입니다
수업
정식
장난
아무도
양형
##업체
##되기도
저희들이
22일
##사실에
말했다
유래
##처분에
##문서
나갔
84
정하여
디지털
18일
53
체계
가능하다
청취자
그중
87
연애
비디오
법원이
분들도
글로
##하잖아요
##모토
빠른
한국에
몸에
처분의
보자
##취지를
##량은
발생할
하잖아요
가중
1993년
##책임을
데에
일종의
##소리
어울
교육을
적용하여
폐기
상업
근육
별도의
86
신분
##면서도
김기
등록상표
선수이다
##먹고
이듬
23일
얻은
훼손
온라인
자료가
오랫
군대
사퇴
자백
##베르
##호선
변론의
내는
국가대표팀
##정지
관여법관의
##웨이
티비에스
##확인
##정리
##가서
##유가
같고요
신청을
브라질
했는데요
요런
밑에
전제
##골을
##29
되고요
##ul
원내대표
목적이
##어날
유도
재산을
11일
안내
법원의
밝혔다
##졌다고
배출
허리케인
##세포
##범죄
##드릴게요
곤란
사용하고
드는
열어
성폭
##종이
타인의
급여
소방
입단
문을
뮤지
받아서
##월에
뜻이
##결을
친박
허가를
부적법
폭발
유가
위로
##짜리
정책을
높이
그랬더니
항소인
괜찮은
아나운서
뇌물
만들어서
##일까요
뭐예요
분노
##되었던
동쪽
마친
붙여
납세의
전원
말로
나고
감독의
비로소
경부터
법인의
본질
##하이
##하였다가
단순한
##상황
##크의
사업시행
계획을
##경이
비싸
29일
생각은
##수입
수긍이
만나서
##력의
무역
##회사가
##티브
아니므로
##오고
없으니까
국토
마시
이듬해
그쪽
않았고
##보상
조약
죽은
갖춘
##부모
아닐까
측정
무죄
태어나
상상
멀리
등에서
##부르크
독일의
있느냐
13일
국세
모집
생기는
존재하지
방송을
##부담
##중이
문제로
양도소득
이내에
원고들은
엄격
분배
아이를
##법상의
남부
##였어요
채널
행동을
개편
평소
오랫동안
오토
##면서요
해산
유통
##설을
83
어떨
소지
거냐
중간에
같아서
요즘에
맛있는
##경에
중국의
24일
##차례
체육
##중한
58
나왔습니다
놀라
1988년
얻을
##주의의
자세히
56
내각
말에
##고가
세상
소개해
89
흘러
사고로
오픈
##면이
동원
스마트
이득
인지
##인도
얘기할
수집
주신
유형
##함과
##하러
시대에
희생
사용되는
명목으로
노출
아니지만
##방에
흔들
행위에
검증
##행정
##유를
##제1
조치는
맡았다
##트리
정부에
질문을
있다라는
만일
##동생
##스피
##사유가
KBS
알렉
결성
19일
##본을
혼란
부근
구별
##무성
생성
수영
##허가를
사망한
다리
그녀의
의도
68
외에도
마라
프랑스의
적절한
공격을
##하네요
##트에서
한하여
객관적으로
##료가
조절
자전
##제공
##개혁
담배
##산의
공부를
규정된
살펴보
##수익
공탁
##하되
##있고
다수
4년
##하라는
2014
제14
효과를
##을까요
##니스
자세한
조금씩
##겠느냐
될까요
##색을
저게
측면에서
흐름
##베이
##부분에
비핵
그래야
진입
지역을
고향
많은데
무죄를
##트워
##위원회의
맞어
미치는
엘리
피고인을
##장도
##안전
다가
대금
1989년
미사일
##루스
##하겠다는
##았습니다
에어
##판매
대통령을
것이냐
##증명
설립된
판단하여야
번도
오스트리아
서쪽
파리
57
완벽
##론을
곳에서
항고
보건대
회장님
##치로
지명
대규모
면제
자극
긴급
제4항
##락을
##방이
감염
구성된
추측
명의신탁
##시험
마리
형님
접촉
하천
##대장
##기만
요구하는
진단
억울
구축
##사업의
스물
작업을
관련이
씨를
두려
남겨
해군
읽어
##하기는
운영하는
방위
브랜드
1983
##쳐서
##보조
관련한
##그렇다면
일본에
자랑
심리를
투쟁
원자
누나
비교적
##실을
그러지
제1차
위자료
지급하라
##화로
##영의
있었지만
인정하는
1987
재량
저항
바르
선생님이
피보험
활성
롯데
입장이
인기
통보
##정비
지금의
구조를
단백
몇몇
000원에
체제
근저당권설정
##렸는데
63
##서로
##길래
오브
##갑니다
##이냐
공시
술을
경기를
필요하다
주어
택시
67
사령
음주
지식
사람들의
돌아오
전주
소년
최대한
파일
##문은
간주
선의
반대로
아니라는
##되었는데
눈이
##내역
잠깐만
##답니다
들은
나가서
있겠죠
가담
주소
하도
것이었다
타이틀
임용
##자이
아니할
달라고
아쉬
##하구
들어갈
##계약이
나면
##았는데
우승을
없지만
##라우
##자도
##기일
현저
정말로
73
되나
##력으로
1980년
치료를
했었는데
결혼을
질환
기울
마시고
하세요
##칙에
거고요
##교회
유튜
피신청
피고들이
원칙적으로
검은
강원도
아카
주에
여러분들
핸드
##청에
왔는데
일상
몸이
##세무서
##수수
##하겠다고
##거같
성립에
1988
77
##끄러
동의를
보안
##유예
##내에서
##르의
사후
부합하는
전하
삼백
없으면
##서비스
##되는데
권한을
##일러
말할
인해서
반하는
논리
늘어나
그야말로
듯한
노르
도급
김형
자리에서
이외의
##주면
##분양
##하지는
통치
##하시고
형사소송법
규정은
가톨릭
나름대로
드리겠습니다
데려
해봤
뒤집
충족
미터
똑같이
공화
공사를
정착
1984
붕괴
주관
##됐습니다
소집
##협약
##술을
제3호
제18
승낙
정도를
사항을
달려
혐의로
건조
대북
철학
건물에
유승
##받지
700
엔진
##이라서
반란
##심의
원심판결에는
마늘
##마가
동안에
판단할
알아서
##면의
에너지
통제
##TV
처벌을
시청자
##부동산
국가가
국정원
##의원
요양
정하고
물이
##하거든요
여당
라이브
주된
##사이
한일
##전으로
원심판
상담을
서식
##들로부터
최순실
##장인
끝났
전후
그러는데
스튜디오
가치가
아이디
##론가
그러게요
운용
모여
히로
제발
UE
오늘의
##항소인
중소
치고
##던가
##체로
가지가
임무
명백한
##신고를
맞지
복지
없기
범행을
에스엔
##기관의
##정책
##점의
판단가
되겠죠
포장
김현
자의
황제
손님
김진
##산에
이로써
그러네요
실질적인
시효
보기에는
집안
헤어
##마을
피고인들의
그러는
말해
76
나의
생존
들어왔
이사건
위원장이
의뢰인님
강하게
보완
저를
남용
##았던
##공무원
##감독
78
고위
##st
대단히
대륙
##리포
있을까
깊은
스피
친일
ㅋㅋㅋㅋㅋㅋㅋㅋ
2개
합의가
예쁘
손해배상청구
세상을
않는다는
##년도
제2항에
서울고법
형제
표기
##볼까요
92
무려
토지가
##취소
UEFA
절반
이스
현재까지
가능합니다
##디아
##축은행
일도
##과세
들어와
있나
##행이
개통
후원
피해자를
했거든요
##ap
말씀드리
재건축
아동
축하
드리고
74
고의
갚는
2인
걸어
원이
##투자
개가
가로
대위
제17
분포
##졌는데
##피아
##자이다
늦게
##주인
##팔십
궁금한
고발
이용한
##해가
##하자면
전개
아니었
감안
하계
##군과
취지에
입원
혐의
180
제작된
테이
주장이
소멸시효
어깨
제이
##았고
결과적으로
고추
신성
##하였다면
알았어
이분이
퇴근
00경
되자
##당사
면접
목소리
말하면
맞추
민주주의
부당한
답답
현상
어렸을
##에만
뮤직
##합의
구체적
부르는
근거로
문의
브리
없애
##계에서
##언을
##이었어요
남한
name3
좌우
1981
##ard
로스
대립
용역
##수와
##NA
점포
꾸준
1982
상태가
납세의무
제4조
갔는데
병원에
##선으로
위반하여
오해하여
동기
이후에는
하자가
제공하는
나오지
먹어야
##복지
##ㅠㅠㅠㅠ
한반도
해체
분위기
강의
##향을
연령
##하기가
xxx
신규
##대출
들어요
##활동
59
사실과
이후의
주장하고
도모
##석의
##타민
방법은
김재
지위
##공개
요즘은
##ie
아파
지어
##하셔야
존재하는
쪼금
이렇
연대보증
날짜
유대
친노
비해서
사장
않도록
이하의
발명
인간의
재단
그릇
이뤄
생물
학생부
회사를
##기에는
방법에
대여금
무리
##시한
아가
새롭게
##평을
역대
준공
할인
##양도
1985
69
##개시
##and
##봅니다
79
나쁘
##구로
각자
자로
##화는
선수로
삶을
의식
게다가
아저씨
이집
여성이
쪽에서
1986
회수
흡수
사람에
정상적인
아니면은
1987년
코너
포함하여
날이
사찰
존재한다
경락
어릴
차라리
일치되어
##금액을
1986년
에도
발언을
##og
##레일리아
하려고
집권
김무성
북한은
되는데요
피부
대화를
없잖아요
가공
뛰어
##처를
후의
##협회
금전을
그해
##조로
윌리
하도록
##기간을
일로
피고들은
제5조
줄어들
설탕
김지
##판을
클래
제15
증거로
어떻습니까
기초로
연관
##민족
##검사
확인할
##운송
경찰에
요소
##미를
##이도
##형사소송법
카카오
##계좌
##승을
안타까
목숨
수비
아이돌
통계
청구에
아일랜드
데서
##하였거나
근거가
용도
종종
연락을
자를
당사자의
제국의
##지인
반발
##크라
시작을
부칙
당한
전면
원고들에게
##조정
##장애
징수
좋은데
박정희
탄생
이러면서
취지에서
뒤로
어려워
ㅋㅋㅋㅋㅋㅋㅋㅋㅋㅋㅋㅋㅋㅋㅋㅋㅋ
제기한
##수용
##보존
일본에서
것이지
사유로
가짜
규제
경상남도
마이크로
리스
싶어서
규정되어
씨에
##48
전취지를
##ut
그들이
##서와
in
##레이션
크고
받았고
대박
아마도
##하긴
##고는
출신의
세월호
부드
##왕의
존나
상해
##ent
들었습니다
##카와
여기에서
소녀
하기도
이틀
위치하고
묘사
향후
##에선
and
환자
##등기가
조선민주주의
하여도
귀국
##구만
부분의
면에서
##하였음을
##급을
정상회담
변호사가
지위에
1984년
2020년
달에
##근로
것일
의원은
보셨
경남
가스
설치되어
##과가
단기
들이
##신의
비용을
테러
했기
별다른
기준이
검사가
태풍
##관에서
상대적으로
##대회
##이용
일에
##민법
있겠
위헌
귀족
불복
##업에
##중인
모시고
오면
네트워
일부러
##아노
##인한
증거들에
##하면서도
##운전
영향이
탈출
한글
강요
여기는
아픈
이랬
키로
##년을
될지
부른다
개인의
모의
못한다
##지사
예비적
말하고
이며
보유하고
행사할
만날
##크는
내놓
##푼의
증언에
동작
끝내
##산으로
인정을
##조선
1945년
##국에서
##저축은행
지난해
유죄
##크가
##의무를
##능력
##상과
##단과
##병원
있었기
원래는
1980
쓰러
91
제16
부분들이
선수권
주민등록
하시고
##제이
김준
소화
서양
##연금
이슬
어려울
시내
해야지
##당에서
이후로
태평양
1985년
목적을
효율
오리
##영이
일관
에서는
이쪽
3개
번째로
사회주의
죽을
사건은
제6조
충분한
자전거
유튜브
왼쪽
185
##목에
경험이
진정한
판례
##자라고
몸을
##보가
어머님
카메라
후쿠
형의
생길
풍부
오스트레일리아
##니어
얘기하고
법원에
##발생
논쟁
주었다
들을
사전에
서명
장관이
공소외
한때
모르겠습니다
프로그램을
배가
승용
지가
자금을
있거나
##중을
##수행
본격적으로
위반한
식물
영구
##이잖아요
했으면
위원회
##졌어요
사용한다
##치에
끌고
오른쪽
##순위
필리핀
성우
##볼게요
사람에게
않지만
네이
도달
이인
##석은
경상북도
엠비
지금부터
얘긴
맡고
##기한
##었거든요
자네
##렸어요
되겠습니다
##다라는
글쎄요
지냈다
스코
##적이다
방사
환지
부정한
하시면
인정된다
붙어
기간이
아님
##소외
##자로부터
##져야
박영
##각을
아빠가
전까지
이념
태어난
##발명
정치를
##사인
예약
유로
피고인들이
호흡
##형은
주제
직접적인
오사카
자체는
시절에
##ine
##모가
항의
믿을
넘어서
인기를
##영화
##임스
나오면
##라구
피디
##당시
힘들어
해방
의미하는
어머니가
2의
사실오인
대개
##했죠
곧바로
1개
이따
피곤
되나요
분의
##항공
사기죄
애가
엑스
시정
##미널
전부터
나오는데
##기지
진료
##하고도
##되었을
인가
당신이
납세
누구나
기회가
넓은
전에는
일부가
##고의
성매매
##드에
1982년
형태의
존속
포인트
기록했다
테니까
얘기해
빠르게
##구십
선전
사단
한국에서
세운
요시
현실적으로
동계
##승인
일본이
친구들이
못해
신빙
밤에
##티나
##으로도
베르
더불어민주
개헌
건축물
피고들
##마스
성인
##견을
시작하였다
##나고
페이
이리
##파를
관리를
변화가
##방해
있어서의
스트레스
모임
하루에
나랑
찬성
부분에서
##파의
오래된
놓은
싸움
카톡
##협의
확정판결
##ab
초과하는
시대의
재료
옷을
일자
청탁
##텐츠
재산상
할지라도
줘야
좋게
문화재
용인
식사
위법하다고
##35
발표한
에피
법령의
하나씩
바람에
법인세
뭔지
대략
##티아
가리키는
주기
번씩
북부
소리를
제19
나머지는
계승
중반
펼쳐
전역
##영업
나왔는데
유행
송금
##문화재
까지는
##친구
일주일
블루
사정에
재임
공소사실을
뭐지
범위에
##분할
사고를
정정
승객
##사령
집행유예
하드
##건물
작전
딸이
수표
가질
이르는
##모를
가처분
##원들이
기본적인
##em
##파가
과실이
단위
며느
단어
##ess
##제도
취소하고
뒤를
소환
##아파트
후손
##시즌
그러게
##으러
지정상품
됐고
##정상
부가가치세
않았던
찾는
마사
메뉴
비가
##면에서
이행을
집으로
##예정
걸까요
빨간
미칠
##우가
윌리엄
팀의
##싱턴
착오
##200
이십오
요건을
가시
지나지
심리미진
아이들
##분들이
퇴직금
승강장
모르겠어요
터키
민정
현저히
국민이
합류
협상
##랑이
아버님
유리한
윈도
날씨
뛰어난
##ion
시점
원심판결은
개인적인
##교의
스트레
##적의
대표는
조금만
내용과
봤습니다
있긴
자율
괜히
##메이
연출
즉위
비타민
이만
##프는
##프를
연구를
상위
아니하므로
동영
##선에서
들어온
필수
조례
주식의
##프가
제7조
토요일
넘겨
확정한
베네
무료
장악
인출
##함은
능력을
##일로부터
듣는
들려
1983년
다음은
##유의
그러다가
000원의
건립
현역
##삼십
##가액
폐쇄
미군
##제품
##버트
개성
번에
외국인
되었다고
09
콘서
종합적으로
가치를
음력
##행위는
우린
##주신
##해지는
보여주는
자유한국당
월요일
도박
가능성도
##기관이
인정되지
눈을
아름다운
되었으며
추억
거친
특례
기회
서서
##워드
것들은
판결의
적도
많아서
유한
31일
포르투
카를
가집행
황교
현행
서부
오일
후에는
미디어
한두
받아들이지
##로그
인디
있음에도
##먼트
##렸고
응원
오백
임의로
##에다
##약품
당사자가
밥을
상가
위험한
일년
그런가
특정한
애플
과정에
만나는
인접
전직
얘기한
공소사실에
작품을
부족한
걱정이
이전의
박물
법조
##경의
우울
##로지
##즈의
민사소송법
주장도
사랑을
일요일
지속적으로
다하지
소리가
수사기관
##리나
싸우
쉬운
점차
아니지
120
처분은
##시키기
과도
유승민
천황
조카
##석에
제9조
##시까지
나라가
##조직
정리를
벌어진
별표
신라
승진
아래와
재밌는
되겠
화장실
증거들을
저질
허락
하므로
##건이
사용된다
머물
시위
주시면
사망하였다
상고이유에서
영화배우
다니는
있겠습니다
장성
회생
비판을
너도
의존
##종을
엄청나게
체험
대출을
정체
아베
개를
말해서
##전쟁
양쪽
한강
미쳤
음식을
선고한
184
##프리카
시의
수십
차단
전쟁을
갖게
평창
애기
이병
설치된
씨도
반하여
탈퇴
활발
강경
쓰레
여자가
망인의
##판에
사회에
동양
법에
##형으로
판단하고
분열
독특
삭제
십구
봉사
##이네
제36
##행사
말이다
갈라
만들었다
다카
하긴
중개
##현의
하셨는데
모르겠는데
##마를
세계에서
계산한
공식적으로
##33
##했는데요
괜찮아
악화
않아서
왔어요
1981년
이르기까지
있었으나
##항을
팀이
하였다고
##졌을
음악을
##드리고
데는
실체
##령이
부속
무게
##메달을
##렸던
몰래
상의
##명령을
##로드
고전
시인
계약의
##하려면
전라남도
찍어
피고와
보전
##령을
유월
지불
##만원을
##민의
이고
신속
관계없이
데가
응응
결국에는
1970년
떠오
##등급
##였다고
안돼
##연도
불과한
05
##대와
않기
당일
마약
##니가
스크
다운
세무
##구조
##해지고
##대문
상대방의
사람들도
꺼내
치킨
수급
##진은
##리다
이후에도
뮤지컬
일으키
깊이
##였으며
스케
호소
##보증금
1의
##등이
홈런
고속도로
토지는
소수
##주지
##지션
##병을
장래
##im
으음
공모하여
오지
모르겠지만
있었으며
마세요
불렀
원천
해안
##왔습니다
여부가
부상
##보자
임원
요구를
원심판결에
간호
서울고등법원에
##고속
동남
무효라고
본인은
##거지
관념
많지
것만
신호
양성
양육
어마
워싱턴
주면
물건을
했지
그러기
유족
유발
판단이
가만히
집이
제20
별개의
대조
중국이
경비
사월
##경매
입을
##45
있었죠
없었고
오이
서비스를
포함한다
채권자
가격이
##서에서
##라노
게임을
창조
메이저
상세
##색이
##정으로
가깝
이민
친구들
메모
항소심
나옵니다
완공
##신용
공동으로
실제로는
##ㅋㅋㅋㅋㅋㅋ
##이어
위법한
1979년
근대
피의자신문
중에는
여행을
##능을
##능이
대장
##특례
##주교
주셨
##ak
위치해
형을
##활동을
보도가
비율로
심한
##ity
해소
교통사고
##재가
2층
##해라
복합
법령에
어디에
수여
##나라는
##리라고
상태를
법을
제1점에
전쟁이
##서울
은하
기분이
아직까지
어허
판단에
실수
##았어요
소득세법
대회에서
텐데요
##건의
##육십
##ip
기준을
##하냐
##현이
##하고요
채무자
도덕
##채권을
##대책
##ㄱㅋ
##으려고
MBC
82
정신적
모른
##단계
승소
퀴즈
승리를
공기
공원
체크
##로나
소프트웨어
##임은
개정된
알렉산
금요일
있으니
결정이
않았다고
이슬람
범죄의
투수
##었지만
##안은
프로듀
##판사
한쪽
수사기록
기후
말입니다
##세액
받기
가라
##망을
이웃
대표이
그러니깐
않았습니다
동시
##용을
##성립
미세먼
핸드폰
십팔
보시는
##연이
대단한
요지는
사건과
II
다를
##다시
도시로
마주
면역
김병
아줌
이수
일부는
된다면
여의
지역은
나와요
##산화
##민사소송법
출장
학원
무상
지점
했잖아요
과정이
##당과
남녀
너희
##름이
봤어요
있어서도
특성
##ud
포함된
##46
##용의
화해
권유
반면에
##씨는
재판을
##오카
피항소인
##력과
가능성을
몰아
##이오
법칙
##일수
##법인의
진행이
김대중
##방의
분위기가
##련의
08
연고
진화
천안
같구요
실무
국어
손에
현지
수고
국민들
##해졌다
선거에
##세로
법이
보시죠
##선고
군인
박상
새정치
용이
내지는
전남
십육
감독이
열두
병합
한참
##설립
##리포니아
내리
##대상이
제2항의
안타깝
인기가
제주도
재항고
판결은
극복
생각보다
유상
##과정에서
뒤에서
학부모
고급
하였으며
괜찮아요
코스
##ys
오천
창작
##우의
세이
제1호증의
영입
공을
점검
해임
공고
라인
마지막에
자연스럽게
모두가
편성
성남
##진술
양자
채권을
##받침
스마트폰
In
요지
믿지
사해
납입
41
##변제
##달러
승인을
법원은
##연을
아니고요
조건으로
일일
포인
황금
##있습니다
세부
이경
영수
##소와
이외에
안되
##거라
##ers
900
주부
피고로부터
전당
고민을
역사를
위기
##절한
##봤는데
근로자
Al
공주
##세이
##셔널
모르겠
규정의
전사
사항에
무한
장군
필승
5푼의
Re
이상을
포지션
판단하여
목격
장치
##동조합
맞다
그에게
##미디
정치적인
승격
국회에서
저지른
대출금
다르다
##igh
부지
노조
##공원
후보자
대외
밖의
덴마
마치고
SK
걸려
이태
생각하면
##그라
사건으로
거기에서
그나마
중대
삼천
##보도록
발견된
만료
##다나
##본부
길게
스타일
프로젝트
아니한다고
##ell
좋다고
출자
##산시
종중
호주
이벤
삼국
영화는
비하여
면책
변화를
##가리
전체를
싱가
넣어서
혜택
등장하는
현장에
##님께서
갔을
계기로
말하자면
미치지
카운
사기죄가
해양
##라엘
꾸준히
기술을
##기보다는
아내가
채증법칙을
황교안
성적을
후배
긍까
보기는
현장에서
객관적
부문
##절차에
1972년
##37
이내
통행
미국은
주장하나
거대한
수긍할
##초에
피아노
대통령과
법인세법
에드
한나라
휴대폰
물어보
하나에
연락이
비롯하여
시나
##히고
사업자
경합범
단백질
##세무서장
얼른
적정
만나고
##소송의
담보로
내역
확인해
무섭
하셔야
오월
좋겠어요
상계
아키
참여하였다
하락
밖으로
필요하다고
건물이
de
드시
##부인
##이게
##ge
지진
기다려
##36
##무가
긴장
국유
왔습니다
진짜로
유예
CD
##용이
160
##ist
경주
사람들에게
1973년
사회가
반도
물에
##니는
인자
성명
책이
##여자
제8조
삼월
##에서부터
했더니
만남
##율은
##ill
짧게
거듭
##졌던
마케
야마
##전한
##산은
##됨으로써
등재
말라
##교를
때의
실천
##졌으며
얼굴이
##테인
##회복
맛있게
인쇄
##국민
창원
이러면
자신들의
##종은
해석을
사모
얘가
법정에서
##사십
##마저
하나를
##하였음은
진영
심의
권리가
아랍
준다
고소를
의회
암살
머리를
이스라엘
철저
1979
##사업에
절차에
선진
기록이
기존에
제2점에
사용하지
알았어요
좋겠
##문제
않느냐
##네시아
##디션
바쁘
자신에
죄를
##구에서
청주
##져요
규정하는
##실이
##미는
##ran
등에게
이십일
건국
공범
유료
마쳐
##피스
찾을
나타나는
시작된
서면
않다고
오스
평론가
대체로
##ne
배척한
##감정
##세와
##던지
뜨거운
의학
##환이
소유권보존
입게
##판결을
미국과
##아지
입시
자고
말미
##우리
가능할
부활
##회계
##운동을
##이든
검찰에
킬로
석유
##가합
##영철
피고인과
마리아
시장이
월급
##음으로
알아요
나섰
##38
##공단
대처
원작
##임금
에피소
반응을
공연을
장례
지냈
금속
했고요
배상할
##ub
중소기업
전설
올랐다
모스크
거구요
느끼는
종전의
부착
1960년
취지는
타임
알아야
없거나
2015
처분이
##공사를
제도를
핀란드
위하여는
불린다
증거의
##나서
천연
##국으로
유출
보험계약
덕분에
하나만
공개된
하셨어요
무장
등기부
직전
지낸
씨씨
측면이
서른
수사가
종목
학교에서
편취
하구요
##위원회가
결제
##선수
피고를
논문
분도
나왔다
가득
추징
단속
지리
보급
중재
##약이
먹었
07
택지
##인들을
한계를
경정
보다는
휴가
가기
##양을
베스트
하더라고요
몽골
##21
불을
##47
##리즘
##로에
이해를
정부에서
##칠십
포르투갈
##소년
임신
명에
4개
재벌
밀어
1974년
옆에서
##나와
##ment
경까지
십삼
지지를
자체에
##소한
칭찬
나간
##수사
비싼
독점
트로
##어머니
##버린
집어
##자마자
##포르
법률에
번호
이월
공중
미니
플로
추구
소금
가능성
트레이
영화가
##드에서
조합의
아닌가요
구월
할까요
아니잖아요
거라
##치기
일어나는
식의
변호인의
갔다가
대기업
부채
06
경북
구멍
서민
##est
남자가
그랬어요
##으론
반성
자에
갈아
##표가
베이징
2억
차량을
##나라의
소유자
나누어
제임스
관객
단정할
##살이
부회
섭취
공제한
##보전
##익을
관해서
##직원
##청을
그렇구나
##가이다
지방세법
##했다가
이끄
삼각
##참가인
지체
대충
원고로부터
항소는
있네요
##권과
충청남도
사용된
구금
삼일
##ob
##결과에
종류의
절도
소유권이전등기가
어렵다고
순번
십사
##왔던
되돌
곡을
인증
##적에
올린
장착
도저히
##드와
보도를
1978년
마마
##분들
할려고
##사유에
일탈
##로스
같은해
수반
##해주는
##곡을
사용자
발표를
입사
183
오세요
채택한
##그러므로
조건을
서울에
다다
야당이
탑재
매월
중국에
막을
갖추고
이젠
드디어
혈액
##보안
ㅋㅋㅋㅋㅋㅋㅋㅋㅋㅋ
##터를
루이
##리에서
유병
##리면서
꿈을
##프의
대부분이
보좌
할아버지
어려우
창립
폭탄
노예
사용을
연맹
플랫
##르타
소급
해라
해상
대신에
소송비용
맞이
기사를
어때요
모순
편안
드래
지는
##공급
후속
패션
##판이
노벨
준용
오랜만에
노래가
비대
발휘
스티
반대하는
병사
오염
##동으로
##론이
배포
##사지방법원
구단
동해
심장
##너스
나왔어요
허위의
환급
이십사
김창
되구요
관점에서
부실
아시안
영상을
적용을
##주시기
필요할
##법으로
가벼
큰일
담아
##테이
##었으나
님이
보일
주무
##법령
분에
예선
냉장
약속어음
##있게
사용되고
자기는
##CA
쓰지
##신은
소식을
6개월
맞고
됐을
이룬
영장
##권자
완제
##칠년
Mar
##텐데
본부
##all
무관
집회
금액이
이끄는
피해가
영업을
##침을
보내고
##뮤니
몰라요
본다면
한국당
설사
의장
에프
500만
무대
##계는
곳으로
아직은
것임을
원심판결의
고문
작성된
신중
이러고
박원
환매
맞게
이르게
됐던
있어도
2개의
감시
출범
이용해
강도
개그
##운영
##슈타
만드
이나
##율에
박수
하느냐
경력
회장이
후에도
##환을
##분은
##주의를
조사한
나라를
자라
언니가
##차에
복잡한
손으로
향상
이미지
선거에서
유무
것이라면
성실
인감
체납
손해가
선행
##39
세르
적응
호칭
백만
모자
##부지
##채권의
##시티
양파
##년대
##지만은
법리
##트라
확실하게
빼앗
국왕
방치
김수
크기
실시간
기간을
화성
250
##바라
##징수
적용되는
##사이트
회전
쇼핑
평소에
해당하여
따뜻한
제1호증
헌법재판
지사
##배상
너가
밝혔습니다
부족하고
1976년
수치
어르
레드
새끼
지시를
전투에서
오프
교섭
대부
민생
않겠
작년에
천천
형사고
나온다
경험을
##체육
시행규칙
마이클
필요는
일하는
문제도
매달
##tic
화면
탈락
솔로
계급
맡아
##집에
얘기했
채무자가
##주주
Th
##이어서
##보드
성적이
진심
##환의
정산
식당
예능
원주
##터리
시간은
님께서
대가로
##어마
##에게도
하니
단체협약
종이
##개가
버리고
##간을
##하였으니
체결하고
응급
라틴
식별
않아도
봐서
아쉽
우수
##으실
헤이
의혹이
##uc
##개로
레코
목소리가
저당
##컨대
전두
분석을
##관과
곳은
김주
속한
엔터
다스
인과
급격
지나치게
싶지
얼굴을
##통을
목포
당황
성격이
사랑하는
이들의
되므로
##결이
되는지
##공항
창설
##음악
1971년
메르
트리
확산
##채무를
복무
##실로
##공동
변호사의
기반으로
실지
인적
신앙
됐어
포도
##란다
잡지
##ue
##화와
1층
##방에서
보러
떠올
##구와
##예술
1975년
잘하는
179
않겠습니까
1950년
각각의
이용해서
계십니다
병역
이루어지지
계기가
##률을
조기
##조사를
어디로
다이어트
##거를
##절차에서
신인
사천
증명이
##보니
경과한
##데미
역사상
감옥
포항
치매
본원
코미디
##49
회피
사업의
성과
##대전
나폴
홍준
낙찰
##보수
##평의
있을지
##페이지
순서
겨우
내야
수단
속도
연금
##터가
작동
##되었다가
가족이
나라의
존중
지은
화려
##발명의
##버리
##영은
진행을
##보세요
##한테는
##차는
##ea
##병이
br
양승
##계약서
높이는
간단하게
##달에
당연한
##ph
네가
##총회
천천히
의미에서
입력
##있는데
##웠던
1968년
하겠
아버지는
가려
대통령령이
건가
##시대의
있기는
지목
아메리카
52
##타를
재해
미나
해주세요
운영하고
붙잡
##하지도
제공한
이르케
영원
무거운
설령
지붕
준비해
의사에
전체적인
돈은
않았을
극단
요청을
세금계산
영위
##주와
##라비아
체결된
살이
언론에
비행기
납품
군데
넘게
익숙
##관계의
파트
작성하여
가지를
가액
화제가
##하를
보는데
있냐
실효
학교에
그분이
저작권
3차
일으켰
##브리
##확정
##자산
매매계약을
형식으로
##합니까
매수한
개최된
##에서만
침공
그때부터
하였다는
##7년에
충당
어마어마
##하느냐
##아도
득점
현상이
##본법
미성
피해자에게
양반
주체
##청은
합쳐
그림을
침입
##족의
했으나
계약이
이끌고
트위
이번엔
##거래법
##금지
나타났
세우
보도록
열대
지닌
어렵게
1회
##관광
선택을
##선과
손가락
있겠지만
##낸다
여기가
##년간
제출된
당뇨
마쓰
밝힌
부장
효력
느낌을
없으니
##되었지만
지방의
주제로
가도
계세요
연계
페이스
열한
약속을
빼고
목표로
노인
주간
해당하므로
외에는
둘러싸
##우를
조건이
장남
제25
놀러
철회
##셔가지고
##업의
반려
시켰
회사에서
갑니다
대수
보내는
##해주세요
자진
##이상
높다
##생활을
직권으로
팀은
1963년
부러
유력
인정될
##협동조합
맛을
##이니
1969년
많을
속으로
얘기하면
성격을
베를
주위적
대성
또다시
유인
1978
이회
개봉한
주재
직접적으로
##이네요
세계적으로
서방
##자면
법리와
##세기에
선보
##여야
귀여
토대로
이사회
제2항은
3개월
당이
##느라
하에
할까
내신
##연한
본소
인용한
매니
호의
배고
##기간에
빠진
인정사실에
이루어지는
후보를
키우
하네요
내내
간부
과징
실용
##바닥
이용할
박사님
들여다
일종이다
##ik
##셨죠
경유
수의
위장
##유럽
기록상
부가
위법을
플랫폼
그거에
아르헨
걸리
사회의
정관
불법행위
지난번에
보이는데
수시
박성
따져
모바
##이었다고
어디까지
##패를
기준에
후보로
실종
유학
소송대리인의
되며
알파
##어와
##료의
##임대
##마의
이석
자원
##미래
상식
##지않
거치지
박종
서버
교수가
수도권
##게임
##씨의
표현이
지연손해금을
유치원
카카오톡
팀을
살려
테스트
기재한
접속
##틀랜드
것임에도
볼까요
대표변호사
유지하고
드라이
미치
떨어지는
않으며
##결정에
연간
영웅
##경부터
써서
액면
##역으로
대한민국에
결정에
그중에
보내주
상황인데
괴롭
매매대금
여신
감독을
더블
최근에는
##범죄가
소는
##너무
살아가
시골
금융기관
정보가
##아시아
name4
권력을
진압
그랬죠
근로기준
봤어
게재
전송
##차의
막아
해주는
##our
법규
##름을
로켓
금강
진술하고
투자를
ㅜㅜ
후인
중에서도
##오일
소유하고
공직선거
기상
##함으로
게이
혼합
전력
들었어요
놀랐
하였는데
나아
홍준표
설마
위험이
상임
##훼손
##명과
##동은
역사적
전파
사업에
중화민국
강릉
고구려
##등기의
사본
##태를
계속하여
##ice
근처에
원상
##지는데
가난
객관적인
그후
뜻으로
나왔던
가능성은
편하게
행사를
절대로
이용하는
도중
000원으로
스키
##66
##인으로서
##줘요
51
돼지
전신
관계로
금원
연설
일련의
##버그
##테르
플라
##배를
유일하게
생각해요
구분소유
그저
필요로
없으나
분을
피담보
같으므로
##희의
본관은
다음으로
대학생
최우
기자회
기다리
바람직
프리미
시티
대하여도
현황
공사대금
보여주고
가는데
##연맹
없음에도
##담을
보인
추정된다
##람표
매주
작성의
방식을
부담하는
말레이
주장했다
김석
마땅
년이
일월
##박한
생방송
##관련
##ST
원으로
부담을
##ss
의미로
##즈는
언젠
##데스
뜻하는
법적으로
##절차의
##고지
과다
이들이
드릴게요
오신
학교를
통상의
##재의
##류에
누락
이준
이루고
기도
구제
##부대
강제집행
트랙
일본은
주연으로
학문
함수
##즈가
국민들의
3인
장비
군대를
상법
강점
나가고
배정
##물질
연체
금품
종결
서울중앙
포함하는
피청구
##부장관
시작되었다
사우
중독
발표했다
공소사실의
같기도
먹은
이행하지
프란
##에프
##군으로
독특한
써야
##경은
오페
##FC
인정하기에
의심을
축소
플러스
어이
조선민주주의인민공화국
##들인
##방법에
담고
속한다
##증의
경우와
제10조
하나인
근로자의
##항은
용어
##각이
대표하는
호르
남아있
지니
수색
가지로
찾아볼
가맹
##외로
매장
이년
##ㄱㄱ
들어와서
##절이
버전
거래를
Le
지나가
신도
##까진
재개
측에서
제37조
대표팀
리스트
경찰은
들어가면
곳곳
제32
##되나
##사키
형태를
밖에서
완전한
##금과
과일
부처
서울대
저렴
##시설을
글로벌
해볼
##머리
퍼센트가
조종
##자들에
##타이
##밀한
무거
종로
크다
추적
##들하고
##번의
##크라이나
초에
##재산의
##키아
경고
이일
##적용
달아
액션
진주
있은
거시
##6년에
민주화
검사를
##미의
공용
천문
슬로
내린
시집
비교대상
가면은
##수당
의거
배워
하위
##목의
81
쓰인다
산하
반찬
##군다나
일들이
눈치
##등본
공업
##if
##오년
181
과실로
##통념
국가에
세력이
대표를
남성이
##능력이
관리하는
실망
합성
##죄는
전라북도
나카
자유를
열고
서류를
##다리
제외하고는
돈으로
학술
생일
일자리
합니까
이야기는
스프
인용하고
씨와
행성
대학에
존재를
언제든지
1주
LG
우측
##역에
##환으로
모스크바
##먹는
주민들이
사임
협조
##청구에
머리가
우리나라에
나타내는
대동
사람으로
수송
향해
1948년
전부를
##절을
##르가
##루가
행하여
됐죠
##내지
십년
보컬
재위
##료는
정치권
말미암
##이다라고
만들기
1964년
동성
##레인
시작합니다
활성화
협회
##하기를
입니다
것보다
##라를
탈당
##장에게
결과는
##보기
##민이
##최고
어르신
이은
##ER
트럭
의혹을
메시지를
성공을
김광
네트워크
공군
##양이
한화
##량에
진학
##살을
뒷받침
목소리를
신동
특이
할게요
##말을
##훈련
자기네
외의
잡는
장식
드립니다
성향
예전에는
주최
우크라이나
##등에관한법률
중순
법률의
정도면
북한을
거군요
탈북
부담이
과반
대행
억제
불가능한
당의
위안
다닐
인사를
##여행
##방미터
윈도우
감자
하는지
합동
##치면
보험금
식민지
기다리고
장사
약간의
##시행규칙
잠수
북서
##위에서
철수
확실한
강간
고통을
날인
이규
위법하다
리얼
소스
이순
저녁에
무사
##천시
개방
매운
##했으면
##난다
##었는데요
##왔는데
적당
##검찰
Ne
채권의
정해진
십칠
확립
##트와
중국에서
##위원회에
##1호로
##림을
곳을
이끌어
의원들이
방향을
##권한
규모의
PC
미루
직원이
명확하게
Un
발굴
US
커뮤니
불이
세탁
생각하지
관료
##화국의
연구소
죽음
##되던
간단한
일어날
해에
De
##이년
진정성립
##ㅋㅋㅋㅋㅋㅋㅋ
거기는
받는다
##건데
대학을
그들
최선을
##으시면
제1심판결을
##전화
목숨을
이들을
처한다
1962년
동음이
하되
수술을
해설
##인들에게
##하였지만
##art
##였죠
##시스템
가동
양이
구성원
보이스피
권한이
사서
되느냐
아웃
제기할
##원심은
메인
들어오는
있었거든요
됐다고
경기에
되지만
애매
드는데
보이스피싱
않았다는
##청구권을
확인이
159
잇는
시스템을
발견된다
영광
남의
남는
동음이의
막기
대표님
내보
##분야
##진에
중화인민공화국
남동
아카데미
##사업법
이모
지고
배려
전인
인도네시아
발송
돌아온
1세
재배
##박쥐
감정을
인간이
높습니다
화합
##이거나
위치한다
##범죄가중
##초등학교는
유명하다
경료된
수소
베를린
치러
드러나
교토
##왕이
하라고
한도
지났
응답
##회사에
##점유
잘해
함부로
##ong
스위스
##56
네이버
본선
기대를
씨씨티
가구
홈페이지
그러니
수탁
##직에
##경쟁
##조의3
엄마는
삼촌
##았다고
##해질
보신
북한에서
안타까운
반응이
누군가
준비한
군의
방출
상황은
1977년
제12조
부수
교도
##르기
이르렀
##자금을
실질적
걸린
원판결을
김정일
재생
경작
북아
스파
오직
##86
##졌다는
110
나중
새겨
초등학교이다
정복
제안을
그동안에
##어진다
사례가
면적
있는가
##이었죠
명령을
##하에서
미성년
구성하는
##채무의
오셨
음성
경성
중구
##말이
왔어
임진
##다이
대부분은
주택건설
끓여
요한
##업무를
부당하게
프로세
공산주의
관세
독재
130
범죄를
##시설의
면이
아미
##기간의
좋죠
이해할
여성의
얻고
극장
##스포
법인이
끝으로
##표의
##자료를
##ry
지급하고
번의
72
고무
백화
##리우
맞춰서
파는
그런지
의문
사회통념
결론그렇다면
설시
##더러
##았어
##없다
부작용
임명되었다
데도
##평균
완화
##34
행위로
결코
##전자
아이구
아까도
보였다
비용이
가면서
고쳐
함에도
새로이
하도급
선호
이시
재개발
Ar
알았는데
담겨
문건
오바
가상
벨기에
보편
##일람표
##슨은
광역
모바일
##범죄가중처벌
오빠가
이지
시작으로
기성
##해주신
거론
얻었다
##측의
박준
##견이
선거를
일방적으로
보냈다
뿌리
지식을
아줌마
정차
##됨에
1965년
무서운
원리
쪽이
기온
끊임
##내기
그로부터
맡은
멸망
부분과
된다라고
종업
하라
##연대
그걸로
해가
##길을
달라는
오만
##팔년
발매되었다
받았는데
오로지
이쁘
##심사
진행하는
170
기가
##OS
제30조
1위를
앞으로도
대량
사업계획
북동
재결
윤리
사용자가
변호사를
훈련을
기자가
유해
##씨를
##의무가
문언
용서
진지
##다카
쫓아
판단하게
잘못을
이회창
미드
없었다고
문자를
읽고
그리구
##결정이
##바르
나이에
의원을
제외하고
러시아의
##대금의
손해의
시작하여
동반
##장치
검찰에서
정수
조사가
##마토
지급하지
제작에
##ang
포함하고
성질을
##00년
한양
##발전
리더십
K리그
출산
코드
드림
용산
이해관계
불가피
이래서
##호와
법의
다음의
기둥
다행히
시월
수백
육상
스카
사기죄로
비슷하게
불리한
년간
장수
채무자의
교류
거로
파워
##하였음에도
##위원회는
집행을
##화학
땅을
만주
담은
용도로
##se
아르헨티나
5개
청문회
##기구
##혀서
명도
초등
안동
약정한
##거죠
제11조
인구가
수수료
의정부
나오셨습니다
끝날
인터뷰를
사용되었다
1949년
ㅋㅋㅋㅋㅋㅋㅋㅋㅋㅋㅋ
이천십육
활동하고
측근
##병대
19세기
업무에
이윤
자존
전북
맛있어요
상을
올리고
국도
정권이
##면적
팔월
1000
##고사
해줄
참가인
뿐이다
얘기죠
##하시죠
제어
1961년
사립학교
위성
고종
2세
참작하여
비핵화
반소원고
납득
대통령께서
창업
##집이
##절차가
원판결은
사직
##이었으나
구글
안나
전철
비트
야간
선거운동
전체가
책은
##av
사람한테
##ate
혐의를
원심증인
재항고인
장교
An
##오프
초기에
62
유용
기운
추석
##수산
##심한
to
김민
대공
러브
면할
했으며
지지율이
이탈리아의
심판청구
어떡해
없거든요
뜻한다
여긴
베이스
##겁니다
있더라고요
##99
##란에
얼마든지
다니고
드시는
##규정에
모를
셋째
소극
혼자서
구현
처분에
했는지
보여집니다
알리
착수
기구
십이월
프라이
##물인
제2호증의
##밀하게
상반
로버트
##증서
발명의
##다섯
##계약은
적극적인
아휴
##표에
과장
어지
프린
졸업하고
178
경찰관
채무의
세웠다
선수들이
##리한
잃어버
불과하여
농민
밀려
무덤
쓰여
아니며
모셨습니다
어두
버리
특히나
##채를
사드
##다란
행정구역
기간에
광복
기사가
불공
사과를
##층의
상당하다고
이날
1심
##례를
구두
##지자
##토리
총리가
녹색
시작하는
귀찮
일구
##게는
사이트
운반
##프레
사람이다
의원의
SBS
##비와
철도역이다
##감한
썼다
##57
##ich
기능이
계시는
아리
제3자에게
있으면서
서초
먹어도
##트랙
##거는
##림이
아니기
##실험
않았지만
서울에서
##데이
아뇨
이현
어쩌면
간이
제1항에서
쓰레기
##영을
소개를
장면이
##식품
나요
의지
##치료
나두
평범
##포를
이재명
##사기
뽑아
수를
이어지는
##ain
화장품
농촌
정유
정태
충남
국회가
발라
##화한
스코틀랜드
민사소송
경기가
아스
##ight
새우
시키는
유언
위험을
##과정
죽고
1에
시를
청나라
보고서
언제나
제품을
3억
거리가
시작이
병원에서
정무
변경되었다
후기
관계는
작품은
전날
조달
##열이
어업
##있어요
민주당이
개막
패턴
##행에
등록을
동북
전형적인
극히
일억
##심에
약칭
취지가
기억을
포지션은
밀접
야권
##미니
응용
이루는
인물이
지분을
상무
역으로
높게
우연히
정권을
##행의
##사랑
상습
2016
주장할
##때문에
140
##당사자
막상
##었기
관계에서
주목을
##통지
동년
아니하였다
피고인들은
##부분은
산맥
건강한
이원
##층이
긍정적인
##어지는
살펴본
##권자가
##ㅋㅋㅋㅋㅋㅋㅋㅋㅋㅋㅋㅋㅋㅋㅋㅋ
##일까지는
##파는
얻는
들어보겠습니다
동서
김해
말아
복원
들어올
개발한
역을
갈등이
##진흥
이루어지고
Sh
노란
있단
##장님이
가르쳐
환불
##시스
##지마
들었는데
주교
출간
일으켜
부상을
##리도
측은
발전을
##티에
##됐던
쓰이는
우유
일체의
제23조
바보
국경
반박
마음대로
약한
않았는데
칠월
시간입니다
세기
##소프트
##화물
더군다나
외환
증상이
우리나라가
사인
연말
정시
##늦게
상응
##았을
배신
제공하고
움직이는
대결
부르고
소의
제도가
가격을
라면
기업의
##망이
모르게
##와이
과세관
##매수
이전에는
두었다
미화
##줘서
심지어는
돌아와
##하시기
남서
위치를
반환을
##약에
김일성
방식이
지역이
과목
시달
치열
시설을
자격을
유산
##납부
##제국
국방부
##공을
제4호
십만
정치가
##ber
느끼고
상륙
중부
##후보
숨겨
살아남
오오
##판단
##들끼리
##지며
##연의
조현
##000
정당하다
파라
##아는
명백히
눈물
요번에
있음
##적으로도
주말에
생각하십니까
비정
1940년
##으라고
1967년
개념을
유병언
마드리
부패
왜곡
##길이
마음으로
사면
단서
못하여
최종적으로
분담
스무
##ian
##열을
앉아서
##에게서
182
일조
##니의
##위원장
범죄일람표
이재용
##원심판결
##발이
1977
되어야
인종
나는데
기록한
치즈
##맛이
세계적인
물려
파란
##요일에
산정한
주둔
##수이다
중요합니다
진술한
부정적인
여러분들이
##없어
김한
자이
국가를
하나하나
##강을
명예훼손
ㅠㅠㅠ
다니다
공사가
상대방에게
##는지를
수습
식구
저희도
좋아서
받았다고
##셨을
어머니는
04
##생을
부탁을
서구
감정평가
위배하여
##당했다
있었는데요
받았습니다
계약금
경향이
후회
위치에
##임에
지역으로
##률은
준비가
노동자
##AR
자유롭게
나선
총장
사회에서
준수
분야에서
##더라면
부친
중립
반소피고
매립
원정
##약정
한성
중지
##해야지
##조회
##ON
중이다
저하
진술이
국내에서
실업
잠재
않았어요
그라
속이
뿐이고
진상
채권자가
변동
운영을
박탈
상품의
상장
신경을
데이비
김덕
아들을
지급받은
전두환
바꿀
시어머니
여보세요
##상호
##방향
후지
참여한
##하셨습니다
##철이
잘라
주실
##권도
사항은
##천군
거네요
##불이행
골든
했으니까
##식과
##자로서의
바퀴
저번에
##역이
모여서
진행하고
끝이
보낼
##론의
##마이
##으루
##납니다
정치인
##제2
총괄
##들에서
##들과의
상고이유로
찍은
최재
정리해
삶의
##클럽
##항소취지
목요일
##리노
##층에
않으므로
코리아
##nter
엔터테인
곡은
##ff
손상
##제와
에스엔에
감면
##4년에
영문
##했지
시리아
##단에서
지향
평등
공무원이
될까
피고인들에
인정하기
바른미래
##BO
불법행위로
배를
것이기
이번에도
학생들
부를
싶고
이겨
##매를
부과처분
박지원
##자원
처형
길이는
##색으로
참모
충격을
##오면
차량의
신한
적시
메시지
##대행
필요성이
건물은
##교사
부임
인재
##두에
피고인김
평가가
챔피언스
아래에서
도주
대한민국에서
요금
##되도록
전통적인
되기도
시장에
말미암아
##본이
다룬
세트
중복
##렸다고
지급하기로
거기가
아기
서울민
##비치
무엇을
사냥
해봐야
자발
타이완
차지하는
잠을
자체의
해주고
반기
##잖습니까
찾아서
##셨던
동업
##겁게
##론으로
중고
예수
카드를
##규의
우편
##경기에
사백
##1호
충실
줄어
지난번
사이버
태도를
약정이
##per
##범의
김명
막내
마디
명은
청와대가
##하마
갖추어
그레이
취하
##가스
불이익을
##스케
주택을
##근거
과거의
##사유로
변형
##기념
##3호로
답변을
맥주
묵시
현존
부하
성과를
왕이
정부를
담긴
##범이
요게
자신은
기록과
부른
71
그레
인정하여
독서
전수
##할까
##탄을
다큐
드루
주한
성분
##양의
이진
하구
변경된
##채권에
사람과
간첩
압도
##공사의
선조
##었잖아요
##플레이
아니거든요
##메리
##생이
##크에
서해
있구나
박원순
것이지만
제3호증의
명절
신화
이러는
조리
##ly
버린
##사한
없다면
1946년
저의
하더라고
##58
##전환
##러가
걔네
말라고
주의를
이메
법무부
대목
##시지
##일본
순위
걔가
항복
##고속도로
아테
최진
안으로
인식이
##나의
##았으며
천만
싱가포르
화이트
##키스탄
공소장
##법과
국내에
##먹을
사귀
죄가
##란이
요즘에는
비율이
날까지는
아들인
불합
성을
권리의
실험을
후임
##르지
예쁜
##평방미터
깔끔
##지니까
##래의
##혔다
채워
##였으나
##셨으면
##소속
브레이
이상으로
##2호로
정치에
사형
가져가
##AN
시나리오
가문
되었는데
원활
대표의
봤더니
회의를
독립운동
명칭을
많죠
후유
합의부에
##인으로부터
177
마감
##종으로
받으면
좌측
영향력을
1958년
##업이
최다
##상보험
차트
포탈
기술적
바라는
드리는
기재가
갱신
맞은
##만으로도
감동
있으신
3개의
고려하면
품질
인정하지
##루를
##까지만
시작해서
기술이
양승태
무단
지급하는
포위
보복
전술
콘텐츠
조선일보
차량이
##비용을
장르
전차
그런데도
##해주고
날로부터
화를
##나이티
노후
모리
살아야
규모가
아라
십일월
##내의
촉진
사이에는
명백하므로
작곡가
신정
여유
콜라
아파트의
같으면
놓여
프라
정치적으로
거리를
사회를
행복한
학생의
패러
##다고요
행위의
사진이
모으
보정
##되었으므로
관광객
정식으로
망원
전과
촉구
##량한
##타는
구경
부사
되어서
##질랜드
##퍼센트
진술기재
해석할
열리는
항쟁
##꾸로
##끄럽
계약에
무효로
##부과
제24
구원
##류는
##3년에
반증이
내려가
골을
역사가
##하겠
관할한다
와중에
##하셔서
일대
##미야
##kg
않았을까
##5년에
미만
세인트
빠져나
확인하고
오키
유동
세계에
모양의
뭘까요
연산
그렇습니까
재밌게
잘하고
체코
춘천
##당하고
나라에
##계로
가지게
아니구요
있었는지
##2년에
##시킨다
발효
특이한
##한테도
주사
##및항소취지
Con
대대
분명한
노사
제작한
대다
멋진
명명
신원
아티
##인민공화국의
##통이
일으킨
차지했다
판문
건축물의
피고들에
태국
##ount
##백을
비례대표
잠깐만요
유나이티
##이와
걸친
작품이
##규제
이집트
삼아
세력을
결정적인
유지한
조용히
간장
부품
지원하는
날아
리가
없도록
엠비씨
안양
용의
##기에서
##일영
부분들을
농구
짜증
##달라는
##철의
상관없이
그니깐
날까지
노부
침략
해결할
밝은
순수
프로그램이다
추락
서울대학교
트랜
마크
채소
리포
##가입
거기다
Com
못하였다
이상은
##청구권
부산광역시
생기고
결정할
제소
##AT
도서관
나지
##경원
제1조
공간을
오버
지적을
부도
잃은
##랄까
협상을
##들고
1966년
##단지
지도자
애를
기재내용
카르
##사년
파티
황태
뉴질랜드
보더라도
제3자
돌파
플라스
##보장
##순의
##가족
검거
이광
##앤젤
특수한
경기는
피고인들
이강
해줬
##에관한법률
신뢰를
경향
시상
##설이
피고보조
주장하면서
##화되어
산림
오기
##였어
차지하고
세금을
시대가
원시
대금을
대의
금액에
축제
잡을
들어가고
공인
모르지만
##레오
##아를
##이었으며
1로
브리핑
1970
취하지
터널
##기기
니콜
하겠다는
백작
1976
임기
커플
##가격을
주장의
천구백구십
소비에
했다가
적어
만나게
담당하는
##도서
단편
##시에서
대표로
여론이
호르몬
난리
증언을
##처에
본인에
아사
##증에
로스앤젤
##쿠라
진짜요
요코
성분이
기망하여
자동차를
년대
심하게
태극
##io
##는요
하냐
왔고
##타운
1번
지칭
콘서트
전임
이례
감액
고령
로드
##였지만
시즌을
##고한
30분
추상
한꺼
##역에서
읽는
##주군
##5원
보고를
세계의
일인
성폭력
백성
##보이
키워드
나치
##트롤
궁금합니다
유효한
했구요
합리적
웨스트
합산
혈관
Sp
발행한
이차
연재
##기획
주장한
방조
존경
투명
##보도
사이가
왕국
추심
포함해서
총독
답을
득표
61
박재
공약
수면
여태
##통합
여러가지
이루어졌다
간행
이야기도
7년
강행
##둥이
돌아다니
##1년에
##베이터
신용보증
자격이
##무라
지분에
##총리
말아야
생태
패소부분을
1974
원고들에
기초가
바꾼
##희가
계획이
해당되는
맞서
정동
사유를
나빠
매력
방정
결정하는
대법원판사
##기름
##송달
##하진
똑똑
##담당
신용장
양형부
##들만
##아웃
모습으로
사람들에
조선의
진행되고
청구취지및항소취지
약관
결정한다
1959년
##관리법
재산의
2할
장학
해준
우리나라에서
헨리
군수
이를테
애국
##oh
로서
운동이
드렸
합법
터미널
납치
거기다가
맡겨
취약
회담을
##음으로써
끝나는
디스
무지
행사에
##ort
공개를
한꺼번에
##했는지
야기
않았나
히트
같은법시행령
해당하는지
들었다
발생을
원금
##해져
경우의
연결하는
구하고
##저우
영화의
활동이
연기를
##됐다고
관습
미국으로
취득세
어딜
흥미
##슬러
##이라고도
##위와
##모델
명으로
짐작
##주기
##할지
재산이
##ord
특집
소정
취한
##조항
가속
개인이
나다
시카
영혼
##는지는
위기에
계약서
모욕
문헌
먹기
교육감
바람이
스미
약을
궁금해
디자
##55
제기된
수요일
대통령도
가보
개신
때려
식초
아들로
김선
오케이
차에
대학교에서
장소에서
틀어
##어가는
##사항을
##바이트
##청구는
건강을
반대의
##드레
여름에
죽었다
홈페이
##당으로
공소사실은
출신으로
##로와
활동에
##라이언
브루
사실상의
어딘
오세
지자
##프리
인격
##89
별지목록
브로
##77
사망했다
떡볶
않으
이가
상속재산
안되는
주가
중세
##퇴직
##하구요
사실관계에
##인이라고
이었다
적용될
잘못한
비리
경선
유류
발을
쟁점
##등포
거래의
환영
기재는
##장이다
마침내
균형
말았다
1973
소유권이전등기의
신학
##니아의
웅웅
모르겠다
용이하게
뭔가를
##자격
##ct
비용으로
사료
활동하였다
상해를
환산
##세계
둘러싼
찾고
re
한국어
##과도
가진다
논술
##기각
##추는
같다고
거치
임무를
1971
변호사입니다
나은
취업규칙
끊임없이
재판에
명의를
성립될
##부산
국회에
검토하여
같다는
차명
입장에
참나
타격
한창
않을까요
거짓말을
참전
소식이
팩트
##라에
당에
수호
##보에
양식
당연무효
혈압
나이로
차기
해명
##명의로
개인정보
플래
##셨습니까
시점에서
##체와
진술에
점수
##러운
상고는
##기일에
근로자가
냄새가
신선
분해
어렵습니다
분묘
##공이
압수수
이의를
독자적인
2회
짓을
##아아
맞죠
표면
##학원
아버지의
개조
탄압
고려할
##기준에
st
국가보안
이유있다
아이템
1920년
권고
명단
##주의에
##물과
발표하였다
정신을
사실인정과
비틀
계실
그러죠
##권리
이유만으로
버려
##드라고
##안으로
없다라고
광범위
우리나라의
두려워
초청
제13조
모래
마케팅
친정
기록하였다
보증금
치는
##타르
적용할
대원
의원에
물리학
##혁명
##스트로
경호
아오
체제를
의제
없었어요
정교
판매하는
넣는
##특정
제30
검찰은
공학
##44
초반에
위대한
제21
인용상표
##리사
양의
##고시
소비자
##집행을
##편에
##은행에
절차가
원칙을
##전과
##의무의
##란히
##원고는
음료
중요하다
달하는
소형
원인을
영남
안의
국민들은
##박물
낮아
내부에
##용에
##편이
나라에서
이외에도
있었어
포착
##랑은
##터는
한마디로
세우고
##총독
골라
그들을
목사
제기하여
돈도
요리를
홍순
##상으로는
우병
시민들이
차이를
##스팅
태도
##싶다
등도
##하자는
##였기
정통
##조판
구금일수
com
까지의
지정된
그리하여
의뢰인님의
복수
##준비
##오가
1975
몰라도
##약의
드실
실내
클래식
옳고
유전자
일괄
공무원의
감기
국민에
##위생
##즈를
해당하고
걸고
최악
그래픽
보호를
남아있는
영등포
경제가
공헌
받으면서
세균
##사단
감정이
시점에
##변을
##돼야
망인이
기억에
최영
방에
우리를
디스크
저촉
번복
심결
양보
무력
아파트를
##축구
강제로
##AS
##재로
사무실에서
제한을
명확히
지혜
가지구
##전기
총회
초과하여
변환
##청에서
도중에
##경영
##받게
기업이
다투는
잔여
##역의
대구고등법원
##신에
문제의
##번째로
원은
쫓겨
##되었음을
유추
학기
정책에
##지나
한국인
##디가
버티
##지점
귀엽
안심
나니까
##마에
##되지만
##계획을
관절
나오게
수익을
##오로
떠난
계란
평안
해운
##어에
##머스
제2심
김정은이
떠나서
하겠다고
현저하게
##오백
분기
최상
##증으로
##이었지만
##라니
된다라는
직무를
##삼년
속의
요거는
승부
날부터
##기본
##어야지
로맨
후계
100만
전반적으로
누워
##성군
제26
이자를
한자
얻게
6년
보물
##순이
175
빌딩
시작해
가이
속상
유권
일실
진술조서
구비
풍부한
사장이
상하
물어봤
범행에
건의
자리가
##출을
후보는
추가적인
예컨대
우리나라는
정신이
비서실
공표
당신은
2면
딸을
탐사
##건물의
말씀해
사태가
김종인
DNA
아이들을
##회사는
세계를
배운
온도
재산에
날씨가
듣겠습니다
오케
이완
덴마크
수감
범죄에
받았으며
걸쳐서
년도
세상이
패널
영어로
착용
##게도
1944년
사안에서
##조치를
##ure
유아
##강의
1939년
나가야
Pro
##은행의
장애인
커다란
제35
제42
학위를
##자라는
##베르크
##세기본법
##옵션
결심
그곳에서
이송
##론에
그때도
##주에서
때문입니다
방송에서
##모로
##라고도
이야기하는
고사
국선
창의
이름의
사다
않죠
연루
전체에
순환
직전에
부득
청원
어려움을
도면
블록
##ok
피해자는
여동생
확인한
그랬어
공간이
텍사
출연하였고
임금을
1위
부부가
회사와
합의에
녹취
포함되지
1919년
##러는
선을
수령한
크로스
김윤
삼고
이처럼
독립된
선고를
제5항
김혜
##판결이
그랬던
이혼을
불과하고
역임했다
논의를
수상했다
약정에
로부터
##분간
미안해
각자의
##티노
강수
공지
순차
##였다는
##과대학
제23
조영
##공제
대학원
않겠다
현직
금액은
죽는
##리아의
ㅋㅋㅋㅋㅋㅋㅋㅋㅋㅋㅋㅋ
밝히고
인정사실
들으면
##품이
매니저
##화하는
충청북도
활약을
##사건에
대학의
옵션
준비하고
염려가
##문으로
손해배상을
대만
구조가
갈음
스승
자신에게
에너지를
되었습니다
자기를
교회의
필요합니다
##하셨어요
탑승
아파트에
가방
교원
시대를
몰수
최일
사위
발생하지
의약품
재발
##가액을
사정만으로
토마토
제14조
생각해서
##시겠습니다
이루어질
마자
수임
의하더라도
##뿐만이
현저한
즐거
##수면
##투스
여기다가
벗어난
주류
창단
##르면
고양이
양도소득세
일각
##강에
만들어야
대해선
##하는지
아니니까
##미한
매수하여
올리는
주식회사의
장면을
##하가
##태가
해보고
헤르
정원
코치
##8년에
고런
프로그래
농담
트위터
논의가
산책
일체
형에
소송의
1956년
##서류
단단
3의
망명
FA
쓰면
##76
##현은
경제적인
다녀오
저질렀
세액
방영된
지지율
형성된
복구
포켓
부서
세웠
##조서의
##불능
설치한
지상에
##론은
봤던
행사가
잡혀
##모의
들어갔다
배웠
타는
않은데
열렸다
교차
일하고
재산상의
의지를
차입
##라운드
##피를
##평에
##운수
1941년
##연구소
적합한
챔피언스리그
##들이다
받았던
뛰고
올라가는
만든다
힘드
##했거든요
6월에
연대하여
김연
토지와
먹지
인문
들으면서
카운티
핵무
옛날에는
유성
제4호증의
말레이시아
동거
재학
적게
통장
##할려고
1969
돌아가는
제17조
발음
위주로
어떻게든
여러분의
소음
##고합
지역구
##사법
##청구의
년을
발레
##해준
국민을
외계
하느
##시민
##공화국
적용이
범행의
태어났으며
달이
수시로
순천
##파로
못했던
일명
친척
자매
테이블
##iv
보여줬
변경하는
되도록
##집에서
이를테면
##동맹
##있을
##누스
기생
죽음을
인정되므로
결혼식
판시한
상처를
너무너무
던져
사도
잔금
측에
1972
소비에트
내장
편지를
감수
넣은
##임의
##저기
##범죄가중처벌등에관한법률
운전을
수준의
김준환
이상하게
세르비아
지내고
고민이
내부의
들으
통산
양도한
##사도
추정되는
본격적인
있겠다
##수급
##혈압
법안
사로
신발
##렬한
작품이다
칼로
고안
미달
##m의
중성
몰려
줄여
영화에
알려주
취득하는
##족이
사항이
##해제
페이스북
##오의
##채권이
##ant
##신으로
명칭은
갈수록
승무
요소가
시작할
당을
너한테
남편은
4인
거라는
##하잖아
더불어민주당
##시켜서
분야에
재활
허용되지
견해를
애초에
쿠데
새벽에
하러
제16조
삼년
##정비법
부진
##인가를
간다고
##퍼드
미야
전략을
연예인
2번
모니
부자
1930년
이승만
보죠
##중개
##왔고
연료
올바
다리를
##례가
##었지
##번호를
고가
두드
##선언
##해의
말소등기
살펴볼
무엇보다
다루는
기산
김인
먹어요
##이긴
착공
걸릴
김부
노래는
한국이
보실
아세요
도발
해줘야
##ov
실력
##서야
##에르
진실을
여왕
온천
신의성
유입
드루킹
채로
콘스탄
##있지
선생님께서
4개의
##지분
뛰어나
정작
제18조
같지
일환으로
폭행을
##먹어
말씀은
채무불이행
기판
##end
간단히
남긴
양산
홀로
포함된다
작가가
사실의
목욕
##제기
각기
안고
##이시
##려나
개발을
인식을
##준이
참여를
하노
##도르
맞을
뭐죠
자문
편지
대책을
동조
##6원
수사에
##ens
네에
방학
군주
현상을
상여
자유로운
대응을
##32
이미지를
난다
선포
허리
##이면서
원년
있네
##ith
##한텐
아이스
삼을
101
것이고요
버섯
의미는
예정이다
상이
잡은
소중한
##리학
##랐다
노트
km이다
겪고
쓴다
에스엔에스
세액을
##투표
엄마한테
모르겠어
정상적으로
현실적인
쳐다
상한
##증권의
파트너
지시에
##네스
말씀드릴
오페라
대학에서
신고한
일종에
끔찍
불렀다
##타가
지지하는
며느리
이길
난민
##리티
속해
시험을
도와주
이분은
크로아
돌고
##등록을
마흔
전액
수신
천재
뒤늦게
##사건의
부드럽
매매를
분위기를
##호에서
##권으로
왕조
##거리는
##카이도
결과로
정당이
원래의
바꾸는
상고이유는
알려졌다
IS
모른다
##필요
##색의
주장하였다
정도만
##보고서
선택한
동화
알레
오라
##부령
##내야
사업연도
살면서
건네
##교섭
1일에
통지를
##대여
##근이
##훈이
맺고
조언
##ld
피의자신문조서
임진왜
즐겨
사실관계를
김승
말씀하시는
공정한
시즌에
데이트
환자가
##프라
참고로
신용카드
카이
본안
##보단
보면요
떨어지
지나면
##들이나
저랑
##관계는
원산
##문과
데이비드
포스트
##세서
##격으로
사용이
섞어
원본
##자들과
이렇게까지
반국가
##하였는지
역이다
편찬
위원님
거주하는
자기들이
없었습니다
의사의
##ome
발부
오징
##마마
176
끊어
찍고
##바다
조선총독
무산
성취
이룬다
죽어
##만호
사업이
목적은
크레
1952년
하자는
제19조
##부장관의
채취
##ae
로스앤젤레스
관행
법원에서
왔던
잃고
메이지
##보지
158
채권최고
##파에
속도를
오호
향해서
건강에
도쿠
애들은
정경
파크
준우
##됐고
기자님
선거구
##들에게는
걱정을
싱어
##대부
##브이
중국은
드리면
##책임의
남았
먹게
당첨
헌법에
전쟁에
동영상
잊지
지키는
동방
##ore
결정한
부모가
##잡고
1954년
##같은법
라고도
제목이
방탄
찾기
해야죠
두루
부럽
시계
판단하는
해봐
##책임이
속도가
수행하는
사용하기
의사표시를
민중
##드니
날에
165
뉴스를
유럽의
##비밀
한편으로는
본인도
1만
광고를
구로
이창
친한
상속세
쉬는
자에게
제한하는
영수증
형은
##거부
의도가
##투를
발탁
##점과
드물
이득을
머릿
횡단
질문에
숫자
신상
##근무
구성요
보통은
레오
조별
##진짜
그러시
1947년
지니고
##우주
등등
후퇴
##은데
그러자
사람들한테
공룡
기자들이
##우에
성공한
푸른
##iver
주변의
거란
놀라운
나오니까
미세먼지
조치가
##기간은
오스만
남양
도메
알면서
음식이
##열의
마스크
없던
판정
##풍이
좋아해
고모
명한
육아
친절
##표시
금메달을
잘생
##두는
스크린
재혼
##행성
발매된
거꾸로
부인이
중계
제38
위반으로
김영삼
개념이
가중처벌
파기한다
나만
##상대
이벤트
제15조
인정되고
사촌
20세기
따르는
온다
다름
##시키지
프로듀서
갑작
원씩
##승인을
제34
대조하여
혜택을
##마르
##일곱
조명
##하십니까
##시부터
종합소득
지나고
이어가
선언을
사회통념상
##여섯
법률상의
주어진
볼게요
##속을
##생의
1개의
철저히
##법에서
항성
올라갔
아가씨
드세요
취득할
##구년
##소비
약속한
##함에도
1968
쟁의
토크
##티오
##침에
제2호증
가량
학과
비공개
조선시대
등기를
##약관
위반의
가졌다
##기능
##준의
자체도
적지
##해줄
타당하다
##리라는
공식적인
나타난다
비주
##iz
현장을
관리처분
들어보시죠
유상증
빅토
주유
무서워
왔을
##ib
##박이
162
도시의
##man
##법인이
##잡아
name5
설립한
계절
##주택의
됐으면
발발
##name
프로그램이
많잖아요
주기로
##3원
보충하는
급제
믿기
않다는
은행에
속도로
믿는
캠프
왕국의
##등한
사무총
댄스
개별적으로
무료로
올라오
역할이
실장
쌓아
예고
후보에
평택
범죄사실을
간섭
블라
세입
시기가
신혼
한의
연구에
##법률사무소
것들도
냉동
처리하는
모아서
시발
##4원
그녀가
##할때
거리에
##버거
궁극
정서
캠퍼
연결되어
폴리
##선택
제38조
상하이
사용자의
배척하였다
있음이
##베리
단독으로
목적에
결의를
많다고
무인
##수표
높고
관리하고
##기사
민사소송을
박지
방송에
계좌로
공정거래
5억
이대로
1980년대
요구하고
##대사
논지
향한
화요일
##공학
페르시아
박물관
많기
##즈니
##EC
##카가
정당하다고
그랬을
보여요
개혁을
마쳤
불만을
양도가
##따라서
국가에서
참가한
사무를
알선
##교도
##키로
##내서
0으로
김밥
##따라
##바지
먹는다
차원
화폐
##구리
저술
아니었다
아래에
##시켜야
6개
소명
달라질
번은
협의를
##8원
가족들이
트렌
##동과
스토리
##구성
활동했다
일차
나중에는
금액의
대표에
인생을
거잖아
##해운
소속으로
뒤에는
##루는
투표를
꼬리
전화가
패스트
20년
##비도
형벌
156
토지소유
##계획에
##4호로
브라운
동종
언덕
호적
원심으로서는
당하고
보상을
실시한
##IN
우리한테
김희
##일날
문화가
단계에서
가지만
자제
##입을
NH
당내
점과
한동안
작품으로
거쳐서
올림픽에
처리를
나왔을
시까지
##내용을
배척하고
말씀드리면
얼음
비판이
총무
지급보증
1955년
막대한
형식을
##더군요
##쟁이
##OR
물품을
##브라
##일리
##외의
##결정의
달리하여
가옥
메달
##이구요
시작한다
경쟁을
수산
##층을
도로를
##감에
##인수
나와야
##멘트
##규정을
딱딱
밑에서
합리적으로
가태
문화를
##기인
##였을
창당
미래를
계곡
고영
내렸다
된장
10억
달라요
일부에
학생들은
사유에
상표법
예견
##계획의
언제까지
갔어요
##IA
##공장
##일까
대한민국에서는
복제
##버리는
##희는
건축허가
불행
천문학
엘리베이터
불쌍
사가
한계가
오피스
##어지고
##드린
궤도
##석으로
##스트라
안전하게
사용하였다
##자이너
일입니다
##2원
짓고
##차량
161
##통일
정보통신
암튼
대물
그런거
장의
상고논
##병으로
행위로서
석방
나서서
크리스마스
반기문
귀책
론그렇다면
차이는
##가니
청구하는
정부와
연세
주전
만성
경찰서
동일하게
온갖
이홍
고교
올렸다
##자유
##하였는
논지도
비극
택배
제20조
이십칠
있으면은
금품을
순간에
의식을
##구청장
##겸피
지상역이다
이분들이
미국을
상주
물론이고
조합설립
시스템이
공공의
고마워
##스러워
골드
동행
손이
데이터를
대회에
일어나고
##토의
Me
근접
오년
측의
엄격한
##구치
기대가
쪽은
##소설
##님을
항목
위법은
떠났
우수한
지적이
없었다는
##버섯
같네요
요하는
##락이
모양이
##88
##것이
적법하다고
저쪽
전단
##작업
두개
인터뷰에서
밀도는
점수를
한명
##담에
##근의
##슨의
##ock
1953년
우병우
결여
놀이
리처
비닐
이세
주장하므로
전화로
처벌이
김구
##제3
항소이유의
보기에
##서부터
여기다
성공적으로
연봉
##권설정
일부로
105
얘기들이
##one
리버
숨어
진행된
청와대에서
당심에서
계통
신부
의외로
평상
##포로
구성요건
수준이
향이
라이트
국민들에게
챔피언십
몸무
차려
강력하게
진로
손실을
마인
##쯤에
분당
나경원
내무
디제이
씨한테
생각한
철저하게
중시
비용은
미네
##질의
##사진
입에
우리에
소유자가
매체
##속의
입증이
가슴이
##메리칸
압축
##미나
##하다면
당초의
CP
받거나
이한
장갑
다니면서
플라스틱
주십시오
보험료
보기도
좌파
해당한다는
젊은이
발간
표명
강연
소문
##노동조합
반가
##이신
판단하였는바
복사
##중에서
1942년
처방
부당하다고
나가면
##age
마이크로소프트
되냐
시간도
골프장
노선을
보리
##리히
프로필
알면서도
##토지의
딱히
히틀
##가인
선거가
소득이
약속어
사원
서기
예정이
특정경제
때로는
외무
조만
하셨습니다
김홍
밝혀진
1957년
##은행이
신주
##기로는
##심판청구
개국
악의
##레옹
##용은
##조차도
색깔이
치명
##처가
집은
커버
##능력을
않았기
대한민국이
거래가
김원
##59
투어
대하여가
##부사
##쿠스
해석이
지키고
과징금
날은
탐구
청구가
특징을
##교가
광업
주인이
독립을
무언
창고
집어넣
승차
##돌이
##터의
방식에
도요
이희
##피해
##받기
기각할
그것에
운동에
여객철도
기록은
손해에
결론이
멜로
##이센
항소비용은
##있던
갖추지
면세
좋아하고
갈등을
백오십
인류
##고추
1967
해석함이
어떨까
있었으므로
했다라고
근본적인
제3항에
##값이
찰스
있으시
암호
많거든요
##미술
발표된
##이즈
##렸어
배우고
특징이
주먹
함락
따서
빌보드
나라는
학력
납부한
##걸로
달고
신청인
##드라구요
KBO
내용도
클라
##감호
##습을
범죄사실에
서술
다시는
가벼운
확인하는
부재
표를
부과처분을
방지하기
드시면
집필
##보건
청춘
##훈의
비치
케이스
초상
한복
##결에
AT
재임용
IC
김은
혐의가
##2호
##속으로
##신청에
한잔
조직을
케이블
두는
했었어요
##조성
거기도
실은
제1호에
가액을
자로서
지급하여야
부산지방법원
비난을
DV
장모
돌이
땅에
##코스
그러냐
1990년대
소송이
##급의
착각
신의성실의
인조
인감증명
등록된
등판
예민
경우라면
부탁드립니다
김포
법적인
##범위에
진행되는
각본
허용될
부당이득반환
나폴레옹
단위로
좋아해요
##빌딩
##미로
방안을
컨트롤
맛있어
나눈
더구나
##헌법
분산
##주의적
위를
충전
##후가
마포
##이었기
##ational
총선에서
##부장관이
##IS
168
믿어
했었습니다
##79
1943년
소장님
##숙이
내부에서
##사들이
필요하지
중도금
약정을
하우스
##는데도
안토
크루
##러서
##졌어
##수원
보여준
스페인의
유형문화재
측이
##동법
선하
구워
저에게
##부분의
요새는
레벨
등장한다
##간이
##ㅇㅇ
양도차
##피고는
김경수
##적이지
영화제
더욱이
죄에
##회원
지방에
선택할
진행할
완벽하게
뇌물을
미수
시킨
어리
편이다
##여덟
##방지
##직으로
AP
##하하
##오를
증거는
적혀
어디가
제공한다
미드필
평범한
수분양
샤를
##두를
##치아
이루어졌
종류가
말야
일이다
##브를
보스
##팀이
145
유독
##지기도
진술은
그렇겠죠
자신들이
중요하다고
제40
손자
운항
주력
해놓고
##변에
재판이
뒤집어
침몰
제도의
한가
발견한
원상회복
밀가루
한계
노르웨이
##시다시피
국물
중력
동생이
##형과
166
##보호법
Se
SS
##BA
시기를
##차별
아니어서
우리에게
감각
##업자
##했다라고
프리미어
##검찰청
원소
치유
##합을
나들
네티
산다
살던
쓰리
##제조
칠레
##혐의
목을
이러니까
MS
사기를
형상
##ind
강동
시장을
You
관람
묻는
피할
전속
조사에
감독으로
유지하는
전한
##우면
##작을
164
바빠
하려면
주변에서
블랙홀
결론은
걸리는
중동
오시
크림
남쪽으로
시진
이비에스
임상
차로
선수는
안드로
이화
좋네요
재미있는
배경으로
만만
마음은
##사전
##체스터
##키가
##규에
다음날인
거나
흐르는
고혈압
책에
제39
인공지
중이던
##박스
Be
광화
장해
기재의
##모리
올라갈
여러분이
퍼센트를
잉글랜드의
##릭스
과제
내셔널
도래
##AM
뭔데
발병
##78
시행된
과거에는
공사의
눈으로
왕의
##tt
서서히
역은
##역은
목표를
원판
지대
##교수
139
여의도
어유
##감도
##법원의
하시는데
견제
필요하시면
교과서
함경
개척
##장관
소송촉진
행정처분
너네
말하며
수차례
##토록
전에도
함유
##추진
힘들게
명백하다
대비하여
이르렀다
아테네
니시
당원의
##으려
기지
대의원
일인데
바쁜
##린은
##란을
##경찰서
##타로
아름답
번을
생각에
증상
환자의
이십이
자식이
##요구
작사
일으킬
에어컨
길에
추첨
##어촌
주차장
허위로
텍사스
정책이
분들을
뿌려
##등기에
##찰을
교향
드린
확률
인정하였다
상품을
대안
제한이
이슈가
on
조그
키우는
판타
부담하고
비교대상발명
Lo
김규
##서비
열려
부인하고
유보
##pp
요구에
대부분을
오십시오
사마
킬로미터
됐든
모로
보았다
아는데
떨어지고
멀티
없음을
선정되었다
인디언
화산
그분들이
몰라서
##국장
##언니
소속의
163
검정
처단
이십삼
##라야
##처는
증액
취할
가지번호
봐라
오디션
##태의
위험성이
매번
틀림
핵실험
깨달
없고요
1965
01
불명
연락주시기
해보면
했잖아
##공사가
부당하다
표시한
바뀌었다
윤석
다양하게
##국과
##베리아
시카고
##있다고
##러리
제5호증의
범위가
##7원
주택의
힘들고
신빙성이
사일
##인정
##토를
어렵다는
일어났다
기아
적대
##시에는
시키고
대접
때에도
나오기
곡으로
##심은
##수지
##드리는
##셨다
수험
다르고
마산
요소를
10월에
다큐멘
채권이
물고
형태가
근거를
급속
도과
있었잖아요
중국을
##증은
가나
없잖아
천구백팔십
것임이
살기
##3호
##편으로
불만
고기를
이선
주시기
##사우
입주자
리듬
##민주연합
수준으로
소주
남편의
못해서
##직한
출시되었다
##특례법
끼고
메리
크기가
##5호로
##더스
##야구
##ast
고백
적폐
중추
공동체
곡이
플레
필라
상황인
여기에는
청와대에
사자
미쓰
##아리
2선의
무고
폭로
휴일
기초사실
인천광역시
비정규
행렬
작용을
되겠네요
사막
치면
추모
되찾
의지가
##공의
가혹
되잖아
위협을
##호텔
그러네
귀가
디자이너
##풀이
비율을
네티즌
##오지
이행할
공매
##상법
가문의
사적
##7호로
조합이
캐나다의
입양
##가면서
선적
쓰게
의심이
자유심
항해
##가치
아르바이트
##ect
오우
##었나
기득
##로마
##데이터
전쟁의
결론그러므로
바이러스
##할게요
굉장한
##만큼은
단축
자인
##테크
성경
아시는
착한
1면
##분으로
##았다는
제22
일본인
##분배
거대
마르크
##미사
##철에
##금액의
##령의
##병에
이곳에
곳이다
등기의
##투쟁
영국에서
당당
고고
안전을
목록이다
군이다
의문이
##31
##폴리스
아티스트
이산
검사는
늘어났
다케
임종
검출
피상속
##타의
발견되었다
바꾸고
회의에서
주요한
서울민사지방법원
##하우
##자본
돼지고
제3채무
경제적으로
##위원회를
최대의
##로만
문서를
제보
심상
##학에서
정치인이다
백악
제시한
Count
고립
어째
여성을
##아홉
##IC
##공탁
사실관계
받았을
##등에관한
논리와
아시죠
피터
이라고도
때를
##해석
드러난
##종합건설
서운
##하였어야
##겠다라고
##거래가
미드필더
시장에서
유지할
전반적인
공수
##회사를
그지
부양
##무는
##사항이
화려한
드시고
명하는
##아래
##창을
있었음에도
##력도
교부받은
아름다
안대
연결이
반국가단체
부추
아끼
##보충
말씀드리고
핵을
우회
적정한
스테이
점도
코르
##ng
지켜봐야
He
법관
원용
천주교
##비한
##레이드
의사로
무엇이
다이아
학생들을
것까지
열람
전적으로
##키퍼
사회적인
어렵지
괜찮을
보조참가
오다가
##구청
##생명
##피고인은
##ath
이른다
보병
##불상
개연
보이며
출국
왜냐하면은
줄기
##재단
이거죠
확인대상
포켓몬
##지정
케이티
교양
때만
병행
##대원
##공시
중국과
섬유
으응
##가지구
손해배상책임을
사운드
새해
본래의
350
베어
현금으로
##방법을
##획정리
고수
불분
씨랑
여수
해리
##국인
폐기물
사각
폼페이
##동물
그러세요
사실조회
1호
##생각
제3자가
부모님이
원자력
됐는데요
팔아
학살
##하여서는
대가를
주시죠
호는
즉각
##편의
만들어졌다
공여
##국제
가다가
두부
포함되는
##우지
농지개혁
3번
원인은
지구의
반사
상관이
##국수
##친다
프로토
##학에
##코올
##크리트
##재산을
지방자치단체의
노스
신랑
가이드
월간
조회
퍼져
##실은
해결을
사채
사람인데
155
끝나면
불거
소홀
오던
자기도
##과정을
개체
뜨거
수천
따라서는
성균
신사
##께요
범한
싶을
제3호증
에피소드
루마
시킬
장이
하버
##고리
백제
식사를
##ust
앤드
얘기예요
근거하여
법률적
##ond
춤을
아니겠어요
북측
##안과
제3자의
교수님이
도로의
번만
제3점에
산재
위약
이삼
적발
브레
##하기에는
올해의
요기
일본을
##렸다는
##존재
거두었다
소규모
저서
대고
재난
##래프트
내서
흑인
이유에서
154
정해져
도심
마그
입맛
신장
타협
퍼센트로
버리는
숫자가
##수에게
산소
열거
조희
##유지
상당하고
파탄
이유불
프로이센
아닌지
년도에
술에
제사
방송이
소문이
영조
##범으로
##중공업
##기관에
3대
거울
추기
##좋아
겨울에
157
조지아
가등기
주제가
협정
##기록에
막고
##종에
선배님
소프트웨
##기자
##주셔서
##실한
이상인
있으세요
그럽
레알
정성
##장한
##방으로
산업재
KT
얻기
가능하게
특혜
##이에른
취득시효
##편을
갔던
##제도의
##수석
범죄가
국민의당
협약
##품의
판단함에
성립하는
언론이
되었을
대회를
등기가
외관
##사관
넣을
성숙
타인에게
##ory
싸우는
입장은
안전한
볶아
상영
파르
폐하
##1원
##회사인
##리라
##율의
없었는데
그전
사내
창출
농협
말만
발의
이용을
백이십
농림
열차가
전도
확률이
##산에서
반대를
##학이
대한민국은
싶은데요
나에게
박용
번이나
많이들
나타나고
하려
인근에
반란을
불문
않나요
##가면
알고리즘
박우
##체인
동안의
출력
##액으로
해석하여야
타이밍
세로
생각에는
취하고
##기나
시설이
상표를
피신청인
개신교
##현을
1966
얼굴에
프레임
면치
보시겠습니다
과잉
파생
나타내
상대방을
에드워드
장기간
상당을
프랑크
임의의
신임
한달
##더라구
질문이
##금액이
##대구
##학은
##총회의
완제일까지
##규정이
사단법인
시위를
프랭
##화재
##aw
행한
##박을
알아보
않더라도
차는
대표자
골키퍼
포트
##사이에
보강
상기
않거든요
##온다
##저작
도시이다
그전에
소매
##서류를
아버지를
Sc
무소속
번호는
있음은
##sh
##시스코
##9원
데뷔하였다
일일이
직원들이
152
이라크
3층
당좌
태양의
적립
167
특허발명의
피로
한다라는
바이올
성의
##베스
변경을
가니까
사업연
회사정리
소련의
발로
차관
요거를
학교법인
보호하기
집중적으로
어떨까요
전무
휴게
어려움
비유
지능
##비디오
2017
무의
제21조
##시간에
일시적으로
제3자에
이걸로
구사
사격
아바
##하였기
소리야
##진과
##해서는
존재하고
채권자의
모양으로
명나라
국제공항
부당하므로
완벽한
마스터
지표
특성을
##판은
유가족
가한
인정된
기반을
데다가
향토
한국을
라이프
그보다
출동
장을
##나물
##길에
대응하는
아쉬운
진정성립이
장차
변론을
산정함에
이온
입는
##였거든요
##나가는
부담하게
후쿠오카
루이스
전까지는
##발행
교육이
모양을
미스터
서정
##디에
시진핑
어려움이
Co
많으니까
보태
##야죠
형사처벌
구성이
도구
##디움
친구는
부담하기로
빛을
파기를
해명을
필요도
제364조
모셔
성추
##지이다
##학규
손해배상의
석탄
##불을
프로그램에
밀접한
화이
##봤어요
선수를
상표의
바이에른
200만
진행한
수업을
##로워
##ood
초기의
##세액을
##곡이
감독은
전쟁에서
##란의
포기하고
군에
대폭
주인공이
납니다
##리시
##교육을
내게
재수
##9년에
근무하는
유재
은근
지급된
한겨
##ack
가가지고
##계열
민원
파업
루트
##mer
미흡
학생들의
##돈을
자동차의
피하기
상당하는
설립되었다
8월에
ㅋㅋㅋㅋㅋㅋㅋㅋㅋㅋㅋㅋㅋ
##밀히
스프링
같긴
만다
이즈
##디는
살게
전복
##로우
##라와
##재산에
당분간
여권
문제와
개칭
예산을
##동에서
##현에
적절하지
거랑
군이
내리는
뉴스가
이사를
상태입니다
당원이
말았
선제
점유를
##프로그램
백두
##문에서
해석에
플레이오프
동아리
가마
변신
순수한
웹사이트
타이거
바이러
놈이
자이언
##도급
##적이라고
1936년
1910년
미스
투여
##확인을
기타의
예에
##생산
왜냐면은
도로교통
4대
하필
벼슬
##유공
##슬링
준비서
올림픽에서
생각하는데
흔적이
평가할
기관이
일으키는
##수리
##말고
##매입
##배가
##모는
아이디어
게임의
힘들다
##전도
##ug
원고들과
채권에
단어가
##보로
이론을
마다
입대
바나
소가
옹호
제1회
125
배우는
쪽에서는
##케이션
시리즈의
경료한
##xx
배제할
광장
드러났
분식
있거든
적을
##가시
##교는
피고들에게
위상
초기에는
골목
김장
명문
진단을
싶다고
응시
##카드를
얘는
엉덩
인용한다
##레스테
##까봐
얻지
청구의
운전면허
##69
건전한
병이
삶에
올바른
내리고
해발
##레나
##씨앤
##슨이
공이
되었다는
첨가
감히
##타임
행사하는
서울중앙지방법원
##타카
##애를
부분으로
예로
인원
전염
##왕은
하였던
이십팔
요구한
1938년
앞서서
희망을
DVD
단어를
동경
##외에
금지하는
신입
정류
확정되었다
거면
침범
가계
##께서도
유의
효력은
언급을
영화배우이다
교부한
성폭행
김옥
북쪽으로
있겠습니까
##할수
부천
붙인
유포
##니와
##리안
사회적으로
김영란
가설
준하는
클로
##경까지
프로가
배상을
재화
이사회의
해주시
관세법
맥락
반지
초순
##공사에
환승
##용지
것이거든요
명확한
강아지
##기계
가다
대상을
##이치
자체로
신청한
받았다는
8년
남을
할것
##린이
##검사를
##ary
##위원회에서
맘에
1951년
오게
##과이
학생에
##리케이션
공장을
야야
강서
1970년대
여사
##셨고
##레는
##됐을
##팅을
상고이유서
실시된
##조치법
꿈꾸
안성
정할
##일년
##나지
오다
재건
제33
틀린
에스케이
학교의
점용
##병의
나타났다
공소시효
요구되는
양측
저건
포털
##막을
있는지를
내세워
저걸
##속에서
학교가
장애가
이익에
문신
블로그
증빙
불과하다
관리에
두지
고장
시부터
중요하게
떨어뜨
제재를
##님도
부가가치세법
말까지
##왔어요
가태요
하였을
당심증인
스파이
와요
전액을
지출한
##린의
제1의
##화하고
진행되었다
##거래를
과도한
##루의
##신청서
나어
서울지방법원
초록
##원장
대답을
모험
키가
##버려
##약한
것이다라고
제50조
제6호증의
위안부
쓰기
피자
##대신
##해볼
##km이고
가와
있겠네요
정을
##서양
넓이는
##임수
##해보상보험
않는데
했었죠
처벌할
대포
이체
##건강
남해
상응하는
이치
장점
이름이다
바닥에
무대에
웨이
##주시고
얘기했던
차량에
생기면
충북
##가에서
제3항의
내놨
증축
##ial
티켓
##듭니다
미용
발전에
스탈
만나면
재산분할
신청에
사례를
도피
소결
후보자가
보라
##무의
##직이
안쪽
벌어지는
나누고
시작했고
스리
나갔다
카라
경우에만
군사적
않냐
에르
운영에
올릴
유연
##졌지만
##지마는
임대차계약
제의
151
경계를
엄마랑
참여했다
관련해서는
##인데도
요구할
바라보는
노태
안에는
##리우스
##었으면
지급되는
이십육
아래의
여겨진다
보시고
이르지
누구를
등장인
소론이
인식하고
임야에
부의
테크
##영향
올라와
있더라도
##셨는데요
곤충
##부분이
하잖아
##액에서
근저당권을
편이
삼은
설명이
숙박
##취지에
말씀하시
부끄러
사이를
##나봐
있었다면
부유
##감은
##책이
##파일
대항할
아이들은
승려
##겠냐
##데르
명칭이
당했다
##안에서
##학교를
실체적
10만
가신
추방
아닐까요
호수
3세
##션을
##남도의
##리그의
송진
영주
누구도
벌어지고
최우수
다루고
측에서는
##신저
선수들
동지
##식에서
##감사
##경으로
##다구
##불법
통화를
가루
##사리
은폐
사용될
의미의
135
떨어질
편의점
선동
##키의
한중
대한민국을
구름
드셔
모터
유고
맞추어
쉬고
지방선거
제정된
백화점
생강
##체결
문제라고
##법원이
보여줄
산입한다
전라도
##니를
대지를
법학
##되지는
소설을
이곳에서
남기
떠났다
무선
입국
제27
아메리칸
삼십일
CC
WW
위기를
배분
인력
집착
잔존
정리가
##환은
##봤는데요
al
설시한
끌려
##추고
고리
보험금을
취소할
가족을
반환할
노릇
요번
##든요
종사하는
수단으로
##사상
Ma
캠페
주민들의
등장한
AFC
김미
나이트
비즈
##경비
취득하게
하고자
##받았고
동구
전격
방식의
알았다
발생하고
어떠세요
인스타
일원
##공산
##혜원
제2의
특례법
그러니깐요
패소자인
스트레스를
저가
테마
하려는
##보의
##셨나요
지난주
사법경찰
Pr
석사
저러
상관없
전동차
교육에
보여준다
여성들이
가져다
갑제
육성
원심에서
침해하는
##가야
##봐도
이상에
구청
역전
즐길
##리며
하면서도
장관을
누군가가
기자회견
임진왜란
달린
피용
##버리고
##콤한
남겼다
불어
정당하므로
역사적인
서울의
1은
자영업
전원합의
불구
유죄의
풀이
일반적
1937년
제31
##조합의
##됐다는
경찰의
사고의
County
##오스
##타고
졸업한
회담이
음음음
##계와
##클리
영화로
욕을
초점을
기록되어
게임이
자택
추후
단행
박시
놀고
십자
##관찰
##긴다
올해는
2로
됐다는
입었다
크라
SP
감당
##보살
조항이
히로시마
##평화
의원도
조문
좋겠어
##생물
##됐는데
해석하는
##ㄱㅋㄱㅋ
보스턴
불량
##진영
119
나타낸다
등급을
시급
장소를
그런데요
수입을
30년
타워
다닌
장소에
너랑
듯이
##ric
##령에
아니하며
구미
아인
##천의
적용되지
기밀
비단
한나라당
공사에
타입
생각한다
##행위와
출연하였다
습관
주행
주석
##68
##츠의
준비했습니다
보유한
저해
제기를
##녀가
않았으며
했었고
중심이
다가가
생선
지사가
하셔서
성질상
##인지를
알기
##했잖아요
참여하는
라이벌
막는
##등은
제1호의
오늘에
변호사와
원장
한상
계속적으로
앨범을
그밖에
##기소
##애가
심신
하우
##하였음이
제목으로
멸종
거주하고
프리드리
불편한
##원에게
##ID
있습니다만
모습은
엄격하게
양을
1918년
##지역에
못하도록
유신
놀랬
못했고
##건은
적당히
갈색
작전을
즐거운
그랬잖아요
종일
주시고
##자리에
업무방해
자유심증
프랜
사랑이
마이크
아시겠지만
불확
크지
##위조
어두운
법은
여당이
상당인과
수준에
들리
클레
##상담
분자
사우스
음모
##코프
사용했다
공화국의
##글로
기간은
##상태에
감리
##거리가
가까워
높다고
열매
해본
의하지
남극
인도의
학사
##무역
아니하면
##하였습니다
예상되는
사실오인의
Joh
개량
주권
172
아니하거나
수사보고
##니깐요
압박을
보살
볶음
줄여서
##셨네요
12월에
Su
권위
되었던
섬의
정세
날개
##일지
들어가야
질문자
닥터
바지
본다고
필요하고
충격적인
개명
글자
되네요
배울
총장이
어려웠
붙은
##작으로
2018
공개적으로
마법
정면
##철은
대권
인하
주채무
피난
##ont
1960년대
손실보상
th
사육
억압
##비트
##oy
이어져
할머니가
다진
153
바뀌는
듣기
레몬
지중
칼을
쿠바
##엑스
명예를
##레스테롤
##직할
146
투기
##반을
소송에서
부동산이
지켜야
해태
##불이
주민들은
그중에서
달래
##쓰고
상당하므로
일어나서
융합
이오
전성
대통령에게
몰고
환경을
커뮤니티
전입
체류
타인
##MS
연휴
##경과
##전용
제1항이
174
빠르
추천을
차례에
척추
리처드
더더
소액
##크래프트
사정만으로는
강을
김여
조상
주위에
주셔서
생각하시는
완성된
원장님
커서
##군에서
##지대
##느라고
##스럽고
남겼
전투를
아트
지원이
169
##명령에
별이
역사에
이후부터
여기저기
상고이유가
전대
공개가
비교하여
##기준을
사안에
이대
제약
후보의
인상을
근무를
왔다고
##미르
안산
체제가
남편을
그러던
제5호
##에이치
삼만
##지상
##정신
##표는
103
등급으로
##부상
살아있는
갖는다
숙종
약화
##시간이
크로아티아
대지에
오리지
질량
내년에
니네
3월에
##히지
격파
오를
정권에
##값을
별거
최신
##변동
선물을
역에서
##피가
##재개발
도지
동굴
##장면
##숙의
발견하고
다리가
염색
##ire
##찌개
계층
고가루
김문
아시다시피
##지노
##브로
이사장
2주
늦은
병원을
##분하여
##전선
##증거에
날을
읽을
털어
차고
참석한
양심
행하는
HD
였다
고구마
많았다
문자로
아랫
옳은
재무제
요양급여
지옥
보험사고
통상적인
동참
##탈의
name6
프로그래밍
Ph
게을
두어
적당한
밝혀졌다
캐스팅
##피의
결정은
뮤직비디오
감찰
마요
정진
클린
##예금
소송총
하였다면
존재가
대구지방법원
경에
윤관
전승
정년
스트라이
토론토
모토
배추
안희
학생을
사해행위
보육
육백
전국에
특징이다
타격을
##한지
성능
스톤
접한다
존부
##비나
##채권은
강의를
즐기
1개월
갖춰
식에
약물
##렸으며
거래에
##복이
##빨리
남아프리카
불러서
새누리당이
2심
수상하였다
##으로만
앞으로는
##AC
계산을
산화
주면서
##했었다
동대문
박스
안을
상대방은
##반이
##풍을
아니하였다고
그럴까요
비공
##미디어
사야
선생님은
Te
알겠어요
##판의
##특별자치
여유가
##어에서
##악한
##lan
이천이십
경험칙
제29
격려
##족을
149
고성
재즈
처럼
표현하는
대치
##등기는
가세요
생명을
피보전
##미아
금고
염두에
##son
##범에
##쇼핑
무엇보다도
선원
##시게
##마리
경영하는
증여세
자동으로
말소를
내용들이
100분의
##같은데
1932년
가수이다
내면
박주
기숙
추계
##득의
##재결
상황으로
모니터
뚜한
보행
오전에
##노스
제기하는
전자금융
##러드
자본주의
가령
사생활
조경
##하자고
선량한
##해양
새마을
##텔레
##금고
##ence
소요되는
하야
받으며
장미
##코의
담당하고
성직
파손
##다지
제24조
과태
동쪽으로
해당되지
조합원의
차례로
손학규
##축을
사고는
발생한다
그만두
구속영
어마어마한
뭐였
오락
유배
종북
이름도
라스
##블리
거느
먼지
영원히
중에서는
##프란
##인지는
이전부터
불과하므로
오인한
750
비박
성형
짓는
이미지가
말씀드렸던
정봉
무엇인지
깨고
입지
주머니
부각
북극
##근을
메모리
잠이
##종일
파기하여
##ide
불렸다
역사는
##여객
내릴
전담
##었다가
나오면서
손해는
이어지고
공산당
대표이사로
##왕을
은행의
누적
경제를
제89조
##4호
##토지에
둘러싸고
계엄
알라
있어가지고
들어가게
사랑해
해결이
운행하는
관악
오렌
유흥
##전에서는
성행
##제출
제4항에
올스타
그러냐면
아니라면
기재를
간과
넣으면
방안
제압
때문에요
교육의
대변인
모인
아니더라도
지나서
1914년
농어촌
할수
##어리
얘긴데
가난한
깊게
시조
함이
새정치민주연합
먹으러
강성
고도
못하면
압수수색
없음
줄을
##티스
##이었거든요
대통령령으로
성장을
##부정
다수의견
전원합의체
450
목이
##이에스
님은
직무에
물질이
##금속
##중국
위원장을
핵심적인
신생
계획은
그녀를
구성을
장인
고등학생
혐오
지정되어
발언이
등장을
밀양
범위는
뭐냐면은
돼가지고
선대
요청에
명칭으로
한신
##려구
대표적으로
선수단
서쪽으로
욕심
##것을
레인
살다
##시리즈
부족하다
인물로
게요
급하게
보나
##언이
책임은
명목
무상으로
부총
서울지방
##거리를
##절도
소유자인
무효인
주시는
최경
콜레스테롤
신청인의
않는다면
패소자가
편의를
표지
경력을
시범
##된다면
달리하는
제2항에서
제출하지
로마의
오늘날의
당하는
튼튼
규정하면서
자신도
갚을
범인이
오성
##현황
사랑에
일주일에
피가
##초를
##크스
분야의
선출되었다
유혹
이봉
##장소
##작업을
영향으로
누군지
자산의
선교
##카는
##올림픽
##링을
Wor
아드
전산
##명의의
##바람
고집
죽이고
##사건을
##신데
진심으로
답이
동창
사주
확신
1935년
##상태가
양도담보
나들목
Inter
##요건을
대승
전진
한국은
##되었습니다
언론에서
김성태
피를
##비율
##침이
가능하다고
게이트
앞뒤
메르스
원고로서는
경찰에서
공급하는
신당
##명령이
되돌아
들고요
봐서는
불상
불필요
##하더라고요
##데이트
##독립
조금은
##pe
상고논지는
개찰
##75
균형을
외상
ST
사안을
유진
이별
300만
토론을
오토바
그땐
기무
알죠
##OM
편에
있었으면
지연손해금
늘어
무허가
세게
만기
##야의
##재는
##숭이
효과는
갖지
과실상
국수
기하
필립
안경
##병호
생겼다
강남구
Sch
용어를
##이익을
##업자가
소유인
사유는
부르기도
보상금
물러나
제28
사고에
발견이
수원지방법원
복음
원로
##졌죠
은행이
##사람이
버튼
전상
인정된다고
포함된다고
표시하는
글이
반포
##아르
##개정
이유와
그려져
##파와
##명령의
같지만
이용훈
출원상표
JR
전향
하던데
##손으로
171
##지니어
1명
씨하고
##변이
따지면
지장이
표정
재항고이유
감지
눈물을
해왔
##몬드
##스트를
1주당
강신
금메달
마음의
본건에
노동조합의
김석수
빠지
##하십니다
발생하여
미지급
종속
##제도를
고현
공적
이러다
만나보
김용준
하반
##는지에
##록을
##조건을
제22조
스스로가
선박의
심리미진의
Par
다뤄
법률이
고유의
클리
사건본
원주민
##중이다
연구가
##줄게
ㅎㅎㅎㅎ
메가
열쇠
찾은
휴양
중요하지
대학이
달라진
스카이
작품의
알면
##으시고
##ft
##롭고
홈런을
##바와
##카의
마누
빌리
##했고요
참가인의
시그
전전
##구획정리
조직이
바꿔야
김남
평화를
##연에
##회의에서
듣지
중학교이다
없다라는
여부와
방식은
심각하게
##물이다
##석에서
아래로
1933년
언니는
##금액에
오카
환원
고조
제척
Car
채무가
달러를
##플러
##상한
특허청
엘리자
상정
##사채
1963
생략한
이일규
마틴
원형
이후인
의원들
연평균
싫어하는
값을
무용
무기를
이공
관련해
성동
106
해결하기
##건설의
이끌었다
비서관
머리에
하네
부담에
느끼게
도합
유지를
크리
##취급
##중은
들어야
공구
시도를
시장의
보관하고
단호
염려
성립하지
원내대표가
나야
아들은
정조
##원리
가격으로
노력이
재보
##상도
##훈은
가족의
용도에
##군에게
감싸
것들에
대칭
말구
해줘
##일자
기각한
cod
##지배
나타날
죄송해요
목에
##주년
체결하였다
비교해
수상한
03
or
비영
##정상회담
사문서
싫은
토끼
활동은
시원한
광명
전방
주제를
제4호증
모의고사
극단적인
천경
##위배
제품의
분쟁이
갔어
가져오
화재가
대화가
인테
준다고
냉장고
아이의
나누는
##상환
제출하여
넘어갈
의식이
##팔백
사랑의
중심에
사태를
수렴
##이닝
동아시아
박준서
즐기는
떡볶이
##우기
앞장
폐업
점유하고
연동
이익의
광해
본인들이
여기도
항공기
##세한
제26조
스타일이
아실
전작
102
개에
만화가
뭐랄까
브이
엘지
##힌다
아니하다
1924년
변제를
두산
115
지킬
##자였던
참가했다
기차
봤다
파울
##감하게
##항에서
##판결의
일본어
##조의4
북핵
##작가
배만
플랜
##ES
##반의
김소
두꺼
오류
가격에
원인무효
부상으로
##조참
교수로
받으실
정재
##트릭
##ris
##BM
##었는지
역사적으로
더욱더
##건에
선고된
이해찬
02
부동산은
9월에
택지개발
8개
시술
실장이
않으니까
저번
##동기
일이야
초등학생
양형부당
별도
삼사
잊어버
##화할
판단유
서울로
240
등산
기록하며
비난하는
Wh
근저당권의
문자가
이돈
정상이
##합이
것보다는
기회에
##뉴스
준비하는
##채권으로
친족
##부본
##권자의
지역에서는
설이
웃기
하든
했느냐
메신저
빌린
시세
피해자에
기호
죽이
검찰의
성립한다
1934년
밀리
질의
##성이나
그러잖아요
사라진
수석이
수취
##바퀴
소원
매매계약이
남자는
싶었는데
일만
확인된
산업재해보상보험
불평
추출
##인사
##법원은
360
재물
##음과
아마추어
가족과
싶으면
쌓여
영상이
팔레
##원심이
##학회
##소스
게임은
신고가
법정진술
배수
##료에
아니한다는
정치인이
##가산
##주도
4월에
외곽
##싶어
바르셀
OS
그러니까는
발견할
성공했다
부분들은
혹시나
감금
발주
##츠는
대하여원심판결
말씀하셨던
이영섭
싸움을
통틀
특급
지배를
문장
보석
보고요
요로
제6호
연관이
이복
##보면서
##개선
받았으나
상세한
프리드리히
사양
이야기하고
##네이
##때는
##막이
사연을
시점이
작고
방위세
드럼
마쳤다
112
##스티벌
나서는
##토가
##곡은
아직까지는
대학교의
심심
##타마
##작성
한편으로
사기죄의
채권최고액
사후에
토착
##창수
행정처분의
이장
##자키
있었고요
신호를
일기
입어
풀려
합의한
문화적
그곳에
Man
평당
##버렸
도는
죽여
콜비아
흥분
##벽을
지나가는
게임이다
과학적
역임하였다
사로잡
논문을
요인이
정귀
태조
공동상속
접근을
자유심증주의의
무척
##놀이
##tive
1928년
박우동
저널
필름
##결정은
보이므로
비롯해
레지
##절로
아이티
예외적으로
##결승
추운
나왔고
서브
용기
##권자인
그렇게까지
##사실이
##연은
##안군
##land
결론에
지속적인
온도가
지각
취사
강등
시속
##ive
##남이
여자친구
갑질
아깝
초창
##단위
하나요
또다른
티베
기본적
##거같아
어려우므로
이특
함께하고
면허를
관장
섬에
##감과
##니오
##해온
상대식
미래에
옆으로
##ah
##슬라
김주한
벌금에
##씩을
조직의
장려
한국에서는
설명해
쌍용
찬양
국가는
제7호증의
경험의
개장
몬테
##대상으로
건강하게
나고야
7개
Col
외형
##취를
##꼬리
##라고요
용어는
적색
##베이스
##청구권의
연습을
양회
연수
진격
특단의
##라기
##레가
고르
길어
대입
대지의
식량
공동주택
##니즘
현재에
연쇄
찾지
성별
##한도
##붙여
광주고등법원
비과세
요약
히어로
##하곤
##월드
출신이다
##사항에
##필지
있었음을
돌아갈
이외에는
##당시의
경제학
ㅎㅎㅎㅎㅎ
과정은
발령
지급받
되었으나
비교를
내일은
소지하고
##해에
##김영
개인적
누굴
비정상
일간
##방식
147
자료에
넘어가는
말씀하셨는데
군산
레닌
먹어서
탄수
##프랑
##내용에
사설
없네
외모
##염이
엔터테인먼트
평일
사망에
무엇인가
생겨서
기동
산악
조선시대의
##ivers
##시나
##화되고
백지
불만이
전교
##부도
##루미
디젤
우익
지점에
##드렸
놀랍
도출
내에서는
반증
##분석
##겨서
##볼까
되거나
왕조의
위키
인턴
##두가
무시하고
Ad
무겁
센트
##열에
핵심은
거요
섭섭
화면에
도시를
설정된
노는
쓸데
매매계약의
판문점
날카
재고
주파
처음엔
르네
옮기
##수탁
교수는
논란을
전략적
애플리케이션
141
인접한
박만호
얘네
주를
이해하고
판매를
##택시
작업이
AC
감축
김학
대면
있기도
인공지능
시기는
토지수용
기름을
등록상표의
미주
주자
##시네요
출전하여
되다
안가
커지고
호박
##수인
서울형
1962
표현한
##범죄가중처벌등에관한법률위반
그랜드
호기
이르고
공평
해봤습니다
##제작
금액으로
현실을
든든
##IT
야생
하인
알려지지
시켜서
신념
충성
##였는데요
##폭력
아이스크
증언은
필승의
교차로
웨일
108
제2호에
와가지고
지주
국민적
친구를
구치
보수를
사정은
##월한
##봐서
보건복지
군대가
직후에
아내를
제3항은
My
싸워
장치를
##규가
국세청
좋다는
##놓는
##대도
중장
했냐
##파크
##산물
##저께
##iss
자료로
채택하여
반도체
상급
팔고
##의료
##겠구나
##봉을
정치자금
대신하여
권해
먹었어
야채
심리판단
자세하게
나에
유적
테니
효력에
##치오
하자고
예정입니다
개그맨
##질환
##페르
사실입니다
##미에
답변이
우라
##PS
변경이
평가한
신이
싶었던
그것만
단체가
##드려
오해를
관계법령
지난달
침묵
항구
##코는
##이라니
판매한
구해
정의당
신속하게
빛이
##ma
##산과
결정된
지자체
이쁜
인수한
학자
원고들을
도착한
드래프트
##테이너
성균관
상소
화면을
##일으
여학생
2019
하시면서
승용차
대피
해수
분명하다
유가증권
성북
없어진
인연이
받기도
주셨습니다
##의의
##있어서
같은법
대표도
##사유를
드는데요
##킬로
생각하시면
비롯해서
미워
의류
##투아
신문에
정윤
아이는
내국
##수이
##사나
생각했는데
11월에
가져온
살아가는
꽃이
안된다
와우
쪽을
특유의
128
##0년에
##ase
유력한
감경
불출
입체
했었던
자신과
구상금
낫지
운행을
정우
탐지
파고
##이었어
1964
전원의
헤드
##통지를
생각으로
입단하였다
드래곤
어색
##드라마
##조례
제31조
##민족행위
피고보조참가인
관리가
원조
##65
이십구
5월에
개념은
김상원
유나이티드
##자연
##디의
조심해야
여야가
가라앉
걔는
경희
박경
조세법
##시대에
합니다만
유효하게
조만간
신흥
144
방송국
감안하여
사제
하라는
반출
않겠느냐
일이라고
##지죠
참여할
##지역의
사안이
2만
5인
변상
성사
진흥
취향
##장군
##직에서
##밀리
밀고
변화에
되겠습니까
배급
싶다는
억지로
클릭
##반에
북아메리카
생애
시끄러
접하고
##과정에
세계대전
모델로
생각했던
소송은
##시간을
움직일
생활에
3회
계시고
영화에서
알려지고
부과한
##테스
일으켰다
간식
마시는
실려
제네
##공신
지난주에
New
최악의
시트
우아
##선생
##디를
곳곳에
도쿠가와
##ton
금융감독
거칠
국세기본법
단절
원만
인터넷에
급격히
##하우스
##부문
##봉사
인구의
의문을
찍는
착륙
바이오
가집행할
뭐하는
##종이다
지금에
종교적
김형선
야당의
1부
살림
예상을
자유한국당이
국선변호
탄소
때문이라고
한국과
기다리는
영토를
내외
무면허
뭐든
송파
148
운동은
설명할
##부담금
맨체스터
##지니아
##공정
2세는
놓는
랭킹
빨래
엇갈
음악이
유럽에서
세워진
동인
은닉
주방
장관은
윤재
##시절
정귀호
##자문
##너지
##하였다거나
불법행위를
작가의
쌍방
피씨
정당의
버스를
실검
영어를
전력이
지갑
##색은
##세법시행령
게르
업데이트
열세
괜찮은데
때까지는
많다는
응하지
처인
##했으니까
표시된
들어오고
살았던
남기고
천체
비즈니스
낳고
빠지는
연결된
##ㅠㅠㅠ
그림이
수긍하기
차장
폭격
##비히
스케줄
같거든요
당나라
영장을
추인
받았어요
가격은
가슴에
높여
##하듯이
##우니까
##광고
거쳐야
서경
##시니까
##치와
부탁드릴게요
##ass
어어어
언어를
일본으로
연구하는
최저임금
거슬러
압력을
어드
여자를
##커가
결혼한
벌인
토지거래
2개월
같다면
모은
##이었는데요
30경
도로로
현존하는
개업
관해
수동
조립
홍성
##셨잖아요
엄마도
크다고
들어가요
중심의
명단에
입증할
##한의
##닉스
##ED
제3호에
생기게
서대문
##론에서
220
구호
김순
산정에
최태
일본에서는
수입이
형사고소
비중이
파키스탄
##오나
전국적으로
실용신
사대
생각하세요
대표와
고스
수행한
임야를
이쪽으로
##판으로
##까지를
이유도
##은행은
환경이
동래
영역을
한데요
##호에게
꿈이
학업
휘발
힘으로
##보통
변제할
먹으면서
약혼
잘할
차액
##mp
연상
이호
한번도
##족은
외국에
길고
조선민주주의인민공화국의
산에
없구요
거북
너를
씨에게
138
플로리다
길이가
##ime
##왕후
##98
활동하는
적용한
ㅋㅋㅋㅋㅋㅋㅋㅋㅋㅋㅋㅋㅋㅋ
출연한
실패한
수당
심사를
하셔도
다르지
임의경매
5천
본토
좋겠는데
병을
팀장님
필요하다는
##소송대리
삼십오
500원
데스크
들지
야스
운수
##커스
채무에
싶네요
배우자
소중
104
##상표법
법정에
학생은
경사
버릴
육천
일정을
##형태
모니다
수평
줘요
##민주당
동치
배기
영동
파면
##외선
문화의
관여한
##보내
제42조
그리스의
오피스텔
밥도
피해자와
동법
우선은
재량권을
알코올
##플로
사실관계가
두드러
패키
##강도
불가리아
사령관
미시
사람인
낳은
로렌
유익
진도
콜로
유태
##억원
##반응
들어있는
프로그램의
비교과
기초한
규율
냈다
경우엔
어머님이
급한
##크와
블라디
AM
노선이
숨을
##성한
##할까요
방화
하와이
##sp
##서에는
시작하겠습니다
행동이
리드
이임수
줄이
##지다
##었고요
사업주
채권양도
기업에
공격하는
Ex
싫다
오타
이긴
칼리
##레를
그래두
7월에
배서
##범위를
이주대책
WWE
국외
부통령
##했나
가정을
##스런
##산군
사람입니다
136
대구광역시
뭐냐하면
스릴
영업비밀
##감면
##손실
##주의자
스타디움
SC
맡게
조합은
징역형
드네요
부분들
강우
않으나
##슬로
어머나
상호작용
위임에
자격으로
돌아오겠습니다
근로기준법
싸이
##성에서
##카를
기초하여
진동
제수
이천십팔
물리적
비영리
기왕
면직
올렸
##버리면
눈물이
본형에
18세기
이천십오
이따가
끝났다
북한과
1931년
불러일으
알어
이소
주소를
##건가
##상실
##ert
요코하마
묻고
##전략
바뀌고
부위
증거들
Br
미국에서는
주주총회
품고
##려면은
##공간
폭력행위
디엔
##한을
아내는
가사를
대에
본명은
##욕을
동일본
##olog
최소한의
기어
망인은
편을
알아보겠습니다
조언을
아니하였고
142
디즈니
이마
000명이다
여론조사
2가
저두
퇴임
##설치
근본적으로
길로
예의
##보게
식재
했어야
109
##시설에
예쁘게
공직선거법
동성애
##신경
##범죄의
찾아야
10여
없어도
부과하는
##일과
업무의
2호
가죽
대상에
팔천
설치하여
##대상인
428
백인
플루
부과처분은
분입니다
인명
줄일
##디스
제25조
무효의
나을
더하여
취지2
ch
시시
오셨어요
장거리
적고
그런가요
성공적인
열었다
지정한
##통에
크기는
말하지
##민은
장소가
##할만한
##히게
그렇다면은
국한
전부에
##연하게
사실심
루마니아
두세
등으로부터
분인데
할당
회사에게
변경에
방북
슬픈
천사
##노조
이적하였다
주체가
중과
지질
표창
##비시
방법도
긍정적으로
안대희
최병
해를
모르는데
1925년
계좌에
##연구원
죽자
참기름
##청년
어쩌다
##들여
청구원
적재
##어가지고
화이팅
1시간
들으셨
맞춤
부풀
##주차
##니에
##갔고
나항
뒤인
##정보를
대마
품격
했단
사업자가
부당하다는
출연했다
보기엔
오징어
계쟁
져야
하사
##ile
##하시어
그다지
메세
생생
##처의
포함되었다
John
늘어난
외부에
제자
##등으로
##소수
##ck
이어질
증권거래
마셔
어나는
일들을
거처럼
관통
표정이
소유로
이유없으므로
단일화
##운송사업
소나
알리는
##러의
도시정비법
제기하지
친일반
공권
복용
오메
##준은
넓게
만두
제대
##티가
127
근로자에게
나눠서
흐름을
음란
이거에
발생하였다
희망하는
뽑는
동국
멸치
목조
박보
종중의
정도까지
수행할
같으나
##하루
##베르트
구조로
이곳은
생리
속하지
빨라
탄도
##들한테는
넘기
당근
먹는데
직선
체력
카자
일본군
국민에게
밤새
서독
하였으므로
힘들어요
공략
##ies
##곡으로
##이었을
비잔
##ET
입각
환경에
비스
##불교
공동정
##대학원
편리
합치
##한이
##라미
##정당
##결과를
미국인
통칭
피해자들이
활동한
소재로
맛도
페이지
풍속
Bl
000명
이십년
연구원
성립할
에너지가
오리지널
사용해
Cl
맛집
진행합니다
4번
당국
크기의
확인의
회색
##할인
##행위로서
IP
논지가
선이
파일을
##님께
제28조
남자친구
codice
인정과
의도적으로
도사
어트
괜찮다
레이다
무리가
인데
추대
##익이
##상공
##강제
##놓을
포기한
배만운
노역
도시는
액수
인건
수사기관이
그럴까
소식입니다
있군요
##분과
##쓰는
설치하고
미사일을
대표이사인
오가
위생
표시를
질서
현대의
##했었는데
리그에서
뜻이다
에버
##세트
오바마
오늘이
나가지
분양계약
이의신청
##순은
오늘부터
그럽니다
보류
빠질
서북
조치에
물은
##며는
참가하여
임대차계약을
엔엘
혼동을
못하
대상인
제목을
관해서는
김신
정한다
1922년
늘어나고
론그러므로
번주
##질서
##00만
기록하고
결의에
라며
이유없어
1일부터
거가
경부
일할
얘기하는데
1921년
인물을
스트럼
저자
코로나
##모르
##되었기
억울한
배타
##사고를
##협력
해당할
부드러운
그쪽으로
로비
바위
인가를
헬스
없었을
들어보시겠습니다
이루어져야
SM
직계
위원장은
가야지
도쿄도
먹었는데
있지는
장점이
탐험
##십쇼
1929년
국적
시는
오프닝
##범을
들어보면
실명
예상이
##프라이
##것같
송달된
깨하게
물적
##동욱
##대교
##코리아
임무에
무거워서
병력을
요걸
할부
173
적법히
소속된
EP
준결승
소유권이전등기절차를
남게
수수한
인정되나
항변을
오후에
견디
녀석
명품
불꽃
##액과
계획에
1923년
국회의원이
민영
표현의
돌아가신
##업무용
계십니까
원짜리
과학기술
값이
의논
이놈
정의를
규정하여
좋아하는데
동아일보
거둔
바라겠습니다
명성
##사정
1월에
목적과
내려오
시대에는
##프란시스코
모노
본문에
##퇴근
##친구가
분석이
##업무에
La
박명
약탈
예탁
건축법
없었기
느껴지는
그람
막말
수직
보아도
시흥
좌절
##량으로
##대상에서
##다시피
##오리
사람들과
망가
불매
##양수
거기에는
보여지
도로가
간혹
윤영철
##런스
거부한
불허
에릭
티비에
향을
연락주세요
액체
##요시
보험급여
계단
워크
정권의
회식
MP
문젠
설문
금지하고
전반에
부본
분만
역설
지방을
정신과
월세
이왕
자료는
마드리드
맞아서
##프와
##나르
##6호로
##학자이다
##ula
머리카
미쳤다
했었거든요
##공무원법
8강
당할
여자는
오면서
##대기
경기장
것이라고는
자손
하더라구요
규명
드려야
송부
이방
주니어
간접적으로
안희정
난이
육십오
반죽
우루
파헤
취득하여
남동생
부검
이어진
칼럼
##클레
##티는
사람이에요
기억나
어머니의
교장
정찰
판정을
항일
대한항공
이런거
법칙을
돌연
항공사
생각해보면
2는
갱년
인형
000원은
두번째
찍어서
입구
##령으로
사이에서는
맛있다
변수
태종
##우라
##림의
다른데
지게
##년의
빌려준
못한다고
첫날
그렇네요
빅토리아
군은
살았다
절단
제후
##시경
##전부터
##라이터
동맹을
매트
취재를
##임으로
제27조
소득금액
좋았던
영구오일
메트로
클라우
##한거
##마루
제32조
판시하고
##산업의
선정한
카지노
##회와
아니함으로써
10개
##위반의
언젠가
##기금
모르니까
재심대상
취미
코파
공동불법
2천
소관
손금
회사로부터
해주시면
임차인이
간호사
에스엔에스에
김능
##널드
회사로
근로자에
가져야
재미가
군사를
수질
재차
##촉진법
##법위반의
면도
손혜원
테레
##원칙
모두를
와인
최윤
제공을
실수를
익스
##회장
##ite
차용금
제로
##NS
살펴보겠습니다
당연하죠
괜찮습니다
임대주택
불문하고
팬들이
##갔는데
있으시면
비판하는
미안하다
2위
낙선
단선
하기는
##인들과
##스톤
토지구획정리
누구한테
비업무용
##버스터
##소개
##노총
##유산
##총회에서
##ann
구한
나열
책으로
##감으로
##인들에
걱정하지
협박을
재단법인
##것은
##필드
아버지와
불특정
소지가
하시죠
고마워요
117
분명하므로
요건이
마블
지워
지형
추산으로
조금이라도
##ere
드문
제한된
레이저
헌법재판소
내놓고
호응
힘내
##졌기
건설업
라운드
요미
##남용
상대가
##라이트
매수인이
공유수면
징계의
공천을
연결되는
언제부터
다이묘
원심판단은
출혈
목적의
이천십육년
너의
박찬
전유
인정근거
오일팔
김세
##석과
공과
나리
비자
이식
하여간
들었던
에미
잘한다
튀김
##권이전등
들으니까
떼어
별론으로
줘서
##상승
대도시
어휴
발표가
##책임은
않거나
##신다
구성된다
발렌
상사
##43
##다니는
담배를
달의
정전
흥행
##방은
권장
이문
##티를
##청구권이
수준을
천경송
입회
##나를
##했네
소송에
휴대전화
출마를
내륙
왕자
전선
##진행
요건에
남측
말아요
명성을
합쳐서
메탈
제29조
##주의와
제목의
잠정
제곱
특약
흔한
##기관인
김중
별개로
##카르
##근데
나오죠
설치하는
독자적으로
시선
캠핑
1926년
어디까지나
축조
##급금
행하여진
고의로
좋겠다는
##그로
교육과
##티미터
##출원
나오잖아요
기준시가
돌아왔다
음반이다
사모님
왕복
추워
고개를
친구들은
사십오
작가님
단식
포유
필요에
물질을
병원으로
##면과
##민련
##리코
칠천
##아들
있었지
김양
김관
않기로
반입
개발에
스웨덴의
면적이
성질이
싸웠
튀어나
누구야
뭐해
좋지만
황제의
107
##인이라는
귀한
팀에
피심판청구
근거한
이겼
전형을
##어업
##대지
중요하지만
같애서
제조업
저렴한
안이
##녀를
아이오
We
본선에
##죄와
정도이다
성종
이불
줄이고
해놨
혼동
들어오면
용역의
글씨
업그
육체
##터에
이상훈
변경하여
판타지
4의
내기
사기의
습격
신년
조계
즐겁게
히데
##책으로
없네요
잃게
증후
신청할
가입한
의정
회고
도로에
송영
점거
상징하는
알렉산더
거긴
본문
챙기
그렇잖아요
콘스탄티노
해독
이것에
결정하고
결의가
여하
##질변경
##재정
진술의
신의칙
이관
##다의
##산동
보고서를
부적절한
가산세
시모
항만
##와도
남아메리카
국유재산
종로구
대를
조항에
레코드
세상에서
통하는
143
##위원장이
이천십칠
맞는데
체계를
##류로
118
재항고를
상처가
분명하게
입장에서도
측면도
바른미래당
##ical
5개의
맞다고
111
상고이유보충
라이온
소송비용의
다큐멘터리
밀라노
싸게
윤치
황후
건설교통
국경을
방송된
프로그램은
양형의
조정을
최성
##역과
##유치
노래도
참여하고
명시적으로
경전
소고기
야당에
##주민
나가요
말고도
이돈희
스폰
제33조
##주의는
금원에
세자
중입니다
##보면은
##되어서
경위와
준우승
비공식
##라면서
##거예요
들어갑니다
바르셀로나
김제
소용
##이래
##효과
##리브
국가정보
이루어진다
인생에
공전
삼살
##배추
##OC
거리는
ㅠㅠㅠㅠㅠ
보니깐
##분들은
##검증
사정들을
시야
잡아서
이야기할
##해진다
##약정을
사용에
적용된다
일각에서는
137
국군
낭만
터잡아
##시면서
##시고요
##글라
배부
봉쇄
실린
##DP
##섬유
치열한
개개
토벌
파이터
인정이
보름
##포가
그때가
전화번호
올라가서
##중이던
성립을
보호하는
상황이기
배틀
정밀
축적
4차
표현은
제출하고
##상태를
김덕주
일응
제휴
UN
보다가
##수단
##공고
상황이고
고도의
단계에
대위하여
Love
밑으로
지역과
소급하여
소실
취직
폭이
##9호로
##항이
어머니를
##열은
단체의
이천십오년
4억
양해
올림
##즈에
##채무가
양수한
##발의
##하여도
자기들
올라간
##old
후쿠시마
자발적으로
부득이
광산
싸우고
원심판시
2에
내연
##67
지급받을
결정하여야
선거는
조합에
돌아오는
시원하게
초래할
유니버
여태까지
무혐의
보거든요
의원과
그룹의
사실인정
##겠다라는
아프가니
##서비스를
3분의
김에
당기
가능하고
선수의
위치가
작품에
##ound
##ree
##케이팅
오렌지
세리에
울고
정돈
근무한
떠오르는
가겠습니다
소모
지장
통일을
##육년
피고회사
문이
실력이
언어로
##봐라
사정으로
##ace
가끔씩
뭔가요
삶이
##les
얘기까지
마이너스
대리인
자산을
주저
##백이
제2호의
담보하기
##으면서도
미만의
안될
##학적으로
##진한
##품으로
1927년
##아버지
##ost
##리자
컨설
##하는거
서로가
돌아올
1917년
거부하고
차분
##산입
##쳤고
소송수행
기준은
업무와
증명하는
편안하게
살펴본다
상공
변경한
사년
시신을
십억
싸움이
장윤
해달라
##매출
계약은
그담에
도매
불신
##하겠죠
이런데
들으시
##프에
대전지방법원
본원상표
산타
차남
##승계
##실까요
증거능력이
일부의
불법행위에
타이틀을
도마
배송
이남
하트
##오염
다음에는
주의의무를
민간인
러시
극우
미결
보셨어요
오디오
위김
포크
휴업
올리브
서성
##졌으나
생각나
증거도
##ung
추구하는
##회생
조사에서
2년간
##부산저축은행
수험생
군을
이부
일률
증인이
연결한
마이너
데려다
드려
유키
##징역
이십만
맺었다
불이행
속은
윤상
##강이
네네네네
2대
간편
##85
있다거나
것만으로는
외출
발표되었다
아내의
감옥에
본인에게
임금이
정형
통영
##무제
##대차
##피는
퇴직금을
신조
직업을
주장하여
원판결이
##내면
##참여
종업원
##봤어
도시락
누구든지
거부하는
유니폼
잠수함
2명
링크
이노
키우고
##조각
##칭을
특징은
조항을
김유
설비
##살피
##능한
천구백칠십
##경기에서
산정의
의장이
##약정에
결혼할
설명하고
방문한
규슈
당직
박태
배석
웃고
전지
행위라고
나쁘지
간을
최후
협력을
중국어
나게
산지
민주당은
접대
좌익
코트
##앞에
126
그때까지
말씀드렸지만
##토는
제공할
남쪽에
멋있
변리사
##EN
##회의를
민사상
예산이
##가게
##적이며
건강이
문자메
알렉산드
하버드
그들에게
자수
최선의
##강점
생산하는
묻지
아니구
언론의
##tem
광화문
박진
본사
센치
안해
정화
일본과
부과할
데뷔를
기관에
무렵에
아프가니스탄
누리
##제르
##고루
아침부터
비비
없나
##회로
##100
##름은
말씀해주
Univers
갈릴
무작
뭐를
생각입니다
기간의
고의가
날라
염증
정상화
해결하는
감성
무죄로
속을
했나
##비행
##토미
##집은
사업장
위원회가
변론에
전매
들어가기
환수
##ier
##운의
종합해
만났다
열다섯
그것과
하에서
##천이
##소송에서
항소취지
채용한
시게
##인바
행정청의
엔엘엘
##랄까요
17세기
화의
##중심
운동의
진술기재1
내란
첫번째
전통적으로
우발
정주
행정청이
##ick
##자들로부터
계좌를
일어난다
기자회견을
급성
조화
피고로서는
지금처럼
15년
간략
##여부를
양념을
영감을
합한
##교회의
배우가
아르메
거보다
대출이
드라마이다
꾸며
정제
비슷하다
상대방에
워낙에
병력
출현
부담하도록
변경할
지키기
안하고
편한
##주었다
##42
##례에
##통의
박쥐
후진
##론과
모델을
구간이
방언
시바
전자기
체결할
교부받아
규약
박기
##평이
##뉴얼
발매한
나타나지
백팔십
벌금을
생계
연차
##했구요
##잡이
상표가
정황이
주관적
합작
##병은
함께하는
1세의
공갈
했다면
##보유
원심판결이
평가하는
소속되어
매도한
일자리를
겨냥
방문하여
트럼프가
달랐
때나
##노는
피고인으로부터
하자보수
행복하게
비정규직
반납
##특허
살펴보아도
완제일까지는
바이올린
씨앗
일어
지번
당시는
후반에
홈페이지에
공감을
썼는데
주상
발생하게
말려
창간
##소서
음악가
조건에
위원이
하차
인정에
제55조
등록이
불공정
김도
복권
쇠퇴
##노의
##플렉
둘은
본안전
지침
이후로는
출연을
시절부터
잠시만
누르고
손님이
잘한
도시가
의사는
그쪽에
봤는데요
시로
인도를
책의
들어있
돌아와서
##분류
참가하였다
국회를
식이
토너
##관념
해보니까
조수
토마스
문제입니다
여론을
바꾸어
아나운서가
비법
정현
관계자
지정하여
음반은
정기적으로
필승은
도우
직원의
##협정
만나러
이천십이년
일행
들어간다
해결해
눈빛
##런트
그렇긴
##스트가
중앙에
신원보증
내정
래퍼
빠지고
쥐고
되어있
##수수료
것에서
넘은
마트
못해요
이이
추정이
안녕히
설명하는
##임대차
약속어음을
물고기
지었다
홍문
##셨다고
들어가지
등급이
밝히지
친일반민족행위
웃는
##질로
##것으로
##겠는데요
##포스
가지의
독일에서
첨부하여
어울리는
##겸피상고인
가리지
놓으면
배후
베타
빠지게
전하는
##터로
검색어
규제를
지수
호프
##클린
##주자
##무네
것으로는
제5호증
추천해
드릴까요
철저한
##격에
전보
##양군
##계에서는
인정범위
김철
사실로
두께
비엔
태워
##치면서
##전력
##영과
건축허가를
그리스도
김능환
FM
벗겨
수강
##팀은
원심결정
얘기하지
경찰서에
돌출
리메이
##용역
개발이
실시하는
비만
##적일
##군사
나란히
징계를
##균이
##기록을
청탁을
2세의
메디
없습니까
우호
##설계
사이드
프랑스는
부정경쟁
들어보니까
재량권의
동독
섭외
##도니아
제39조
곤란한
입이
장편
##수준
##바키아
##스틱
##드리도록
담보를
문화재자료
전제가
##대고
시간과
계열사
몰락
정이
지바
##할게
싱어송
대거
사상을
용역을
잡아야
제명
학부
##규정의
지금이라도
연결해서
외국에서
소득에
독도
사소한
##준다고
##았지만
냉각
엔진을
역의
자회사
맛있겠다
으로서
이글
북쪽에
타원
##농지
000원이
국장
중기
예언
촬영을
##여래
##령은
##느니
##ign
기인
번이
아요
워너
탱크
학위
인정되어
##주의가
존재할
부적법하다고
윤종
총재
##지붕
MV
담임
받도록
세대가
투약
들어도
대하여원심은
일이죠
궁금해요
산출한
오천만
추세
페스티벌
##ps
안다
양호
공개되었다
데뷔했다
공의
신분을
잔대금
정함이
통보를
##루션
채권은
빈곤
지도를
당시에도
1907년
##카스
##북도의
표현할
원칙으로
재미있
##토스
##총을
시작하면서
제53조
직무상
목표는
저거는
금호
행정관
1908년
쌍둥이
진작
침투
##금지의
설치를
아이스크림
정사
##외과
문제들이
2월에
자유의
아들이다
뿐이지
유영
확보하기
일제강점
아인슈타
서둘
이만큼
휴가를
##설에
##내가
가능하며
국가로
국제적인
바꿔서
근육이
납세고지
##살피건대
문명
영리
##지거나
##모니
정보는
##나가와
구형
박은
실정
##for
아니예요
한국방송
가지고는
영국과
혹시라도
거부할
소멸시효가
방순
죽인
##AP
##증권을
이사로
상고인겸피상고인
밝혀지지
음원
##초의
##애나
증거기록
채권압류
가족들
1912년
##협의회
대남
야외
중산
국민은행
국민들한테
##이유에
유지하기
경상도
난리가
못했습니다
절취
환상
##게이
##집합
기업들이
말한다고
없이는
##내용이
화물자동차
차이로
##기분
##요지
##자로서는
범주
보르
햇빛
##시켰고
이슈를
근처에서
되겠어요
방면
별의
정준
해협
수록되어
무관하게
Gr
발족
육일
##기반
계속되고
감독님
입문
문제인
10분
노동당
따르지
언급한
##없고
경위에
열이
외면
##cc
##차게
스피드
까닭
비춰
원에서
입으로
##공여
소장부본
분과
누구냐
일어나지
지창
##환에
판단에는
보여지고
신성택
강사
않고요
##위치
##1의
##화되었다
##돈이
비율은
구일
제2회
돌아다
기용
위태
위촉
##한성
수록된
##시구요
##나카
##새끼
제8호증의
승용차를
포인트가
남지
셀프
와야
##II
##음의
경제에
맺은
무신
연인
해달라고
그래갖고
움직임이
서울형사지방법원
공증
이북
##yl
생각했다
일본국
사기꾼
##광역시의
Bo
대인
서남
소금을
연립
유물
작아
##리야
##브레
생각됩니다
210
레이블
BBC
가미
주셨는데
출제
진행될
이것저
##inc
현대자동차
도지사
악기
##비서
##근은
##섭의
상황에서는
추가적으로
도와주는
지어진
모방
오르는
몰랐어요
안아
위축
퍼포
귀속재산
PS
몸은
자궁
팔을
##당하는
##저런
3D
기저
주년
현미
##95
변호사는
선생님들이
보험계약의
아버지인
원수
대회는
물품의
투쟁을
기명
로이
상에
##초가
처리할
미루어
선형
일보
##ala
##원군
##권에서
건물로
국내외
김우
시장은
표본
##희에게
##밥을
관점
김보
됐거든요
리이다
먹자
별명이
않잖아요
해마다
##프스
바람을
부여하는
거하고
겸임
대주
##내어
경우들이
인식할
진실한
임대차보증금
박시환
상향
털이
올라온
요로케
끔찍한
놀아
수련
집도
##ear
1905년
민족의
찾아가서
씨씨티비
났다
내놓은
판결문
했다라는
##가능한
부적법한
##옥의
부에
세무서
역사의
전하고
회장을
저하고
줄은
줄이는
했습니까
##로이
##증과
##독한
행정심판
여성은
서재
##서만
##생으로
##했었던
##쪽에서
폐지되었다
김지형
오키나와
가사가
삶은
있는데도
알았다고
재능
좋아해서
발견되지
##기관으로
1906년
오토바이
종합소득세
Ed
방문을
브래
영역에
##경정
##문자
달라지는
##그룹의
내로
특허청구
AS
자국
칠백
##7호
##타리
공부하는
##라고는
##아가는
음반을
확보를
상용
아부
연안
제기가
##주시는
1900년
조선총독부
입수
종국
콘크리트
시행하는
버지니아
원하지
중요한데
데려가
아틀
##진으로
##찬을
##답게
우리나
고소한
아니잖아
이거예요
제48조
구조의
데에는
먹구
적극적
골고루
여배우
워터
직결
##피탈
어려워요
시절에는
불리며
뭐니
##ina
##시설이
연세대학교
메타
산이
침대
##그리
대학은
근무하던
공문서
빌라
사이클
주민들
의결을
영위하는
금원의
암흑
하였습니다
거기까지
느낌으로
##조판서
윤일영
재현
정직
지극
##요구를
##수계
##봤더니
처벌에
기타리스트
한겨레
모친
애비
에디
옮겼다
외화
후일
##측에
생활이
1군
풀고
시작하고
##amp
승낙을
배열
백분
수확
에에
##메르
마쓰다
불고
웃겨
중종
##건물을
##봉이
##면허를
공간에
석명
줄게
참사
##던데요
##영에
##됐어요
내놔
##au
의견도
1년에
재료를
최후의
##장이나
##심에서
##류와
##창호
##훈을
마음도
차지한다
공화당
상당액을
##ern
후보자의
##ish
언더
희극
##복의
개념으로
사무실에
##티움
이전인
보시면은
멸실
세계가
이천십칠년
구분하여
세월이
공짜
방에서
비어
정인
포토
형님이
##전형
대한제국
연락처
통상적으로
이것저것
LP
갈래
구리
그리는
부인을
삼았다
##리언
##았으나
피고로
급히
신주인
저와
확인한다
그룹이
급여를
동시이행
레스토
섞여
##르르
113
성립된
지인
풍경
##설비
##영수
강조하는
더이상
이철
입자
겁나
변동이
서일본
주택에
감정인
PD
신영철
그러더라고요
제1심의
지지층
단체교섭
선정당사자
강제집행을
이억
##m이다
##리조
##디자인
##ool
기각하며
영향력
World
권력이
없는바
다운로드
배에
피렌
##들입니다
##일드
##거가
##적한
이어졌다
차지하였다
피보험자가
왕으로
참고인
직무집행
교정
본명
재편
팔백
발생하였다고
기여를
면을
우정
좀더
향년
##사업이
찾아온
650
머무
선관
옮겼
주겠다
외교부
모델이
양국
집주
평론
1961
보이지만
가을에
뿐이므로
등록세
활용할
간담
거기를
나나
통틀어
##망에
보여지는
닌텐
되신
15일에
##소송에
노래로
소유권보존등기를
됐기
##란트
경찰청
스스로를
상실한
성추행
만세
섬식
점성
##민당
사용하게
5000
뛰어넘
경력이
쉽지가
CO
거겠죠
부흥
용기를
##었잖아
##걸이
##이라며
추궁
잃어버린
강대
뛰는
싸울
인텔
##제4
개인에
동인의
유학을
쿠폰
국가유공
돈에
복직
필요성
안정적인
제325조
강아
부평
스님
일러
퇴원
##소재
인간은
NHK
낮에
추격
황당한
지원한다
리그의
검토를
맘대로
브라이언
화면으로
##시잖아요
##냐면은
떨어져서
예술가
소통을
SF
슬퍼
전부가
##질은
##엄마
문제점
보이는데요
소설가
결승전에서
##64
name7
광범위한
담에
북구
직위
신청인이
김영철
대여금반환
##사령부
위임을
하수
##었거든
##숙한
121
공채
어저께
##네가
##질서를
이야길
운전자가
이천십사년
마련한
포괄적으로
비주얼
역이
의도를
주제는
##가단
재산세
돌아왔
업무상배
주한미
동의가
##질서에
허용되는
3년간
부가가치세를
구간은
강구
제왕
교수를
ex
기습
심해
280
이천십사
인연
치아
##2의
교육부
다르죠
분양대금
무렵부터
브라질의
고찰
점수가
컨텐츠
하부
##로폰
##CD
형식의
버는
운명
있음에
최정
##익의
##좌상
스릴러
경로
##어준
##하십시오
아이들의
##하자마자
내세운
경위가
마니
반전
성명을
이면
창건
##수엘
##체제
피고인박
##감호청구
320
됐고요
엠씨
대법원의
임대료
특성상
홍순엽
Or
##광욱
선거운동을
선물로
갈까
만이
패스
주장하며
영국에
채증법칙에
정답은
2번째
군대에
태권도
지방에서
솔직하게
##시네
##규는
230
수박
총을
##8호로
특별항
기소된
세금계산서
마땅히
무대를
수에
자세를
##AD
소유자의
부모의
##시픽
##시길
##화하여
##차도
국민들에
실시하고
살해한
행정구역이다
군대는
낮게
마실
안정을
9년
말자
볼까
책에서
천정
##호쿠
##내셔널
##목은
않았으나
운전자
아빠는
##으니까요
참여하여
##드리면
미안해요
전수안
수치가
인성
##위험
##벽이
체결하면서
싱어송라이터
구동
나보다
들었어
컬러
##르면서
##하게도
형성되어
불구속
퇴사
##진에게
##달이
하는바
논란에
For
##실과
배고파
3만
같죠
하겠지만
흔적
제40조
재미있게
6개의
살필
##페이스
필요해
어제도
##제1심
빨간색
##손이
해서는
구조는
신하
아케
애들도
열을
원자로
##상사
##연수
때문이었다
파이팅
원천징수
모호
어휘
휴식
희귀
##냐면요
체비
##즈키
129
프랑스에서
##금액은
내세우는
마라톤
로맨스
소수의
신은
준다는
환율
##졌는데요
##새가
##유통
##크리
##저스
빈번
##천을
좋아하시는
미소
비준
제도는
타인을
해보겠습니다
##테일
##묘한
공무집행
시스템은
특수관계
연속으로
센트럴
변조
유머
친선
##장으로서
반응은
나이는
되요
안좋
협상이
##봉의
123
단계로
많았습니다
테니스
##들께서
소득을
반짝
##자라
##말에
해당된다고
단순하게
진지하게
퍼포먼
것두
귀를
넷째
범인
우물
처녀
##마일
아버님이
관할하는
맞춘
##주에게
##팩트
##로서도
주민의
작업에
제목은
보도에
사탕
앞선
주당
할게
##어른
정보공개
1항
사시는
후추
##타나
얘기입니다
대하여만
전쟁은
가리켜
근저당권설정등기를
학대
있다할
범위에서
생기지
구입한
앨런
외로
##운용
##현악
##에서는요
남자를
레전
로열
면담
통진
##갔습니다
좋을까요
알리고
##교부
불법영
하셨던
##기야
##건지
##작이
민주당의
불가능하게
가담한
거구나
오라고
직면
##플레
##놓으면
제출을
않자
오겠습니다
현급
후단에
##타워
방향이
##의사
##벌이
정보에
파산관
약식
웃음
폭넓
##자이자
##지휘
제35조
##신청이
산정하여야
거제
똑바로
암시
자금이
형편
##운이
##번지
##웠어요
해당된다
##리는데
##발로
됨으로써
사교육
예치
조병
다음이
한국당이
환경에서
금강산
고래
양극
전해진다
바다에
문희
물가
상피고인
##달아
##9조에
구의
문정
일삼
평양에
인과관계가
민속
박해
이혜
##상해
사람으로서
실질적으로는
환경영향
폼페이오
집계
##즈와
영향력이
브라우
견인
데로
해킹
##모집
재산적
실용신안
빅데이터
흡연
정보의
베네치아
개연성이
귀환
그랑
##TC
##받아서
소유한
뮤지션
남매
멀어
왔다는
정상에
파스
해적
제1호는
움직임을
지위에서
소송총비용은
분데스
오죽
이동을
자바
피어
##규명
부분적으로
필요성을
차량은
지내는
책도
##히면
##그런
지방이
변경하였다
경험칙에
마을에
장로
##시기를
##술이
얘기만
이메일
위가
##수요
550
뜻의
모색
삼는
취하는
##장이라는
있던데
최고에
보증보험
공판조서
기생충
돌입
뛰어들
중학생
가시는
성은
전이
##통제
제45
찾아오
증인으로
##충당
의사나
##신한
스타크래프트
대책이
방탄소년
마비
업종
코코
##슬라비아
지나친
간다는
슬프
초콜
허브
##카미
##해야죠
##정하게
은퇴한
자와
정계
차임
치우
해피
##처리를
얘기로
260
기대해
천구백육십
물건이
전세계
##스테이션
남짓
본안에
평온
재판의
학교는
원칙이
1세는
근속
달을
##진다고
##결한
##휴가
##옵니까
엄마를
떠날
##나도
##출혈
114
위원장의
이루어지
구급
깨한
쓰이고
주입
테오
##라면은
##AL
##받아야
##숙은
해주신
바는
죄로
학생들에게
사망하고
수사관
올라가고
차트에서
제기하고
계열의
맛은
번호를
##돌프
판단의
청구한
첨부된
##과로
##돼요
불안한
개선을
여는
키스
제출할
소송대리인은
날로
들었을
말대로
성주
옷이
원가
카레
##하셨던
##주시고요
항변은
드라이브
김부선
이천십이
지키지
공시송달
당대
발각
한다든지
신의칙에
만만치
가쓰
리투아
모형
우즈
##수아
명의수탁
해외에
엘리트
##식물
##증서를
시작하면
##느냐에
가정에서
뒤에도
섞어서
일렉
##분도
##스트는
확인서
##사업으로
##ance
그대
김만
딸인
시인이
조장
##었구요
##때로
##섰다
주식에
법정에서의
계파
##IP
원고로
상태이다
구속이
일찍이
뉴턴
예루
##박사
##ron
국가와
언급이
미투
샤워
##고단
##주구
인생의
3000
관중
리비아
의석
##창이
그랬습니다
고려대학교
불과하다고
있게끔
과세관청이
방순원
비방
한다라고
근로계약
우선적으로
##하시네요
평균임
김기춘
분데스리가
정몽
협조를
##만하면
포함해
##레이터
사망을
비롯된
##지역으로
순식
옵니다
지켰
쪼개
처벌하는
의심할
마쳐진
아미노
어트게
사적인
있더라고
주름
##7조에
##저나
한다면은
정치의
아주머니
그랬지
1904년
과세표준과
대명
바티
수성
이사가
자리잡
느껴지
구도
김씨
던지는
보십시오
한시
후한
##CC
찾아겠습니다
미혼
쓰인
않겠다는
##라이더
말씀하셨지만
가축
버렸
설명의
처한
컴퓨터를
말라는
벽돌
입당
재물을
종래의
지장을
##지열
피고회사의
느낌도
공장에서
그나
드신
판사가
##방지법
사건도
발생했다
사기죄에
허용하는
혼란을
지폐
##시는데
##플라
##냐는
##○○
피상고인겸
전념
##바야
##량과
사무장이
##산업개발
활발하게
살다가
인원이
터져
##yn
황당
관하여도
플레이어
됐지
불하
미래의
은퇴를
pro
야당은
##마켓
정치인들이
청와대는
##ose
사실인정은
급진
기병
법안을
움직임
##채무에
징계해
파인
항에서
##우와
게임에
발행된
기온은
걸어서
안병
##셨어
##측이
알아보고
지적도
치료가
형식적으로
Intern
5만
Ge
강호
내렸
어어요
지입
##테니까
##참모
지급이
앞으로의
광주지방법원
새정치연합
El
둘다
양배추
에이스
쟁점이
##십자
##영에게
124
고려해
이재성
받아들이는
사실인정을
##활동에
##배의
##곡의
##판결에
매매대금을
위배되는
한반도에
라틴어
기증
상시
장외
무효라는
납부할
맡기
회견
헌법상
의거하여
김두
딸은
못하였고
뭐든지
봄에
죽기
한진
##법정에서
원심결
청구인
위배로
독촉
빛의
##부족
##97
남아있다
개최하여
활용을
베네수엘
죽게
아이디어를
나항윤
마신
##냈습니다
##실록
상태는
남편과
획득하였다
겪는
과시
기속
등이다
마루
적의
트레
연구는
발이
##구금
##무지
##성이라는
각서
도장
##입금
원판시
지창권
구애
부존재
선두
얘기했는데
강이
도난
자작
##소리를
서울시가
##이었다는
자네가
군인이
대담
미분
##소인
##블로
발견되는
1대
현의
##지검
##ke
계속된
녹화
미션
열릴
지을
앨범은
부회장
##아나
##징계
캐릭터가
등기부등본
노원
막혀
임야의
마찰
방울
330
로빈
최민
터뜨
##코가
그래야지
봐야죠
사무실을
직업이
과의
말하였다
##줬으면
만들면
공영
##쪽으로는
##롤라
가르치는
재심의
부근에
말기
열정
보호하고
남자들이
증상을
##줄이
이야기한
음악에
전달하는
아저씨가
때로부터
말했습니다
양주
##항으로
적용하는
자료도
적절하게
각하한다
불분명
나비
남산
취해
사실혼
우려를
가맹점
갈비
달리는
마저
순조
이겁니다
자기에
행동에
##라구요
##진아
있었구요
실력을
확정판결의
냉면
하남
##고로
뉴욕에서
기기
##티의
이런저런
민주당에
심리학
계신데
이정우
세금계산서를
르네상
Fran
고거
극대
선도
하겠죠
##청구권은
움직여
전해지고
이사의
인위
##용품
16강
기술의
진출을
말했
없는지
결승전
공존
국적을
무슬
용돈
토머스
정부로부터
132
동안은
##기관을
과실을
용도가
유죄를
##업법
##세기의
중요하고
서로를
1년간
성남시
태극기
1천
박일
뿐더러
폭력을
##우스는
##원이다
국민연금
취소한
DJ
연도
포획
판단된다
진술하였다
서로의
기다릴
채용할
밝히는
불참
아재
왕립
질투
문제점을
토지등
파악하고
보자면
아세
역과
영유
##ium
##가치를
##사옵니다
가깝게
개웃
불응
전문적인
노회
밀집
썼던
자아
##채가
##평가를
##완료
##폭탄
물건의
서쪽으로는
강점기
청양
##급이
특별법
가족은
나아가서
선정자
인물이다
고등학교이다
전문가들이
부작
성당
나온다고
알아볼
규모로
남쪽으로는
단서의
체제로
타운
##하셔도
번째가
가급
교구
형평
##미리
자체적으로
고소가
자치구
동남아시아
과자
안티
유대인
사기로
##되었다면
곳도
일회
일정이
조정에
##되었는지
게시판
불법영득의
조약을
##IV
나왔다고
연결해
민망
중에도
##왔어
행정소송법
제50
참가인이
아니다라고
졸업했다
일생
증인의
##권자는
사람이야
행사한
배치되는
당선되었다
포로
불리기도
끌어올
성향이
시에서
때문이
제6호증
분리되어
따뜻하게
아비
상황이라고
외국환
시드니
ㅋㅋㅋㅋㅋㅋㅋㅋㅋㅋㅋㅋㅋㅋㅋ
덮어
되겠지만
말의
포스터
정말요
공소사실과
##ous
부탁드리겠습니다
강제경매
부부의
어음을
개발된
독일은
생긴다
하늘을
계시죠
매개
비하면
사오
어케
종래
청약
##론적
여기서는
상태의
그분은
포인트를
안드로이드
증기
산을
##라브
범죄로
것임은
누나가
없음은
웃긴
현금을
##호이
12년
가보고
나이를
##거절
##범은
116
가즈
명세
있니
타율
후순위
##공으로
상품에
원전
대회이다
##소득세법
시스템의
드러내
유고슬라비아
남구
단계를
대관
보일러
불에
비오
은혜
전원이
존엄
판결선고
저희들은
제외하면
지켜보
엔터테인먼
모시
##곡동
의사와
가리키
벌였다
보람
##명도
##암동
공부하고
IM
토목
##질에
##rom
##이다라는
여성에
평론가님
공소장변경
마른
오는데
##네는
사이로
사이트에
공동의
피에
회장의
얘기들을
제45조
##받았다고
송진훈
미역
합하여
##했다라는
건축물을
동쪽으로는
9시
맞네
소신
오류가
옥수수
문화체육
##하셨는데
무효가
##책임에
구하기
##ix
##순환
정당하게
사연이
an
유선
##으시는
##방위
##황후
아니하였다는
계속되는
설치되었다
270
밥은
영감
##츠가
수행하고
정규직
신기한
사광욱
히데요
##사회의
##배에
##int
걸음
다짐
무궁
분실
이토
주에서
책정
평면
해갖고
##그레
친구랑
찾아보
부적절
내어
알겠
없음이
형수
##경험
기본으로
가운데서
고추장
가던
당에서
비하
##Pa
사람만
부분인데
획득했다
검증을
하십니까
##럼비아
북한에서는
더더욱
고베
치안
컨테이너
##교에
##보병
기재하고
##위원으로
산정할
최재호
앞둔
대회가
해외에서
외교관
메시지가
열차는
국가보안법
까다
말이지
노태우
액수가
업체가
국민은
추가되었다
중심지
동물의
순차로
이국
페루
##up
해주면
##사유의
사정들
프리미어리그
버무
졸라
000여
이하로
제84
명백하고
배경이
신주인수
땅이
치사
##올로
지금이
분리하여
이점에
##국세
소식은
길은
듣게
##아닌
나오거든요
##공시지가
단말
대차
말경
심야
##는디
##유에
크리스토
게스트
격리
구독
됐으니까
보드
피해자인
근무하고
기피
단종
장비를
중한
##로부터의
손해액
##ale
드라마를
치명적인
엘리자베스
발명은
방을
직원을
##호은
##ven
134
모습도
만났을
개성공단
윤석열
살지
아이에
##iel
##는거
##시스트
##인터
##전투
##베스트
중요할
제외한다
얼굴은
권해드립니다
뇌졸
몸으로
호위
후기의
##온이
손해배상책임의
없었어
부적법하다
줄어든
필라델
##등처벌
##보디아
부분들에
그랬다
형태는
더불어서
##사이드
##찬이
정치는
##거래에
정리한
##부장관은
자녀를
답답한
로그
아서
양창수
일이고
##군데
시작되는
남용한
다중
환자를
심리적
상당인과관계가
일등
질서를
콩고
##TA
##보증보험
많았던
논쟁이
고현철
기체
잘못은
##하시면서
언론을
대전광역시
눈치를
수산업
양은
유격
일이에요
자식을
싶기도
아닌가라는
전투가
항소이유에
등기부상
브레이크
리메이크
건평
권리는
날려
오니까
있겠지
##함의
##각형
##라이드
어제는
어쨌거나
치료비
동생인
감행
업적을
연기가
주와
##바의
##보호의
##싸움
##러워
먹었어요
벌이고
하지는
##부지방법원
##ica
광주광역시
겪은
끼워
먹으니까
세우는
지나면서
부산에서
가해자
인근의
사투
최하
견해에
Is
간통
버림
열흘
제도에
트윈
##들에게도
보험계약을
주변을
취급하는
사우디아
만을
성대
현수
##공파
따라야
소득세
국정원이
어린이집
남이
숫자를
시기의
##ep
##들보다
##럭시
서태
얘니다
잡혔
주제에
태도가
10대
지역이다
상식적으로
레스토랑
수거
죽음에
제57조
주식회사에
참석을
Comp
클린턴
무가
전기를
손해액을
보호할
네덜란드의
그쪽에서
일실수입
최일구
나하고
분들의
##노미야
가지지
보호법
부시
평행
청구인의
제62조
보이게
공론
기인한
뭘로
마찬가지고
귀중한
성씨
회의가
##설명
##말소
평가는
이론은
활약하고
견해가
북쪽으로는
분쟁을
좋네
##음식
스트레스가
낮춰
노비
공급을
활발한
##도서관
것과는
던진
왕위
차도
해변
판단1
기대할
명령에
조항은
건이
수만
전단의
이용에
필요한데
의무는
받아들이고
분노를
군단
무도
일는
##OL
구마
내주
하하
님께서는
때와
보잉
일대에
장부
정선
##다를
##현진
성립되는
출석하여
성범죄
##원가
##조약
##관할
시간으로
이것만
개발제한
사랑은
삼척
선곡
의자
있겠어요
주축
최선
누설
드나
인계
제삼
북한도
말소등기절차를
살면
쇼트
아폴
월에
제6항에
참가하는
권리행
##미와
##태에
##됨을
유지될
ar
일건
임료
폭풍
할리우
회장은
##급으로
##순위로
사흘
쇼와
용어로
133
##사업자가
000원과
소속사
가져올
노트북
로즈
사범
삼성이
진행하여
제48
채권자에게
이백만
##마저도
없는데요
유무를
일과
정종
##속이
##골이
제6항
소유권이전등기는
높아지고
게을리
기수
문과
##비율에
##ction
확정하고
2위를
부끄럽
##세스
재판상
언제든
있으니까요
노력하고
하노이
순식간에
공휴
못했
민감한
##나면
만들었
번째로는
시마
심부
존립
코어
태자
황제가
몰랐던
효율적으로
놀래
연설을
팀장
##촉탁
트레이드
122
##명령은
편의상
##iki
IT
말린
벨라
##ons
적용된다고
법과
집안에
통근
##의에
##나리
##ML
##화될
##층은
청구원인
영화도
위원회의
역할은
부산에
성공회
##ley
프리미엄
숨진
일원으로
크리스티
스티브
알제
##억을
있는지에
동일성이
최근의
대체적으로
악용
이빨
파스타
시행한
행사하지
##건설이
1896년
통화옵션
고분
늘려
하더라
시작했습니다
않았어
무리한
아들의
##김치
한국전쟁
공개한
비밀을
장소로
세가
타자
##사정을
##조리
##포의
주의의무가
와이프
국무총리
배구
장치가
##매각
##체에서
##악을
수수료를
민병
방침
보구
행사의
##시점
고소인
고소장
경쟁이
일률적으로
갈게요
비위
쓰는데
유형의
흐르고
##태는
인생이
소결론
##지침
##96
장성택
##리포니아주
수로
위증
표출
##벌을
정신적인
등기명의
불가능하다
디자인을
##박물관
감사를
뭐요
부지를
시호는
신비
있구
##들이랑
대법원에서
구출
##했다면
제작을
검은색
MC
나무를
외국의
우는
합창
위험에
사무실은
면에서는
시외
주셨어요
총리를
##더래도
##마니
어떤지
법률을
1500
정책은
관여법관
규격
싸운
원망
대해서만
소각
신통
##식이다
##포인트
자유와
추가된
디아
부대를
좋겠네요
모르죠
좋아할
시내버스
링컨
지분이
컨디션
##eg
##조와
전투기
접근할
##건강보험
정함에
##ai
필요없이
DS
윤영
주도는
총선을
##사지
##oph
방이
민일영
바도
사카
##원도
들어볼까요
그거야
것인데요
부설
서열
시라
##위임
##하든
##대왕
##말은
##건으로
##병원에서
##벌레
되었으므로
본질적
아르메니아
개는
공소를
독일에
실형을
출퇴근
평정
##전인
##본은
국가배상
의사표시
구멍이
더해
##나라를
##신청은
사퇴를
밥이
안장
1950년대
무사히
때때로
써요
장은
##토시
##적이었다
대세
헌데
##지부
##주십시오
##거에요
##팀을
##측에서
심판을
이산화
20여
없어지는
name8
자존심
지중해
묻혀
##금지가
##상선
##염을
##법무
##암이
제9호증의
##토지수용
마쓰다이라
박인
병원이
지점에서
아이폰
##지방세법
출처
합시다
선생이
시민들의
공판기록
여인
최연
작성하고
삼성전자
Mus
영세
주었고
힐링
##물품
##남의
부분입니다
노란색
해군의
여러분은
영국은
범위내에서
마르크스
And
더운
모범
무라
자서
##이라던가
이석기
갔습니다
바라고
백삼십
심정
##합병
##수술
##교로
##칸센
규정과
에이치
동기가
이달
이형
카탈
##드려야
운영되고
검찰총
맞물
택시를
##위기
##네스코
카자흐
kg
승리로
신재
정영
##스틴
사무소
오스트레일리아의
귀여운
박병
온몸
##먹은
미국도
아우구
서비스가
쇼핑몰
불확실
인테리어
내에서도
넣었다
돌아서
불고기
사나
20억
대변인이
파리에서
3명
들리는
마구
봉해졌다
스킨
##공직
상담이
정리채권
없을까요
내걸
호환
##한다라고
제갈
##물도
##받는다
정당에
제시하고
최상위
붙이고
시신
임기가
증말
##개량
대통령한테
##학교에
##스럽다
천안함
소극적
패스트트랙
티베트
농지를
##바는
따라가
상속개시
취지와
의혹에
명예의
장래에
CS
깔려
모드
안주
인멸
##지분에
##동원
##츠를
사실도
사람하고
장례식
많으
##87
재밌어
시청률
중화인민공화국의
시효취득
과도하게
늘고
알루미
장관의
전국의
##자리를
##이구
##ork
언론사
##att
장애를
MVP
그간
김봉
않지
지루
##림은
사업은
휴대전
이제부터
연결을
알았습니다
김용덕
1세대
대목이
받습니다
봉투
##우스의
##너는
유리하게
회복을
자살을
만화를
부분만
프로를
발행하는
지방자치단체가
등재되어
기점으로
이기는
한라
##체계
##결제
있다고는
알았거나
개로
따지
많지만
서포
왼손
##린다고
##딩을
문제점이
하였다가
해주시죠
헌법을
##조건에
벌금형
노르웨
공신
점프
##금도
##레마
##법규
대통령으로
개발하고
발현
장병
찍을
##보이는
##오오
하셨잖아요
행사하여
마을을
교향곡
최강
표방
시간의
의미한다고
표시가
많았어요
가하는
반공
왕족
##성이다
##벤처
통합을
많았는데
입장에선
군부
우주의
유체
##하길
##TS
여러분께
##보증금을
대중교통
뉴스는
수은
양키
장원
제사를
죽일
핑크
##IM
정당을
행복을
수증
진급
##이라고는
축구를
차지한
신뢰가
압력
400만
분이에요
셋이
소스를
##클라
##본에
##람쥐
기장
깨어
수첩
품목
##치료를
##피에
##작전
대리하여
양회경
식용
##기다
##산맥
원칙상
정의할
시각이
항변에
##증거를
공적인
소나무
없더라도
왔으며
개별공시지가
정비사업
5천만
걸렸
방패
첨단
하순
##양은
##천에
자연스러운
적절히
대감
손수
취득하고
만들어지는
요구가
가열
계상
교사가
놀란
뭐에요
시립
##내를
##병원에
##홈런
것인지에
법사
법으로
파격
##구매
조합원이
신한은행
4개월
몬스터
처리가
이유있어
만들어낸
독립한
않을까라는
그루
집회를
하태
한단
##효과가
##발명은
##소득에
본질적인
프로토콜
지위가
##하나요
##적입니다
##ox
차가운
낙하
##㎡를
있습니다마는
좋은데요
지적한
제품이
떠나는
번뇌
한약
##다르
결정했다
진술과
제7호
일방적인
특검이
Tr
귀신
그랜
실장님
푸는
##창의
어디를
규모는
않겠나
갔고
서면으로
연평
의병
헌정
##총회를
친구도
채무자에게
프랑스어
극심한
어촌
우연
재래
증자
##진보
##메라
##조합이
수사기관에
모른다는
htt
실수로
영상으로
##해방
##ola
유지하였다
농장
끓는
노선은
스핀
증폭
행진
##미수
##주실
확인하기
이전등기
1911년
원판결에
파악을
지시한
우울증
목욕탕
윤재식
대파
도봉
동호
빌헬
양정
자위
##가도
##도면
##집단
그렇쵸
상담글
전투에
설정되어
감이
낸다
돈의
싫어요
천팔백
##되니까
##폴리
고맙다
2007년에
피상고인겸상고인
5의
고난
즈음
##라지
##농업
선고하였다
##집행법
댓글을
박영선
귀에
급행
##재에
지상파
주인공은
연방의
되더라고요
폭스
##교환
##유기
것이구요
변호인이
대한민국과
취소되어야
오십이
목소리로
제1호에서
소홀히
엄만
잡았
조율
친환경
헌신
##az
얘기해서
선거관리
데뷔전을
마련해
호랑이
##다5
##공사는
생각된다
결국에
기억하고
압수된
2시간
##을때
운동도
회의에
그나저나
배로
조롱
조정이
형평의
##부턴
주거환경
선별
##이전
##효과를
##tor
##의무에
강조하고
두려움
13년
거지만
##러를
불과할
물어보고
상품권
부여한
목표가
프랜차
거창
대두
##사업자
항공모
아사히
오성환
진전
##드려요
아이슬
목록은
증가하고
항고심판
가졌
구석
남자의
사사
수축
아리스
##41
고등학교를
비잔티움
가수가
신칸센
일사
사회복지
기각하는
이해하는
시스템에
사업자등록
2부
결손
백색
##매립
##석유
생각만
이용하고
5분
ㅜㅜㅜ
아야
잡힌
사진은
도움으로
이천십삼
간신
동인이
외부에서
으로부터
탐색
##터와
관련돼서
발행의
5대
받침
##학위를
##장치를
##녀의
이번이
매매계약에
높을
없겠죠
##민을
등록고
시설의
법령의적용
달달
저명한
##캐스트
따른다
중심을
보이스
##ystem
불가피한
어플
자금으로
지구에
##기일에서
원작으로
##줬다
부분인
종료된
거였
계정
낳았다
회원이
##방조
##란은
에스파
항고소송의
이인복
서초구
높지
필연
제41
##으로부터의
김의
상수
안치
있대요
힌두
과실에
이홍훈
미끄러
지명을
타에
##도도
분석해
몸무게
둥근
크기로
테일러
##구멍
##정책을
##실시
##앞서
일부에서는
취소하는
개최되었다
누르
짜장면
충주
쿠르
정도밖에
동일하다
경험과
해보세요
떠오르
No
is
까지로
유네스코
측량
##들까지
##보라
부산고등법원
##채무는
사안의
할아버지가
개발제한구역
3천
공성
먹여
여운
위계
아프고
배고프
요정
있듯이
지진이
이러지
##소송비용은
이라고만
당신의
제주특별자치
싱글이다
사업연도의
열네
##enn
사장님이
공장이
낙동
베토
##ress
##츠와
아이씨
독립적인
강박
경리
부장님
##사례
인정의
하여서는
나가사키
이천칠
3위
고개
됐는지
저는요
##are
2006년에
사우디아라비아
됐지만
본선의
섬을
소에
##원들은
##대상에
제공하여
우리나라도
청주시
##우드
##화되는
문제다
시간적
감독이다
429
항쟁함이
환산한
ㅇㅋ
반론
생중
제지
휴전
##채널
##티비
사람이고
효과적으로
프로젝트를
이렇습니다
CPU
권순
라트
여고
인삼
##형인
##너가
전쟁으로
무효확인을
발행주식
아내와
이때부터
2008년에
날입니다
인플
일까지
##방식에
##명하게
이규홍
깔끔하게
도시에
수단이
##자금으로
##반도
##하다라고
##기관이다
남성의
리조
색을
##ach
##인권
##오던
무대에서
사이다
실리
##분한
##듯한
중국인
지원할
인간을
우산
주게
펜실
선거의
돌아간
남편에
이행하라
고스란히
공안
저에
전력을
##보관
결국엔
중년
만들지
25일에
공사도급
음주운전
일상생활
결산
상원
수분
실어
조아
좋구요
##방법이
##퍼스
사람이라고
위법성이
2004년에
늘어나는
##규제법
##업으로
사업으로
상표등록
##킬로미터
경감
과세요
돌리
버스가
행보를
##ward
취득하였다
추가하는
피디가
미쳐
상호로
##사추
대학교에
만났는데
University
그이
남원
미마
카트
##공은
##온의
10시
뜨고
막걸
미필
비평가
사돈
할려면
8시
성모
##경기를
##백화
아이들에게
교수의
50만
부드럽게
It
단서에
이양
있냐면
공사비
실패했다
피의자가
조항의
고치
국공
꽃을
북중
선생님의
2005년에
데를
돌을
##두요
##orn
아직까지도
나왔죠
##등에관한특례법
난방
데요
득점을
콩나물
##안타
20일에
퍼센트에
##지니어링
공민
들면은
앞의
왕비
전과가
##님들
전투는
선임하여
실시간으로
다듬
말리
##가격이
##송이
양도하는
되었지만
연고로
토지등소유
밝힐
우스
장군이
짐을
내용들을
결정의
기능은
임명되어
종류에
캐릭터를
달성하기
전상석
간선
##코드
일부인
이해하기
고려하지
확정되어
100m
케이비에스
모델이다
둘이서
베이스볼
벤처
색이
조직에
제시하는
보였
그만두고
채증법칙위배
개별적인
효율적인
도의
성희
시레이션
플러
##무에
##사실의
보통의
음악의
지구를
6시
민심을
자리는
제46조
기간동안
바라보고
공방
명씩
최적
##관절
자백을
넘치는
옮긴
이언
총리는
보이기
지정하는
방향에
받으세요
돼지고기
그면
끌어들
문재
속옷
순으로
압니다
일날
좋으니까
##길의
기술은
여기에다가
sp
개미
막부
찾아와
하루종일
오십만
졸업하였다
안기
##히로
##롭지
이천십삼년
##운동에
증명할
말과
우파
##5호
신중하게
됐구요
버렸다
조인
중이
시간대
제41조
국내의
3번째
만의
##제일
##노가
##산면
단체를
금성
몸의
실전
##셨나
##입어
##온은
들어봤습니다
##청구가
당선된
대는
모음
문법
산하에
##대회를
근데요
일치한
돌아가고
대여한
수요가
덴마크의
Gre
깔아
세네
이씨
조광
##학기
##배당
진술서
상실하게
다친
붙이는
비중을
속한다고
영의
30일에
##단체의
특징으로
몰랐다
놓을
분비
성향을
신종
잡기
##버렸다
##규정은
베토벤
공기가
국산
스이
이데
자란
위반되는
가할
강조를
극동
끝내고
나으
들거든요
토니
하기가
2항
박창
반해
상상을
이심
쪽의
##께선
내지제
받아들인
활약하였다
불기소
시중
여우
##위탁
##르를
##계약상의
평가에
제70조
##으니깐
인터넷을
수단을
체인
##현과
000주
하셨고
해결해야
추진하고
무거워
가려고
군복
기요
나네요
든다
문서는
이효
##성적
2020
선고받고
정부도
예금계좌
용도변경
늦어
박현
수하
향하는
##업은
##민들이
##남은
##oll
상세히
은근히
놀랄
정문
제국이
지름
협의가
##하단
##시장의
##순에게
##별한
되긴
##형제
##폐기
에스토
넘나
몸에서
숙청
##지연
##침해
##누락
##올라
000명의
해보자
데이터베이스
예루살
now
바그
우체
유정
아파트가
내일도
부르며
해봤는데
골이
본점
구성하고
반대하고
넘어갔
어떡해요
실지거래가
레전드
만져
문서의
묻어
수락
말입니까
못합니다
프레스
한숨
##오니
##희에
얘기하면서
판단하지
##tit
마케도니아
제철
##실적
진행하실
상태였다
매수인
악성
외야
카드로
##는다고
##사에게
##으라
##테니
기재하여
기록된
1909년
루트비히
묵은
볼턴
봉안
신촌
참을
##붙이
##Hz
벌어질
어이구
2세가
Ste
관현악
액수를
포함이
기업을
마련된
근처의
기재만으로는
공무원연금
무을
세제
십여
원인에
한인
드러나는
예정된
통일부
공사는
동정
사관
키울
트라
##여름
이야기들이
발견했다
설립하여
누구에게
멤버로
신정철
부문에
용어가
이스트
##오빠
##티드
##직의
같은달
현재도
##과학기술
났어요
점으로
##로동
##하기까지
대통령하고
부인하는
포괄하여
AR
동향
얻어야
하기에
정책의
드리도록
CH
매카
민감
판을
예측할
심근
저택
아무나
중요성을
소론은
보좌관
기운이
국물이
성과가
열여섯
인사가
중국으로
증진
호에
##려구요
아니냐는
제2심서울
가자고
되길
인문학
보니까는
제1심에서
오해하거나
TH
김호
드레
완성이
일산
주문을
##원이라는
라고만
문화방송
무엇일까요
트로트
명이나
아즈
오르고
원더
##일수록
하나님의
위치하며
슬슬
용도와
참으로
##들어가
당시부터
트랜스
반발을
양식을
이도
퍼스트
##구이
##아져
##번을
##본의
불법적인
개화
예가
##대회에서
##싶은
##작은
##드릴까요
Ser
감동을
버리면
응우
후궁
판결결과에
필라델피아
손흥
십자가
아산
중기의
##릴라
하나로서
선수들을
당사자는
해주실
변제에
금리
때리고
빼돌
역량을
원유
의구
##상가
##열차
내용입니다
독일이
분포한다
조세법률
각자가
밴드의
쉽고
열일곱
작게
주셔야
추산
##관리에
것이어야
차용한
##oth
소릴
양평
진한
생각나는
주식회사가
건물과
채무는
제출하는
실패를
손실이
마리오
처해
##니치
##소방
##석탑
##별지
담당한
명백하게
050
국보
##림에
인정받아
직원들
방사능
되겠네
둥글
##더블
##답을
저희들
경제의
어디야
만나지
자부
트라우
원심인
무효임을
입증을
수분이
운전하여
공간의
##소유권이전등
이론이
일관되게
불합리
거품
거액의
박연
육이오
##비율을
##되다
##팀에
한다거나
않았다면
베이비
말씀하셨듯이
경락허가
심장이
주립
책봉
황해도
##법조
##브리지
제1목록
나타낼
1915년
미성년자
바나나
키운
터치
##르와
노래방
TO
김흥
지검
##인줄
한국토지
적용에
성립이
돌아갔다
외국어
근무하면서
오빠는
내부적으로
가입을
역임한
유상증자
나간다
모텔
부부는
불려
성인이
욕심이
잠실
##이백
##소멸
##탱크
##대상자
예상할
##가격에
거쳤
나죠
나면은
밖에도
배당을
증대
##보네
##임용
규모를
All
대서양
동요
모금
안용
준거
힘들지
때요
리틀
수인
유방
있더라구요
##압이
금융기관의
피고보조참가
공장의
퇴각
##냐구
신청이
선택하는
가져와
선진국
돌이켜
부대가
좋고요
##시키면서
비행기를
기여했다
대표변호
좋아하지
보험가입
대상은
관철
와카
이덕
파주
피트
##나갈
##EL
되었다가
##들과는
##내용은
됐잖아요
부기
세련
절망
제의를
##되서
하면요
제공된
남편인
영원한
유지가
이바지
지완
##스도
지원하고
오해하는
요청한
그놈
무관한
왕실
이쪽에
추정을
계속하고
변화는
이적했다
##계산서
도덕적
모으고
오메가
사당
서적
온다고
유소년
제1심판결의
하늘이
다투고
드렸는데
맺어
홍수
##상인
##으로의
채권양
리베
치과
타서
파출
심리하여
공간에서
커뮤니케이션
애매한
당당하게
엉한
용납
원장이
##세츠
상황이다
상황인데요
자기소개
자유가
나왔어
이익은
가져오는
##주택을
바꾸었다
요건으로
고생을
미디
선구
총회의
컴백
통증이
##하구나
##리터
시작하였고
시즌이
##대학교의
변제하지
시험에
제품에
##구역에
없었다면
##거리에서
불필요한
창문
투구
포럼
##양에
##직은
경우라도
효과적인
변제한
맡았으며
##커는
얘기했지만
부동산등기
##ism
물어볼
초과한
벗어나는
망인
열리고
지금까지는
16세기
스튜어
레논
##내려
##번이
사용하며
감상
뭐고
상류
이기고
친절한
케네
했었다
##시장에서
##토지를
지급하였다
시행으로
본회의
성수
##채의
##oci
방영되었다
위조된
이례적인
나트
속초
용도를
일년에
흥선
##날이
##검토
증거자료
엄마의
일치하는
작곡한
불균
약사
완납
점이다
초월
말씀드렸듯이
익숙한
과소
당은
##합동
##청인
출시된
구간을
알바니아
길러
물의
신라의
피고김
전문가가
떨어졌
조성된
사바
장점을
조속
##주체
것인가에
수용할
주목할
착오에
몬트리
원치
##ii
##물산
##암으로
제34조
가지며
사이즈
이용우
구금일수중
경미한
수납
심의를
일고
저격
해봅니다
##마치
피고인들에게
달러의
스파르타
자동차에
납부하지
사라져
##공무원의
언젠가는
6억
9개
및제
선에서
약관의
##삼백
##맛을
책임질
기대하고
특정경제범죄
등지에서
편곡
##커를
제1항을
반영이
선박에
시에는
쓰면서
원세
##터널
리그에
나눠보겠습니다
시켜야
건너가
14년
대니
소닉
안종
천오백
##레의
##율로
소송수계
고기가
네모
다크
받아요
온라
적에
가진다고
보상금을
1가
당부
때인
역량
##사원
##되더라도
##년도에
독일어
특허법
다는
마일
사는데
상호를
소유권의
국민건강보험
##비용의
잘못하면
결혼하고
힘들어서
피해자로부터
변수가
일대의
종의
치렀
지급하여
나가게
직원인
박보영
기관의
마오
말투
번식
##학적인
##매일
방법이다
걱정하는
다행이다
귀여워
공동불법행위
##어라
##조서에
##입찰
상고기각
책임지고
지배하는
김경래
구분이
장영
##해야만
재산은
제출기간이
##계획이
형성하고
음식은
아이슬란드
곡의
김이
수제
시민의
##원고가
ㅠㅠㅠㅠ
번쯤
심문
여기를
일컬
##무장
##광을
일반인
설명한
그렇지요
곳의
과격
단어는
시베리아
에우
제트
주겠다고
##식에게
##례의
##언의
대한주택
조사하여
설립하였다
동영상을
Op
Pla
뉴스에
인도는
##황을
##밤에
내려오는
##스테르
정하여진
초순경
공기업
국고
남경
부니다
추증
대사가
동명
살을
시멘트
신현
임금의
##비엠
##터미널
들면서
실적
올려서
유교
제3호의
고려한
다르다고
탄핵을
울산광역시
결재
결렬
매뉴얼
모서
춘추
##리니
##화도
좋아하시
제47조
학교법인의
과학자
부호
성적으로
손바닥
왕위를
지우
##시도
##환송
##포는
마천
보훈
장흥
재료가
현종
##기일을
##작성의
다니엘
부인할
급격하게
##째로
제3차
것인지를
폴란드의
좋겠고
##탄이
1960
프로그램에서
##ude
분단
죄는
했는
##분들도
##간은
선생님도
성격에
교통사고로
서명을
진공
국민들을
중요하죠
조선에
상대를
없어야
살펴볼까요
아리랑
기를
조에
퍼시픽
유지하면서
겸손
고아
데에서
##역사
##측정
조사는
범행이
마인드
가실
그릴
됐네요
저요
접견
혈중
정리하고
베란다
보았
정립
서울을
제2항이
친일파
나섰다
극한
대안을
땅콩
##평형
특허심판
형식적
주도한
이렇다
니들
동문
선교사
표고
##무로
##두리
1913년
실패로
##하겠다라고
간판
되풀이
싫어서
폐렴
폭파
한대
11년
내려와
지휘관
대게
동승
명종
신세계
자라고
파동
허지
##나오
##보리
장관에
예정되어
방사선
교대
현물
##완성
방법과
##신청서를
적법하다
결합하여
커피를
천황의
느다
선사
##지오
##평은
시작했으며
의하여야
영역에서
났을
우월
지문
청량
##예프
사건입니다
기록하는
##이라구
운영이
발표하고
받았지만
매입한
##증명서
하드웨어
냉장고에
쿠데타
2군
고체
동메달을
시끄럽
자판
폭염
##기라고
하고는
그리스어
리버풀
분께
연대를
카이사
##6호
프랑스에
흐름이
걸어가
높이기
동산
디제
버전은
사만
소총
송시
##요금
##버릴
빌려주
접촉을
마카
심히
중위
##미네
##바시
해석은
봐야지
수고하셨습니다
거치면서
가죠
만연히
미뤄
스노
잔류
초코
표면에
##가자
##술의
##각각
12개
계약서를
움직이고
파악할
가해자가
강정
의약
조승
줄이기
##균의
제3의
##ild
자녀가
교도소
##스포츠
귀순
별명을
상인
입힌
##도리
라이선
서식한다
몸길
무승
##현대
리투아니아
모나
분광
선생의
보내주세요
부산시
맛있죠
지구에서
구속된
On
도형
수료
패권
##래는
제44
알려지게
다르다는
아니냐라는
순간이
매출액
CE
사신
애도
휴스턴
##경력
##집으로
##목적을
법리오해나
공정증서
업그레이드
경의
치렀다
트라이
##테쓰
##오르
궁금해서
조세감면
성이
유시민
총선에
##거라고
관계자는
회사인
계약해
##나라에
##건설에
배치되어
고위급
이랬는데
판단유탈
가방을
박승
비자금
선내
운이
이반
##야는
##줬는데
판매하고
충돌이
##ake
International
간절
걸려서
대도
문건을
순회
직책
##치도
하였지만
측면을
1895년
들었고
세조
없으
현안
##초과
##ts
##디스크
##칙을
선거법
당사자들의
비밀리에
김성수
블랙리스트
계몽
광주시
규범
세관
조형
##시라고
10일에
살아온
지구가
불안정
조그만
강신욱
Tra
권리에
주도로
통증
한층
홍대
##하더라
아이엠
##운동의
연애를
ㅋㅋㅋㅋㅋㅋㅋㅋㅋㅋㅋㅋㅋㅋㅋㅋㅋㅋㅋㅋㅋㅋㅋㅋㅋ
패러다
Rob
것의
리뷰
받는데
손익
일심
##성장
##신가요
하셨죠
경영권
비상장
뭐뭐
정호
탄원
시작된다
지방도
##부동산에
막힌
최장
판명
##클로
##주년을
##거같은데
##봤자
판단됩니다
감독과
제10호증의
이곳을
600만
강희
박대
죄의
##EE
생산을
선정된
주는데
직장을
##식당
지도부
불안해
무자
손괴
없나요
##라며
##물어
조합을
어서오
수사기관에서
들구요
무방
연소
항의를
해밀
후지와
히가시
##치며
사용자는
##학교의
관계도
제7호증
대우를
묵시적
뽑은
화살
##문기
보여서
결혼식을
확정적으로
백십
향하여
##시으로써
##있으며
##래가
##옥이
사건이다
생각하기
근거는
기름이
3호
먹다
봅시다
생전에
이우
합당
하지만은
xxxx
340
교회를
봤거든요
살살
응할
##경위
선수들은
양도에
독립적으로
##등기소
개입을
범민련
프렌
피부가
##록에
##IG
상황이죠
이름과
대부분에
누구의
법제
순위를
일체를
잡았다
##문제를
모르지
131
공동피고
전문의
제69조
##거래의
의무의
거행
다쳤
맞았
식당에서
지뢰
총선거
##위해
##상당
##명세
##브의
##차원
이행의무의
##겠지요
##연합회
좋았어요
화재로
호흡을
성매매를
나타났습니다
영장이
유라
은메달을
종족
카드가
##층에서
대림
술이
허락을
협주
##라던가
##웠습니다
선출된
끼어
수표를
위이
저만
##스에게
도시개발
운전하는
스스로의
스트리
북방
원료
##예수
##스트의
선수이자
이래요
거지요
태어나서
팔레스타
공장에
권영
김복
노리
둔다
상증
양현
##스라는
##산성
##패로
##예를
한국으로
부정하는
절대적인
서지
체제에
관련되어
없어지고
근로자를
양도하고
파란색
찾았
##che
##변의
##팀의
올라오는
누구랑
건설을
입증하여야
플레이스테이션
##등처벌에관한법률
론스타
소장이
어워드
저축
저보다
좋으
##청으로
프랑스와
우승에
1세가
공단
눈길을
서인
오사
컴퍼
##씨디
94다
년부터
면적을
명세서
변하는
소관의
송정
오대
장시
##A의
##극장
nowiki
부어
오로
##세력
발전소
나무가
##목적에
Will
박동
징발
확신을
##가치가
있지만은
1916년
계시는데
묵시적으로
성희롱
넘지
철근
탄력
##고도
##복은
어렵죠
여자들이
목의
만들어내는
역할도
여하튼
과장님
사르
오백만
의아
총회에서
##파일러
##매도
##쪽의
##톤의
매도인이
법정지상
성질의
문화체육관광
생계를
움직이지
구천
비전
장제
##ner
지적하고
헌법이
있어야지
도와줄
ㅇㅇㅇ
의사표시가
바람직한
몸무게는
보스니아
놓아
수현
핵심이
고려의
형사전문
청년들이
단정하기
몬트리올
3학년
선등록
양재
엔딩
유부
친일인
##백과
440
경인
매실
채권자인
물품대금
##우주연
420
850
SL
개원
벗고
요지가
조무제
코스타
##제도가
##미애
##명의를
##웠는데
프로포
업무가
담보제공
미친다고
##차례에
잔디
접어들
팔일
##입고
시행을
에서도
목적물의
음식점
##롤라이나
Go
발목
잘해야
##해달라고
##상고
##키를
강북
마취
항암
##84
없이도
집중을
획득한
모르겠고
김한길
구타
보세
않으셨
재능을
##돌아
##아에
##관계에서
현실에
사기죄는
보려고
시와
의회의
철학자
쳐서
투르크
##건물에
음악은
##주식회사의
농단
딸의
버릇
보수가
##구니
##본다
위원회에서
2009년에
사라지고
미술관
결집
받기로
썼어요
연주를
피감호청구
##해달라
##절에
특허를
소유권보존등기가
수주
휴직
##앨범
것이다라는
사회는
의미하고
##지방검찰청
##라이어
##기재의
본질적으로
미처
앞을
트루
2000년대
이천만
설치할
자동차가
선박을
무서워서
이듬해인
7시
병에
요르
혁명을
책임의
진출에
대웅
먹었던
방면으로
##도어
좋아한다
기념물
지칭하는
선하증권
걸러
니코
대사를
등기는
볼리
애초
왕은
을가
구성은
결혼은
기온이
사기에
소행
신진
요인
줬다
##진다는
알려주는
등록의
아빠랑
##own
모르겠습니다만
갑작스럽게
##사추세츠
강압
개간
대교
원과
위치는
김정은의
##구역으로
이의신청을
이산가족
동력
연행
완결
주어야
충격이
##유는
##시코의
미카
사헌
것이요
정치권에
보이죠
유사하다
1을
농경
자립
협정을
##극을
이야기에
민주노동
가액이
은평
정렬
##원입니다
배상하여야
480
구청장
수행을
않으면서
에티오
짜고
카스
코치로
팀에서
##신도
투자금
형식적인
cm
동맥
법칙에
손쉽
청계
##진구
확인하지
존재한다고
공개합니다
참가인은
도입된
반복적으로
모른다고
신체의
애틀
##순에
##카라
증거취
국제적
##eth
##여자고등학교
부동
휘말
##인척
사용하면
얼굴도
그르쵸
초콜릿
허나
##테이션
##르바
##IL
조선인
##ene
형사상
공격에
농업협동조합
기소유
마운
사용되어
투자한
##row
안돼요
가리는
도호쿠
드레스
손상을
정하지
해병대
##덕이
##많이
아이콘
조세범
빌헬름
가시면
항생
##지라고
##왔다고
##봉은
위법하다는
구체적이고
800만
납세의무자가
과점
기적
분들에
선뜻
피겨
한테
##환자
많은데요
확인되지
이해관계를
급식
나설
전심
전후의
팀으로
##황이
제2대
않았으면
그중에서도
적다
트래
##새를
NT
개나
겪어
도미
리우
모레
불린
세울
##가슴
인수하여
전형에
항소심에서
##63
##볶음
문화에
비교할
지금까지도
변하지
역에
전동
##기본법
##정원
##크에서
##모에
판단하였으니
제36조
후보자에
보내주신
공연이
##대학의
노회찬
1분
CJ
글루
보헤
성에
않겠어요
호랑
##가중
##였나
비용의
기여한
양도차익을
고인
국악
남친
##하느라
##거리에
##근한
##하였더라도
선고가
경제는
원판결중
마을의
오른손
2000년에
맞으면
미납
서사
송치
수리를
조연
피아니
화물을
##㎡에
##침입
11일에
행정처분이
##적이거나
모델은
전통을
아파서
경신
본인을
옳지
해주셨습니다
오해하고
계산할
동의하지
Ab
리모델
벌이는
석조
좌석
##학부
말씀드리는
물어보는
일종으로
디저
의도로
한아
시설에
##바이러스
새겨져
본사는
선비
일용
작위를
##진호
##집의
##겠는가
피해는
비판적인
지휘를
거절할
용선
인증을
호출
기자들
분양계약을
그제
잔인
##조사에
이야기로
##ank
##tis
이래로
공시지가
지리적
수지
스톡
정용
코드를
##급한
##군수
당신을
기갑
민정이
옳다고
죄질이
경우로서
해서요
기록하여
출전했다
##아니라
요미우리
다해
법리는
풀어야
##원들의
##lo
변제공탁
친일인명
CF
사지
##MA
##유사
##안정
어디에서
말고는
여름에는
준비서면
다신
박수를
##74
##날에
##시키면
2010년에
라이언
채택하고
했을까
어찌됐
더블유
범인을
성적은
##단속
##lic
노력하는
평양에서
흥미로운
캠퍼스
뭐랄까요
전경
죽이는
아이큐
##되었거나
되어있는
대리점
충청도
Cla
더워
맡았고
배터리
절약
##현에게
나타낸
부과처분의
저촉되는
재활용
대회의
않겠다고
유세
조제
조반
##철을
##공공
낮추
부대는
숨기고
일했다
전한다
한해
합친
가능하다는
22일에
인용하여
공급이
##mm이다
도로교통법
공로로
물로
정반
조미
페미니
##방식을
##ww
##리스는
파기환송
가능한가요
빠져나가
고흥
내에서의
실버
않으면은
##라나
##담이
##님과
사실만으로
청구권
##사고가
월드컵에서
Ag
기사에
도전을
빛나는
산다는
시국
신세
지부
##회전
아니었던
다시마
전체적
위원장에
체결하여
삼십만
몰랐는데
오케스트라
구성요소
리치
못한다는
조개
코무네
##스컵
기초를
들어갔는데
5m
낭비
비벼
항고인
허허
##정산
##저가
##독을
제60
중앙일보
불복하여
주유소
##었네
##정부의
##오면서
토지로
27일에
소재지
365
쓸데없는
불능
오면은
피부에
##iam
##사본
재판에서
##사건에서
만드는데
각호의
단층
오하이
행성의
##라니까
##anc
내려서
많았고
무너뜨
이점
잊혀
출토
했냐면
차원의
틀리
##었으니까
사고발생
28일에
희망이
말았으니
김천
백사십
알기로는
사실만으로는
알아듣
무효라
진실이
사태에
입금된
실체를
자선
존슨
중등
##화폐
##희를
##마사
나타내고
대출금을
역사와
공무원으로
은행은
충돌을
##사우루스
1기
농사
살균
플랑
##수령
##화에서
##채취
부담할
이해관계가
영업의
분야를
Bar
갔더니
쓰던
중일
통장을
##표와
사망하자
26일에
미결구금
말들이
##가액에
##두면
얘기들
않았으므로
의원들은
##ans
조건부
형성하는
가슴을
지냈으며
2학년
국장님
보며
수두
특성이
##종료
##봤을
이상해
제한하고
방해가
장래의
다이아몬드
5년이
같으니까
수치를
##수은
##감의
##사업과
순차적으로
끊고
넣으
이유모
16일에
사진도
91다
##권한을
개요
부는
안중
친생
향상을
생각하게
증언이
영역이
자극을
라트비아
개관
국소
대놓고
전현
피에르
##오에
##길은
원고주
위반하는
하기에는
고민하고
보이고요
III
부작용이
이유불비의
대왕
설정한
안먹
완성을
있대
##장해
##브가
인정되어야
제안한
변명
잊고
죄책
유럽에
식품위생
겸비한
과대
군대의
외할
주임
하동
##서나
##매가
##린을
##객이
##회사와
이전등기를
추정할
##자들로
위임한
벌써부터
대위변제
면에
하급
형우
##셔요
경고를
당선이
협동
##ual
이천십팔년
경매절차에서
제국은
확정판결에
다치
맥스
창시
##복합
##씨와
직무수행
이내의
거시증거에
##숙에게
설립을
지도자가
당심에
세력의
착오로
계셨
공약을
받던
진료를
하마
##우에게
##했더니
##집회
##심으로
결정되는
참가하고
##ata
자세가
추진하는
##사용상표
예측을
대물변제
더한
막강
소니
작가는
##양식
##작품
시작했는데
한번만
17일에
이전까지
의사결정
납부의
때보다
않아야
어필
읽은
##락에
형사재판
권리범위에
##상황을
미나미
독립운동가
경험칙상
것만으로
발가락
손질
촉탁
표가
항산화
##호흡
##판단을
##하여서
가능성에
50억
시절의
건에
났습니다
확고
##철도의
##희은
##액인
판단하도록
저기요
##주시구요
가수로
어우러
완료된
꼬마
남부의
대주교
뜨겁
연두
예배
손해배상청구를
보수적인
위임받은
안정적으로
배제하고
조조
칼라
법령이
달성할
점포를
프란체
간신히
갈게
명인
##진단
##빈의
##레이트
채권자는
괜찮지
경쟁력
매도하고
참고만
서둘러
서쪽에
##더가
##안보
의견에
삼십년
침해를
미쳤다고
시가를
아벨
열여덟
##회수
##종과
##유도
촬영한
어음의
반에
입술
호가
##기적인
제51조
언어의
김구라
거라서
앞면
##제도는
##스레
##오늘
##육백
아마존
배우로
만들어져
어쩌고
마술
뭘까
벽에
재선
적성
##방울
##끈한
주식이
소재를
##선거법
모용
역학
##공과
알려졌습니다
##대표회의
상징적인
거세
꽃은
나이지
미토
이력
##주사
##아빠
##증언
##GC
##홀딩
대법원장
바다를
고유한
ISO
부위에
상부
신문을
심어
아껴
안겨
조윤
편도
##리얼
표현하고
##하시길
그림은
디비전
마당에
맥도
약정은
커질
##자다
##사이다
##거고
##김종
##불가
만들었는데
스타트
해외로
한반도의
이순신
가출
경에는
당국이
입건
##래스카
약간은
3년이
2003년에
맞추는
높이가
몰입
문예
미하
습득
아플
##추가
##족과
발생의
결정적
14일에
떨어졌다
특정하여
세워졌다
연어
총수
##드렸습니다
##암의
출신인
자꾸만
선언했다
##사령관
DC
각본을
반한다고
일시에
##태평
##린데
##시간은
전기통신
승리한
업무상횡
부근에서
문서에
써도
악마
진행된다
제95조
선의의
손쉽게
잃었다
체중
해남
##하늘
##있다는
##운을
##빈은
제200
하자면
새누리당에
공정을
교회가
다단계
좋긴
##질러
##국어
##co
행위와
떨어지면
##청원
도입을
수원시
원활한
수선
신형
자라는
태백
##해졌
3일에
기금
네팔
부지에
색다른
자랐
폐위
하원
##더는
이루어졌다고
시민단체
포기할
태양을
오세훈
##게이머
경로를
배는
시칠
실사
초신
치르
표장
##수당을
##승의
##화하기
##청과
##탄의
사용료
##하시는데
##주식의
제거하는
거리에서
모임을
반경
병으로
보한다
손동욱
##위원을
##민정
적용하지
것인지의
채무자는
하루를
with
끝을
말부터
상도
신체에
##어어
##장로
##갈비
##불로
이제까지
경우라
나와가지고
성립한다고
무효이다
행동은
사라졌다
감사의
위기가
지정을
채팅
##타케
##님한테
아니하였으므로
농지개혁법
내재
서강
자경
질량이
통고
효소
##스부르크
##해져서
##락의
친구인
만남을
기계를
속도는
초연
##조림
##루에
하는가
말이냐
제1심이
##심판을
부득이한
만찬
실화
##서기
##씨에
경우로
모두에게
##km의
위배한
신설된
엄격히
동남아
본부장님
가등기를
결핵
의할
일대를
페어
것이거나
##시키며
개혁에
4명
데리
먹이를
부에서
숙소
아녀
조처는
통용
흔적을
##린지
##란스
활동도
인출하여
가집행선고
윤성
##라라
위해서라도
했습니다만
자리잡고
정상회담을
알을
영자
탁구
휘두
##서원
##급에
판결에서
상고소송비용은
나오신
신분으로
올드
이범
장마
하든지
##너의
##한다거나
변경하고
범죄사실의
힘든데
##상호저축은행
말로는
않구요
##당당
##덕의
##혈관
##DS
21일에
어머니와
제한할
강진
먹었다
일식
천도
##여대
##은이
##RO
##현동
##병과
경우라고
기본이
알았지
발매했다
임명된
고운
손녀
수목
썼습니다
욕설을
적힌
##노프
##때까지
##그는
제47
자유민주
대상에서
분위기는
매매계약은
지극히
아날
안드레
적자
개인적으로는
확보하고
개별적
신체적
녹음을
높이고
데스
애정
웃으면서
##연속
##타리오
공동피고인
위반이
임차인의
세력들이
지연손해금의
오스트리아의
Mo
농도가
덩어
돌리고
듣다
미치게
빠졌
서산
##두로
##냈고
제기되고
부당노동
사실오인이나
가겠다
기입
두번
##자스
동안에는
행동으로
전형이
장기적으로
강우영
SH
범칙
세상의
아십니까
##등과
##필의
##섭이
생겼어요
방해하는
미북
법에서
사리
세습
탄탄
##디언
##않고
설치류의
개정되어
옛날부터
직무와
넘어가겠습니다
Ro
겪게
곡입니다
골절
동쪽에
딸과
불태
어수
총기
##우치
##네의
한국철도
생활비
승소판결을
GS
편견
하냐면
하겠습니까
호평을
##파리
##채는
시작되어
23일에
근로를
일치하지
일어나자
시절을
진출하였다
지휘하는
보조금
천정배
급수
기계가
살아서
숨은
위에는
진해
##인간
그래프
활용하는
스케이팅
화석
##지시
문제죠
##주의적인
확인되었다
선거인
당하여
무더
불화
정관에
정교회
##적이라는
##잖어
##통장
자기한테
달라서
분할하여
게시판에
제347조
경복
산하의
울릉
##주면서
##동성
##개설
##표로
아니었어요
결합된
일으키게
마하
왕세
태우고
##성실
##으려는
사용자에게
보내야
시민이
이론에
들어보도록
호텔에서
실태
장에
정순
주위의
##자동
##층석탑
언제쯤
김소영
1동
백일
을제
##되기는
처분할
신청은
나기
다발
버거
총대
##정기
##달을
예정이라고
여기까지입니다
소요된
용인시
6인
발명이
##위원이
##청산
계속할
언니도
##조건으로
어떡하지
년째
민심
##리크
구조에
올라가면
고양시
자전거를
만나보시죠
16년
내다
문경
진성
##제국의
##상업
##판과
만들었던
18일에
선수에
거니
소아
신분이
퇴역
어른이
김어준
네이션
북부에
자자
중형
##8호
##개는
나왔는데요
공소사실이
주주총회의
수록곡
않겠는가
EC
들으신
렌즈
집안의
##학과를
모르겠네
합의는
제작되었다
효과도
비판도
지하에
2배
대손
동명의
정벌
##원칙에
##모스
##red
포기하는
보관하는
노골
불로
안되고
어항
주위를
사업과
단체로
종류는
영등포구
Cor
가든
가늘
군용
나주
다항
많으신
##원들
파이브
그늘
불완
이므로
장동
재외
지목이
##바가
##보호에
##부가가치
##천동
다음해
업무수행
우선변제
##km이다
단계가
컨설팅
공문
관례
굴러
배웠다
붕어
애는
##받기로
행정처분에
이때는
곤란하게
비핵화를
갈음하여
러시아가
라마
많으면
조세의
##슬리
##절차개시
불법으로
종교의
검색을
카메라를
성실하게
신선한
그램
두게
배드
수장
##하르트
##됐으며
그러더니
발견을
사랑과
이행불능
##선거구
전문가들은
취임한
전망이
사립학교법
고발을
변한
##팀인
##귀속
##ha
삼십육
고객이
##파이어
4세
개씩
바실
스태
조흥
##건가요
##재건축
사업부
이천팔
분류된다
매매계약서
거느리고
밤을
으으
주가가
최용
##하더라고
이상하다
어나
자책
정병
지식이
##창에
20분
토지대장
이루었다
요구했다
물어보면
송구
아크
회합
##중기
재산상속
지나는
피해자들의
설득을
법정진술1
2루
5일에
관상
시신이
##선고를
##51
##통은
처분으로
누구보다
표시되어
수익이
이동하는
뿌리를
의율
중점을
부터는
##보험료
장난감
중반에
창원시
죽음의
압도적인
##판에서
##망의
제출하여야
채택된
확보할
제11호증의
기리기
넘겼
도청
모시는
생체
일당
잡종
정명
제천
##라기보다는
원고와의
이제야
12일에
프로게이머
취득하였다고
운영되는
##셔야죠
사례는
ㅋㅋㅋㅋㅋㅋㅋㅋㅋㅋㅋㅋㅋㅋㅋㅋㅋㅋㅋㅋㅋㅋㅋㅋㅋㅋㅋㅋㅋㅋㅋㅋㅋ
중순경
수량
알리지
투자가
홈쇼핑
200m
사용하던
결정하였다
13일에
여성과
질병의
방사성
강과
효능
##일체
##야가
만들었고
행정소송
위원회에
쓰러져
라우
모티브
못하였다고
이조
총체
강력히
마무리를
내일이
단국
오셔서
팔이
필스
##전까지
남자들은
대단하다
순서대로
유류분
Am
매사추세츠
생명이
시동
칭호
하진
화제를
위원회는
임시정부
에스엔에스를
국가유공자
순서는
시점을
실세
##구합
##관리를
단체에
차례의
스미스
최경환
경질
구한다
모신
칼리지
홍보를
의원님이
ㅋㅋㅋㅋㅋㅋㅋㅋㅋㅋㅋㅋㅋㅋㅋㅋ
예전부터
Char
급증
발원
빠뜨
안면
안테
애덤
한결
##들인데
##마한
분양전환
과태료
내밀
요크
차원이
키는
풀어주
##자금의
##등하게
##경우
위해선
##시키거나
교수와
출신이
갖추어야
머릿속에
냉전
선풍
영어는
유난
의상
필터
##요청
##택의
##츠키
사망하여
대사관
박재윤
제420조
피보전권
깔고
사춘
신곡
조화를
##기압
##53
상황도
##enc
성질에
강철
삼억
연꽃
자금의
절충
점에서는
진수
분명하지
매력이
접한
주권을
추종
회로
##사업자의
최고위원
##텔레콤
카자흐스탄
5번
개교
거보다는
됐습니까
물류
백육십
병원의
불리고
정두
그러더라고
방송은
느낌은
불이익이
찾아가는
370
가봐야
던지고
미합
아담
학자들은
##청구소송을
어려운데
평화의
생략하고
입단했다
바티칸
상봉
실형
실존
안마
자재
재일
##양으로
##오와
##각의
20만
경기에서는
동일성을
##소유의
##의무는
Pa
출금
터진
평을
특별조치법
해결될
상표는
소론의
기반이
예외적인
신빙성을
##만인
##우만
##주머니
##대위
##쿠버
전환을
##요건에
논쟁을
일자리가
기상청
##ology
두렵
몇십
쓰신
애들한테
의회는
이근
추경
칭호를
형성이
들어가면서
부족하다고
정체성을
www
비는
열리
예시
이연
입에서
##버러
##개에
문제고
11시
이러는데
시대는
전략이
보조참가인
감안하면
대대적인
Sou
구릉
누진
다방
배터
인류의
크기를
##나봐요
되는가
건축가
##ise
승강장은
것만으로도
놓치지
장사를
##우며
정도라고
중요시
부담하여야
##피고인이
민정수석
시금
차이나
하하하
현상은
##이후
##US
기간제
보증금을
끝나지
##근로기준
강에
##파인
의미에
결론적으로
드라마가
부정적
반영하는
감정의
딸로
##과장
증언과
넘어간
김태우
간격으로
지령을
##기밀
##광이
만들게
보험료를
당연하지
공공기관
베스트셀
주재황
하인리히
남부에
박순
알렸다
월남
책상
출가
하거든
홍익
도시에서
위험성을
장소는
엉덩이
Ke
개정을
슈팅
오산
이들에
지오
확충
##해왔다
업무는
소속이다
김정은이가
가가
되기를
살에
이쯤
잉여
회화
##아트
##아메리카
##살인
자기에게
평가하여
등록되어
파기한
이행의
공간으로
텔레비
물질의
도발을
작센
장군의
##A는
##토지가
##중독
반대되는
청문회를
납득이
유추적용
ID
NBA
따를
싱크
여자의
잔혹
##업자의
발생된
두꺼운
2분의
교역
되던
사살
팔팔
##위도
##de
관련성이
주택이
2002년에
##직할시
갔으면
부위를
##디나
말씀도
현실이
부정할
컴퓨터에
일으키고
같던데
담아서
별칭
심화
암이
양병호
취하여
타카
##공주
결혼했다
310
대학교를
임차보증금
##문제연구
정태균
520
Gu
구구
권총
전년도
하단
헤헤
홍삼
##52
세계대
적용되어야
오해가
환경영향평가
우즈베
6일에
7일에
랜드
확정이
##제에서
##회관
받아보
관리비
에스에프
광해군
남미
앞세
와도
이삼십
짜리
##ink
구십오
날짜를
mm
명단을
스텔
전례
##자책
##부인과
##마크
##카페
선고일인
통상임
치러진
560
넣어요
봤고
성심
안재
제주시
지에
##있으면
가지고서
이름만
시즌에는
유효하다고
피보험자의
기일
박형
신청곡
올림픽을
##스러울
통과가
망원경
col
박병대
보이나
본다는
설계를
임직원
철학을
최승
##돌을
##라라고
대표적
대법원은
제공되는
name10
국회의원을
천구백오십
소통이
패배를
안용득
논리를
절제
함을
##전사
##블릿
##점인
드라이버
궁극적으로
법인에
입출
주주가
회신
##증후
수학을
2일에
가압
문구
선장
피신
##구조를
##린다는
##통상
##맥을
정부에서는
자세로
마을에서
오하이오
날아가
물권
상원의
줬는데
##하로
20대
생각해야
한국사
신청하여
24시간
권리와
950
갚아
덕에
함께합니다
상황들이
이름인
지나간
290
실시할
포괄일
어울리
비중
오인하여
불교의
일의
##근에
##링이
29일에
공유하고
참작하면
2호증
8일에
Ass
난징
상큼
해상에서
##벨트
범행은
명확하지
92다
괴물
비린
행사는
화상
##대조
##편성
있는지의
원고김
회사이다
직원들의
포기하지
베트남의
증권거래법
목소리도
무슬림
As
be
금감
쌓은
통계를
##시즘
그런게
채무자인
독립하여
하루가
인사들이
음반의
귀속되는
참작할
AK
루스
야쿠
탈당을
국회는
##법인세법
없었으며
데모
미련
순서로
이춘
초음
##유키
##필지의
제37
생활의
선택이
원칙은
같습니까
심층
얻는다
업계
우에
이끈
진다
대법원이
영국이
대외적으로
펜실베이
걸리고
##지잖아요
##치사
##카타
정동영
구백
돌리는
바늘
배치를
윤주
혁명의
##들어서
사용수익
##관계로
절차는
시리즈를
평생을
특정경제범죄가중처벌등에관한법률위반
강용
났는데
되네
보시기
피하고
##빈이
##다음에
name9
법인세를
편입된
기소유예
Je
그쳤다
기만
기쁘
업체에
##수신
##조작
##예약
진행되어
또래
미즈
오억
전자의
포스
##주거
이정현
유용한
3가
백종
승합
제독
##덕션
친구의
고려를
의료법
지켜보고
제1심판결이
다같이
못지않
세일
이학
##시타
##세금
##국적
##장일
인간에
똑같애
과외
구운
뚜을
반사회
본부장
섬으로
조류
##풍의
##통화
##슨과
분명하고
연락주시면
궁금하신
체포되어
넣어야
변해
여가
##바흐
##표지
##압을
이에야
위원으로
스타일을
떨어진다
국가대표팀의
시위가
토르
##균은
상표권
##징수법
발음이
벗어날
소상공
속이고
직원으로
##워야
##가공
##지점에
##들이고
이거야
지급에
했었는데요
4회
규탄
문무
##시기에
##행위라고
반환하여야
조문이다
업무상배임
걸그룹
되실
오아
##어이다
##들처럼
##9호
설립했다
남편에게
과거를
##피고가
##지역을
수용재결
부가가치세의
IBM
가보겠습니다
도화
라파
요소로
잎은
##이행을
아니하나
위해서도
비교하면
##조건의
추기경
BC
낙태
내버려
순찰
편향
##거에
##채납
##평론가
관하여가
조선인민
##처벌법
됐었는데
버전이
시즈
제시를
##측은
##하기만
보고가
제43
##업체인
결성된
격퇴
곡이다
기고
낳아
단가
여진
오비
을나
하청
하튼
##자였다
##미도
##매체
사용되지
특별하게
가족들은
산업의
방지할
양반이
금산
로도
설도
외래
주선
##아찌
##셨군요
##층으로
##갔다가
문제들을
삼성전
증인신문
400m
조심스럽게
바르샤
과목을
병과
추리
힘입어
##줄을
##연습
##복구
##저지
스스로도
##itt
하시기
개시된
집합건물
참나원
나영
##여부
##옥은
대표하고
민법상
볶음밥
가네
드셔도
연일
일리노
##54
프로레
불법행위가
##기준이
##채권과
##가능성이
구멍을
숨겨진
개축
명할
##게이트
##실업
##목적으로
사망으로
앨범이다
카톡으로
에스파냐
Har
고문을
맞붙
유감
잡히
체질
초중
##물질이
분야가
필수적인
날카로운
##ll
이루지
저기서
불리하게
국토이용
380
7개의
갔다고
부지로
여지도
의과대학
지평
##이성
##록이
##택이
교수님은
##생활의
##가격의
이성렬
가정의
봤으면
송도
어긴
종은
##83
역사에서
스트리트
명백하여
심판청구를
구십구
##rans
4일에
글쓰
되세요
마카오
미상
속에서도
옮기는
왕을
인상이
전해주
원심에
평가하고
의사소
파이널
낮다
버터
세력은
휘둘
##이기는
##73
제58조
여러분에
남북한
마찬가지입니다
콘스탄티노폴리스
갑시다
배종
만나기
선언한
활약한
해지할
곳곳에서
따지고
입성
##셨는지
##커니즘
##꺼야
국민주택
##ames
교수님께서
벗어나지
희한
##과세의
##운드를
##봅시다
기술적인
공격할
진실에
포괄적
아날로그
분출
전권
허니
##조한
##소장
##저는
##각은
생각하면서
1930년대
동의한
앨범의
임차인
기반의
이완구
관리처분계획
분화
서두
언어가
##아스
##으려면
##항과
확인하여
방송사
보내주시면
퇴직한
보장하는
##받았으며
보여주었다
SU
멘토
양쪽에
조재
##기게
##해상보험
##92
##크림
##계약에서
보내서
선택에
비판하고
발언에
삼각형
프랜차이즈
도련
먹다가
파도
##혈을
올라간다
충분하다
보호되는
전환사채
세력에
어의
와일드
##기보다
##주어
##명에게
##혼을
등록번호
음악과
하시니까
예비적으로
##공무원이
타당하다고
3명의
Bla
꼬리를
농지의
많으시
통제를
##규약
제3회
국가나
법령을
월드컵에
고객의
기부채납
무리하게
거든요
도널드
베풀
퇴출
##대장에
##희와
과거사
받는다고
등기소
우승하였다
산정하는
자동적으로
김형기
디스플레이
근린
만원
##LS
유사하다고
담보권
기관을
여주
이닝
필경
##und
중국도
당심의
동등한
미군이
심재
##공연
##포에
지급명령
여부의
게임에서
무효이고
##ㅎㅎㅎㅎ
가르치
자격증
내비
이보
첫사랑
추단
출석을
##행동
##맞아
상황과
그다음에는
##리스의
성립되지
상황이거든요
하겠다라고
구나
들게
엄지
조원
예정인
파이어
##분야에서
정윤회
르네상스
연희
이서
일한
##조사가
아내에게
그룹을
종류를
1894년
준용되는
내포
맞는지
형식이
##같은법시행령
인터넷에서
700만
닌텐도
걱정은
맞습니까
부제
음향
초범
##송을
225
기다려야
방어를
성능을
국제적으로
오른쪽에
시각을
줄어들고
수다
의욕
##다녀
##남에
사건들이
존재하며
제한적으로
인용할
요청하는
떠나고
거네
건전
경위를
공교
벽을
붙여서
장면은
형인
##제곱
##ius
##자에게는
개념에
넣어주세요
사업시행자가
3위를
늘어날
때리
익혀
해병
##파르
##것만
##점용
##웠어
체결하는
##손해배상
상환을
겪었다
북위
안도
정읍
##공부
##잡니다
##먼은
돌아간다
지원해
집행이
너무나도
님의
맡았던
안상
얘를
운명을
종으로
해할
##저를
않는가
과학적인
밝혀야
곱게
도끼
독창
된단
문구가
안에서는
촉촉
혁명이
형질변경
##정화
##한다라는
고소할
##이익의
공소시효가
남들이
드렸습니다
서귀
설레
의학적
##추지
관리할
설립되어
러시아는
입금한
체계적으로
오토바이를
걸려요
말기에
전영
##익은
##모어
##ble
##귀를
얼마만큼
친구들도
부문에서
로스앤젤레스에서
갈려고
강화를
봐봐
와의
장안
##하거든
##얘기
기록해
한번에
##ins
떨어지게
경험에
학년도
##ult
##부동산의
성실히
sh
기소를
직통
##구나라는
새삼
여길
##드위치
##명인
##쪽은
##님들이
하는게
수사는
과세처분
위협이
설탕을
선순위
섬에서
오시는
친인척
##na
##처에서
##킹을
100여
갱년기
3으로
되살
법정이
선우
##공작
행정소송을
이사장이
의뢰인님들
김병준
이준석
##ife
김시
상에서
입었다고
전주시
짧고
타지
##일반
##일이야
지급받지
계약체결
재산권
참가할
공격이
침해한
마스
종전에
해준다
##르노
##조세
기관에서
보냈는데
견과
국영
되니
못했지만
별은
비켜
소변
전구
좌표
회부
이분들은
서식하는
분들한테
쌍방의
정면으로
##기이다
##지분을
##소리가
상속세법
스페이스
그려진
공구오일
등극
미미
비아
수개의
숫자는
외신
##었으므로
##레트
24일에
따르고
교통사고를
##방법은
적합하지
유가증권의
같더라고요
날의
단점이
싶었어요
할라
환전
##통보
성공할
반영한
1인당
반성하고
주택건설사업
견딜
결별
돌릴
맞출
##난을
19일에
부동산매매
알려주세요
지구와
대비해서
받으러
북쪽의
불합리한
걸까
남성은
동종의
상자
유지담
##기재와
2천만
도장을
롤링
부인은
손잡
시선을
연호
제치고
코오
현관
##온을
들어본
정도였다
제2목록
함께해
실패하고
계좌번호
##받았다는
출발을
##시험에
저항을
얼어
음이
자야
##면직
이천칠년
제61조
오랜만
싱가폴
펜실베이니아
도산
떠들
보수의
즐겁
##캐피탈
지급받는
30만
사십팔
마을이
통일신
횡령한
아님을
깨이
일케
투수가
##정동
프랑크푸
석가
습관이
원서
재화의
##열대
아이들도
##되었음에도
행정처분을
런던에서
장모님
교실
미라
여관
주동
흡입
발생이
자기앞
우리나라에서는
생산된
집안에서
1학년
기법
도리어
민심이
여건
자칭
정승
##인이나
이유의
공급한
1년이
긴장을
서장
한류
##트니
##애의
시작은
시즌의
다르기
재량에
같지는
덕후
디렉
바를
박철
질량은
초빙
##위원장을
남자들
##형법정
급격한
##화재해상보험
##고쿠
##줘야지
우리끼리
입장입니다
출연자
수준에서
근저당권이
주도권을
스튜디오에
머리는
박선
삼천만
의한다
했거든
흉기를
##바리
##척의
있었나
역시나
피의자의
어른들이
프랭크
5개월
사토
쓰기도
최지
##분해
##매치
##플러스
##벽에
활동과
가져갈
줄기세포
명심
복숭
##는다는
##인이라
출전해
받아들이기
유래한
밀어붙
사단법인이다
가오
내전
뭐하고
전면에
##더를
##조종
##쟁의
아이언
민주평화
채무자에
그룹에
진보성이
이백오십
오인하거나
승계한
첫째는
되돌려
넣지
북경
신영
쳐들어
피츠
필로폰
회장으로
##선도
203
인정해
제53
제2호에서
정치권에서
대주주
요소는
욕설
한남
##고와
경찰과
도로는
##이익이
여겨지고
반항
복역
서원
쓰였다
임명을
총칭
취업을
##하천
성립한
경영에
매출이
세포가
등록상표와
점검을
평상시에
독려
시위에
오자
통째로
##기에게
##대서
##부령이
##ute
##데라
##그때
들어왔다
구성에
보이기도
김일성이
질환이
미네랄
구이
아삭
열차를
온타리오
자생
하더니
##지거든요
##거다
##팔이
보여주세요
참여하지
제96조
바빠서
5세
각국의
빠져서
지점을
축출
##록의
##겠나
##점도
조사하고
실제적으로
형태에
부합하지
규칙을
개헌을
사법경찰관
맡기고
목적인
용접
작성을
##거면
##거니
##실장
그랬고
개최한
준우승을
대표변호사가
1조
광양
농축
누워서
법안이
봤지
브로드
월급을
자르
제법
철폐
##증여
##렸다가
의무에
공유하는
2011년에
##사건이
천구백사십
혐의에
중추원
결심을
달리고
담합
뜨는
발동
어묵
체감
##여성
##ition
##현실
활동의
기업인
그룹은
인천지방법원
선임된
le
가정에
결선
글리
발트
임마
포용
##가들이
##없다고
##ark
금지된
확보한
성격의
공직자
친구들이랑
등장인물
내역을
번님
의전
팀인
호전
##식도
우리은행
하나이며
아니라서
프랑스가
교체를
탈환
##수육
##민과
##신과
##판결은
이전에도
부모를
컴퓨터가
근저당권설정등기
지체상
FA컵
탄수화물
대령
봉건
읽기
차차
층에
##파이터
##석에게
##놔야
외교적
남쪽의
성향의
경위로
군정
까먹
보성
불변
죄형법정
해약
##네시
##추를
그렇다는
선고받은
방법의
개발사업
은행에서
벌어졌다
도시계획시설
공탁금
교회에
넓고
능동
복리
철도의
##이러
##시나요
##됐지만
##시키기로
통해서도
느끼지
출입을
베니
복수의
소고
요리가
##번은
필요경
부과처분에
하시더라고요
참석하여
부유한
웨일스
갑이
되서
약이
만들려고
재판부는
부과된
지도부가
데뷔한
트리플
제네바
기소가
뒤의
임직
처가
##시장에
제4호에
행정소송의
제출하였다
이라며
성공하였다
없었지만
형법상
기재내용에
2명의
개선이
김효
동점
동백
위자료를
조준
종착
퇴거
티브이
##다오
##했단
##캐롤라이나
아니었고
사이타마
직접적
독립당사자
##하던데
뭐라고요
공정거래법
##행정소송법
민주주의를
전역에
불명확
모닝
절친
정청
죽어도
헤어진
##우로
##익에
##소이다
##93
정당성을
##ener
활용한
갚지
구내
도리
동액
벌여
설정을
의례
정국
출구
흑흑
##인지에
##반은
##풍으로
규정함으로써
감독에
다니던
정황을
국무총
5시
따온
무죄가
편히
##로니
말씀대로
원심판결중
##해주면
발언은
범죄사실과
하늘에
460
장단
제니
지점이
집단이
##TP
원고이
있어서요
##지역에서
들어오게
Her
과감하게
내면서
노리고
초당
통로
헤라
환기
후안
제가요
존재했던
내려온
관하여는민사소송법
CON
라인이
작사가
좋으면
직할
탄산
##일도
##61
일본도
건축을
##신청의
가족에
독일과
##변경을
5년간
김창석
피청구인
높다는
애완
중인데
출소
##훈장
민족주의
보태어
Amer
공조
날도
아들과
절감
해의
호세
##아프리카
##속도
##날을
##편은
##브는
이십대
동일시
관여하지
허위사실
무게를
액면금
슬로베
놓인
눈은
대청
##우선
##패스
##증권에
규정에서
소유권이전
생각해도
ne
가정이
미노
##필이
부분에서는
확인해보
업무상의
왔다갔다
콘서트를
강서구
신통방
다해서
되겠다는
엔진이
이보다
해온
##맞는
##조항의
##유로
그니까요
우선하여
알았더니
편입되었다
##근로기준법
구부
대본
레시피
찍힌
철강
##국제공
제4항의
위원회를
작성하신
취소된
요구하여
중심기압
민족문제연구
그르니까
승부차
교원의
레바
무성
살리
삼인
##가량
##희이
제1점
모르겠네요
친구들과
인터내셔널
부모는
서울특별시의
페르디
노숙
소울
송환
저소득
죽는다
##아와
##싶은데
##야야
##순을
사건에서는
좋아합니다
세계로
역시도
이루어졌고
성우이다
핵무기
Ac
개개의
구라
보셔야
상트
##코쿠
##커의
##pt
오십오
김치걸
각서를
돈만
막아야
밥먹
부결
살릴
양상
##프레스
##자산의
##지어
##과에서
##학교에서
##부분과
업무집행
제보를
피는
##엔터
##하는데요
기록으로
조사할
관심과
복귀를
가나가와
뜻에서
빼는
연못
주니까
집결
##앞에서
당시를
있다고요
18세
인정할만한
1959
등장했다
##제한법
공항에서
리포터
당국은
바짝
온도를
존스
즐기고
##한데요
##무스
프로에
등록서비스
내려진
투자신탁
부지런
도메인
노선의
다문화
마린
변재
##단계에서
##군인
여러분과
상호간의
##90원
##테르부르크
3호증
교류를
중견
진나라
참치
##포트
##면은요
2012년에
결의는
넘긴
묵인
세비
하자를
##수상
##나온
##모습
우리집
이름에서
것인즉
작성하는
가족관계
제60조
남북정상회담
예술의
##베르토
전주지방법원
광범위하게
기준시가에
공세를
법치
융통
진군
##클랜드
##부르
상황이에요
법률관계에
제4점에
최초에
계산에
없는데도
와이파이
형사고소를
관재
대국민
박희
아을
저절로
죄책을
차에서
필드
할래
##있음
마음작용
후보와
권리남
있으실
늘리는
성악
옥스
전제한
##억이
##못해
주장원고는
##ㅋㅋㅋㅋㅋㅋㅋㅋㅋ
중앙선을
경상남도의
권력의
보셨습니까
권력에
원격
##나에
생각했을
##비용으로
취득에
##조건이
##ash
클래스
농사를
명분이
무를
사거리
시공사
잘게
##나기
사회상
개발되었다
회복할
겨울에는
최저임
네오
소행성
오너
철도가
컬럼비아
##일용
##사태
##보시면
##터에서
정의에
구분할
제거하고
없애고
됐건
믿음
붙는
탈취
##원숭이
체결함에
그리스도의
증여세를
##정비사업
백두산
배기원
고창
전치
틀을
교육은
나섰습니다
교리
놓았다
번갈
파열
##마쓰
##센스
후보들이
제8호증
처리한
드러나고
##스럽지
납부하여야
칠십오
주주명
승무원
720
강하고
서는
추론
확대를
내용이다
정치인으로
##계획법
도입한
일시적인
가산금
Pe
격투
국밥
김범
대하는
대선에
소구
펼쳤다
회장에
##천은
##쳐야
##하다라는
무효를
벌금형을
타이틀곡
기득권
Time
성관계를
시초
월차
절실
차근
판단원심은
##계약서를
##이라던지
선수들의
만나야
거기에다가
이명희
명시적
개성공
##버스터미널
우주에
정글
제인
침수
정당은
주민이
논란의
원활하게
앞장서
불규칙
오차
와서는
조르
케냐
##받으면서
있었습니까
회사들이
이야기들을
의뢰인에게
마련하고
새겨진
녹아
상단
순교
행성이
헤비
##우이
##출판
##작의
송달일까지는
조세포
김진태
게오
방한
보장을
부리
불일
선종
영산
온대
자막
##82
##타와
부과처분이
시민들은
변제기
올랐고
의사표시의
##드라고요
RNA
고엽
말했던
본사를
양도로
왕위에
타당한
아이치
선수이며
결정된다
이론의
##ower
일리노이
비노
비평
순자산
##81
##CS
##났어
재판부가
되어있다
자연의
3루
귀착
멋있는
볼만한
수단과
워킹
죽지
##타니
프로리그
선언하고
증가하는
음주운
Gra
격차가
라인을
미르
안은
주진
##iti
##하와
##준다는
말씀드리겠습니다
수익자
유무에
테스트를
3칸
성완
조폭
카바
##갔던
그러하지
어디다
약간에
기억은
실시하여
제주도에
해보도록
도시계획법
원천징
2기
육수
정미
페널
##분열
##그든요
특별조치
행정부
저질러
그레고
해수욕
달려가
순위가
카테
특사
해인
##있었다
##연장
##예산
##링크
보니까요
과세처분은
결합되어
교황의
해운대
초창기
가량의
글래
불투
쉽사리
싸고
쌓인
원리를
평평
협상에
##왕조
후보자를
비판했다
일방이
줄어드는
1이
9일에
김학의
레슬링
수당을
이들에게
치른
펜션
##미트
##언스
과세대상이
##법인에
소득의
진출했다
도모하기
부회장이
권오
능력에
담가
말합니다
빌려서
안락
외부의
우엉
조양
체제의
학회
##밖의
대체할
좋겠다라는
과다한
등용
서유럽
손목
한영
##중지
##형사
이야기입니다
이루어지게
돌아가서
야당에서
정유라
구획
타면
화제
##눈에
기재하지
보여줘야
자유주의
제기하였다
지지율을
음식물
세워져
틀림없이
고대로
근래
포커
##견은
12시
주택법
다르지만
출전한
편안한
그친
못했어요
반반
실행을
옹립
황해
##물고
##그릇
##팀에서
얘기합니다
변경한다
지적했다
서영
열병
일부터
##교동
##그럼
##에는요
보내주시기
개인회생
건강보험
안정된
분리된
93다
지어졌다
과반수
1선의
그치는
담을
석회
신약
요가
##상여
##예비
제2호는
000달러
나왔지만
경영의
상품이
노동조합이
아파요
밴드는
빠지지
지분의
촉발
##토론
##표현
##way
##없음
문의사항이
보긴
요동
##자리가
##해지면
##환에게
##실명
원고소송대리
가능하면
제46
하셨네요
극도로
맛잇
사형을
생명의
안쪽에
찬반
투옥
효자
##하키
##됐죠
나왔다는
표현에
특정할
지냈고
비정상적인
국선변호인
에스토니아
Res
넓혀
증명을
##이자를
##든데
##소니
아빠한테
물건에
스트라이크
친일인명사전
문서가
삼백만
열악한
정상을
피우
##3의
##EM
들어서는
이용되고
등록한
대역
보라고
칼이
피시
##헤이
##able
모차
묘지
정은
특기
##합시다
##량감
사실이나
다양하다
나온다는
##해주시면
상담해
아프다
순간적으로
매일매일
저한테는
나폴리
불공정한
국가정보원
박일환
430
기자는
남과
중수
차한성
##민에
##저의
##곡리
사랑하고
작업은
만족을
채널을
예쁘다
김지은
꿈꾸는
능력은
씨제이
일는다
풍자
흥미를
##배치
위치하는
##재산으로
분석하고
않겠냐
마십시오
우왕
잠들
크레이
패럴
##작이다
소유자로
사이트를
스파이더
가등기에
돌격
무대로
유급
트러
##생들이
##관세법
중심지는
조건은
무언가
폭력행위등처벌에관한법률
금원은
비추
세금이
지원에
탁월한
##치상
##했느냐
새누리당은
2001년에
사문서위조
낙동강
나으리
극장에서
통역
##타경
형식상
시키면
전제에서
뇌물공여
대표이사가
것부터
괴로
동갑
리터
마약을
민문기
##ta
##신지
##ky
##라고만
##orea
참여해
제78조
부족으로
특허발명
##겠지마는
서울고등법원으로
소방관
뇌물수수
이유불비
대각
모란
쓰시는
안됩니다
태그
##만도
##살에
관련되는
구조와
에이전
시호를
임정
##해지면서
##중단
나오기도
일어나면
질병을
피신청인이
국정을
요것도
유학생
진을
토로
##했냐
이천팔년
게임으로
프로그램으로
헌법의
원판결의
고향인
재항고인의
광둥
도미니
동물을
매력을
전소
평의
핑계
##법회의
##리아는
조선로동
공소제기
근무하다가
##스카야
마사지
##신용금
마포구
애칭
정하도록
집사
##소시
##역학
아니었습니다
무궁화
공백
북부의
술탄
쓰나
양말
여보고
유년
친분이
한스
##였지
##상피고인
##oo
##욱이
##링은
판단되는
국민들도
있지도
보낸다
즉시항
공세
마녀
별을
성산
세속
정권은
중과세
##긴데
##법도
10년이
결정적으로
연락도
##ater
앨범에
승강장이
회장님이
바삭
있겠느냐
현재로서는
제1항과
공부도
오리콘
8개의
우주가
정자
##시인
수도인
부담한다고
주식매매
소외인이
제92조
위배되어
차용증
가깝다
편취한
설시할
4번째
남아서
반으로
볼수
아니까
파장이
홈구
##도요
##아지고
##남을
해당이
사업자의
불리게
디자인이
실체가
재료로
찍혀
##회복을
##나우
##설은
표현으로
근로소득
언니랑
권한은
보도한
근육을
4층
느린
단골
대나무
문자는
벌고
원종
전락
확진
##we
위와같은
마지막까지
매각대금
애틀랜
섞인
해물
헌재
##스와의
##거리고
##fer
##한다든지
사람이나
같이하여
체결하였고
제93조
##었을까
반발이
비트코
con
나인
박사가
부총리
비밥
임산
추행
테고
##장하고
그거보다
정당하여
신청인은
사망자
전문가의
건조한
이집트의
납입하지
진지한
##방향으로
공수처
1과
갔었는데
비둘
이점을
텍스트
##부에서는
##글리
##잡을
제44조
시행되던
문화와
따르면은
보장하고
국토교통
CN
고작
놓이게
저래
제프
호를
퍼센트는
그러면서도
에티오피아
거만
군대에서
도도
마시면
매콤
학문을
##어질
##용과
##하는게
##이다가
##ald
인공위
기해
마리가
박헌
연시
우세
잃지
잔소리
