[PAD]
[UNK]
[CLS]
[SEP]
[MASK]
!
"
#
$
%
&
'
(
)
*
+
,
-
.
/
0
1
2
3
4
5
6
7
8
9
:
;
<
=
>
?
@
[
\
]
^
_
`
a
b
c
d
e
f
g
h
i
j
k
l
m
n
o
p
q
r
s
t
u
v
w
x
y
z
{
|
}
~
«
°
±
²
·
»
×
÷
΄
α
β
γ
δ
ε
η
ι
κ
λ
μ
ν
ο
π
ρ
ς
σ
τ
υ
ω
а
в
г
д
е
и
к
л
м
н
о
п
р
с
т
у
ш
щ
ъ
ы
ا
ل
ᄀ
ᄁ
ᄂ
ᄃ
ᄄ
ᄅ
ᄆ
ᄇ
ᄈ
ᄉ
ᄊ
ᄋ
ᄌ
ᄍ
ᄎ
ᄏ
ᄐ
ᄑ
ᄒ
ᅡ
ᅢ
ᅣ
ᅤ
ᅥ
ᅦ
ᅧ
ᅨ
ᅩ
ᅪ
ᅫ
ᅬ
ᅭ
ᅮ
ᅯ
ᅰ
ᅱ
ᅲ
ᅳ
ᅴ
ᅵ
ᆨ
ᆩ
ᆪ
ᆫ
ᆬ
ᆭ
ᆮ
ᆯ
ᆰ
ᆱ
ᆲ
ᆴ
ᆵ
ᆶ
ᆷ
ᆸ
ᆹ
ᆺ
ᆻ
ᆼ
ᆽ
ᆾ
ᆿ
ᇀ
ᇁ
ᇂ
–
—
―
‘
’
“
”
•
․
…
′
※
℃
ℓ
ⅰ
ⅱ
ⅲ
→
−
∼
≪
≫
①
②
③
④
⑤
⑥
⑦
⑧
⑨
⑴
⑵
⑶
⑷
⑸
⑹
⑺
■
□
△
○
●
☆
♡
♥
、
。
〈
〉
《
》
「
」
『
』
い
う
か
き
く
し
た
て
と
な
に
の
は
ま
ら
り
る
ん
イ
ク
シ
ス
タ
ト
フ
ラ
リ
ル
ン
・
ー
ㄱ
ㄲ
ㄴ
ㄷ
ㄹ
ㅁ
ㅂ
ㅅ
ㅆ
ㅇ
ㅈ
ㅊ
ㅋ
ㅌ
ㅍ
ㅎ
ㅏ
ㅐ
ㅑ
ㅓ
ㅔ
ㅗ
ㅛ
ㅜ
ㅠ
ㅡ
ㅣ
ㅺ
ㅻ
ㅼ
ㆍ
㈎
㈏
㈐
㈜
㉠
㉡
㉮
㉯
㉰
㎏
㎜
㎝
㎞
㎡
㎥
一
丁
七
三
上
下
不
世
丙
中
丹
主
久
之
乙
九
事
二
五
井
亞
交
京
亭
人
仁
仙
代
令
以
仲
任
伊
伯
位
住
佐
佛
作
使
來
侍
侯
俊
保
信
修
倉
傳
像
僧
儀
儒
允
元
先
光
入
內
全
八
公
六
共
兵
具
典
出
分
初
判
別
利
制
前
副
劇
劉
力
功
加
動
務
勝
勳
化
北
區
十
千
半
協
南
博
印
卿
原
參
友
反
受
口
古
可
台
史
右
司
合
吉
同
名
后
吏
君
吳
呂
周
命
和
咸
品
員
哲
唐
商
善
喜
嘉
器
嚴
四
因
国
國
園
圓
圖
團
土
在
地
址
均
坐
城
域
基
堂
報
場
塔
境
墓
壇
士
壽
夏
外
多
大
天
太
夫
奇
奉
奎
女
如
妃
始
姓
姜
媛
嫄
子
字
孝
学
孫
學
宇
守
安
宋
完
宗
官
定
宣
室
宮
家
容
寃
密
富
察
實
寧
寶
寺
射
將
尉
尊
對
小
少
尙
尹
局
居
層
屬
山
岩
峰
島
崇
崔
巖
川
州
工
左
市
帝
師
常
平
年
府
度
座
庵
康
廟
廣
廳
延
建
式
弘
張
彌
形
彦
律
後
徐
得
從
御
復
德
心
志
忠
思
性
怨
恩
恭
情
惠
惡
想
意
愛
愿
慧
慶
憲
應
成
我
戰
戶
房
所
手
承
提
援
支
政
故
敎
敬
數
文
斗
新
方
族
日
旨
昌
明
星
春
昭
時
晉
普
景
智
曲
書
曹
會
月
有
朝
期
木
本
朱
朴
李
村
東
松
板
林
果
柱
柳
校
根
梁
條
梨
植
楊
業
極
榮
樂
樞
橋
機
權
次
歌
正
武
死
殿
母
毛
氏
民
氣
水
永
江
池
沅
沈
沙
河
治
泉
法
波
泥
泰
洋
洙
洞
津
洪
洹
派
流
浦
海
淑
淳
淵
淸
港
湖
湲
源
溪
溫
漢
澤
濟
濡
火
烈
無
煥
熙
燕
營
爲
父
牧
物
特
獻
玄
玉
王
珍
現
球
理
瑜
瑞
生
産
用
田
由
甲
申
男
町
界
留
異
畵
發
白
百
的
皇
益
監
盧
目
直
相
省
眞
督
知
石
硫
碑
社
祖
神
祠
祭
禁
福
禪
禮
禹
秀
私
秋
科
秦
移
種
空
立
章
竹
第
等
管
節
範
精
系
紀
紐
純
素
結
統
經
線
縣
總
署
羅
美
群
義
翼
老
者
聖
職
育
能
臣
臨
自
致
臺
臾
興
舊
舍
舞
船
良
色
花
英
草
莊
菩
華
萬
蓮
蔡
薩
藏
藝
藤
蘇
虎
處
號
衆
行
術
衛
衣
表
製
西
要
見
親
覺
觀
角
解
言
訓
記
許
試
詩
誘
語
誠
說
調
論
諛
諸
識
議
護
變
谷
豊
象
貞
貴
資
賢
贊
赤
起
越
趙
足
路
踰
蹂
身
車
軍
載
輔
轉
農
近
通
造
連
進
運
道
達
遠
遺
邊
邑
郎
郞
郡
部
郭
都
鄕
鄭
醫
里
重
野
金
銀
錄
錫
鍮
鍾
鎭
鐵
長
門
開
間
閣
關
防
阿
陀
院
陰
陳
陵
陸
陽
隆
雄
集
雨
雲
電
靈
靑
靖
非
面
韓
音
順
領
頭
類
顯
風
養
館
首
香
馬
驛
體
高
魏
魚
鮮
鳳
鶴
麗
黃
黨
齊
齋
龍
龜
＆
（
）
＋
，
－
：
＜
＝
＞
？
［
］
ｍ
～
##ᅵ
##ᄇ
##ᅳ
##ᄅ
##ᄉ
##ᆨ
##ᄋ
##ᆷ
##ᄆ
##ᅧ
##ᆸ
##ᅡ
##ᅥ
##ᆯ
##ᄀ
##ᅣ
##8
##m
##ᅩ
##ᄐ
##ᅮ
##ᅢ
##ᆻ
##ᄃ
##ᆼ
##ᄄ
##ᄌ
##ᄂ
##ᆫ
##ᅬ
##ᄎ
##ᅦ
##ᆭ
##s
##p
##ᅱ
##ᄒ
##ᄁ
##ᅯ
##ᆮ
##ᅪ
##t
##u
##o
##r
##ᆾ
##ᄑ
##ᅴ
##ᅲ
##ᅭ
##ᄏ
##a
##y
##i
##e
##l
##ᆺ
##4
##1
##n
##9
##0
##ᆩ
##h
##3
##6
##ᆽ
##ㅠ
##ᇂ
##ᄊ
##ᄈ
##ᅫ
##ᅨ
##ᇀ
##ᄍ
##g
##ᆿ
##ㅋ
##x
##b
##c
##z
##d
##ᆬ
##k
##5
##7
##ᆹ
##2
##ᅰ
##ㅔ
##ㄱ
##㎡
##ン
##ᇁ
##ᅤ
##ᆲ
##f
##v
##ㅈ
##×
##ㅏ
##ㄹ
##⑥
##ㅎ
##ㅊ
##ㅁ
##ㆍ
##ㅜ
##＋
##ㅂ
##○
##ᆱ
##♥
##w
##≫
##ㅣ
##ᆰ
##③
##ㅅ
##∼
##j
##ｍ
##ㅇ
##ᆶ
##ㅓ
##ん
##の
##う
##い
##и
##к
##у
##л
##а
##с
##о
##㎥
##ㄷ
##°
##ᆴ
##ㅌ
##΄
##＞
##ㅡ
##ا
##ل
##㈎
##ㅐ
##→
##ㄴ
##●
##ㄲ
##ㅛ
##е
##т
##q
##①
##ⅲ
##ㅗ
##ト
##リ
##ー
##ク
##ス
##フ
##α
##τ
##ρ
##ι
##η
##ς
##℃
##か
##き
##γ
##μ
##ο
##ᆪ
##㎜
##±
##㎝
##て
##ㅍ
##～
##た
##り
##в
##д
##く
##に
##н
##ы
##÷
##⑴
##㎏
##し
##ル
##г
##ㅆ
##は
##な
##⑶
##＝
##ν
##δ
##υ
##λ
##♡
##②
##ラ
##ℓ
##ⅱ
##㈜
##ら
##イ
##ㅑ
##р
##²
##タ
##シ
##④
##ᆵ
##㎞
##β
##κ
##と
##る
##π
##σ
##≪
##＜
##п
##м
##ε
##☆
##ш
##㉮
##⑤
##㉰
##ω
##−
##△
##ъ
##ま
##⑧
##⑦
##㉯
##щ
##□
##ㅻ
##㉡
##㈏
##⑵
##㉠
##ㅺ
##ⅰ
##■
##⑷
##ㅼ
##⑸
##㈐
##⑺
##⑹
##⑨
##ᅳᆫ
##이
##ᅡᆫ
##ᅳᆯ
이
##다
##에
##는
##하
##고
##ᅥᆫ
##ᅳᄅ
##ᅡᆼ
##서
##의
##가
##ᅧᆫ
##을
##지
##시
##어
##ᅮᆫ
##ᅧᆼ
##도
##요
##니
##ᅥᆼ
##ᅡᆯ
##한
##은
아
##기
##ᅩᆼ
##로
##ᅯᆫ
그
가
거
##해
##를
##게
있
어
##여
사
##리
##ᅳᆷ
##라
##인
하
그ᄅ
##ᅳ로
지
##자
##ᅮᆯ
##ᅳᆼ
시
##스
##사
##구
##아
##면
##으로
대
##과
##ᆻ다
##저
##나
##ᅩᆨ
##들
##정
##ᆸ니
주
보
##데
##제
제
수
##되
##하여
기
##야
##에서
##ᆸ니다
해
##ᅥᆸ
##ᅧᆯ
나
##까
##부
조
##거
자
##장
네
것
마
##원
저
다
##주
##대
##ᅩᆫ
위
##적
예
한
부
##상
되
정
그러
##ᅢᆼ
##년
바
##와
원
##화
이ᄅ
##유
과
피
##치
##금
##만
##ᅢᆨ
##려
인
##일
전
##수
일
구
미
오
의
##용
여
##미
##법
##하고
같
상
##하는
##보
모
##우
없
경
##성
##국
##건
##습니다
##무
소
아니
##으
##실
##조
##소
##ᅥᆯ
##분
##는데
##ᅳᆨ
##ᅥᆷ
##세
##ᇂ게
공
##당
##회
뭐
내
##동
##문
##전
##할
##행
관
##었
##ᅣᆼ
때
##워
##계
##위
중
유
우
고
##죠
##마
##00
안
또
##호
##ㅋㅋ
##히
화
##신
##터
##음
등
있는
비
19
피고
차
##단
있다
##심
##비
##이다
선
##ᆨ을
##간
##관
##재
##결
##된
않
##산
##오
##바
##ᅥᇂ게
##명
말
그래
그런
##니까
##ᆨ이
음
##라고
생
##월
도
##차
##권
##들이
##었다
##업
##진
##며
##르
판
##선
##던
##ᆷ이
사건
##체
에
이제
원고
동
##래
당
국
##든
할
##한다
서
##학
무
지금
노
개
##민
신
##드
##트
대한
##네
같은
##그
만
요
좀
것이
세
##에는
진
분
어ᄄ
많
사실
연
근
##교
우리
##에게
문
법
##생
##공
영
##해서
결
##내
계
##ᆻ습니다
##판
들
발
따
##타
이런
##속
##각
##식
##물
##어요
##적으로
재
추
##까지
##경
##러
##하게
김
알
##부터
와
건
##방
##표
받
##겨
사라
##안
200
##면서
이렇게
불
치
그렇
##통
##ᆷ을
방
##록
야
##령
후
##항
##청
경우
##운
##ᅵ고
##ᅥᆨ
##연
##급
게
##류
성
##른
##영
##송
##지만
##예
##증
##개
더
##하였다
제1
처
20
실
그래서
반
##적인
명
하는
##반
##ᆻ는데
통
교
배
##추
장
너
##합
##중
남
##아요
및
##더
회
##라는
##군
매
스
##oc
##모
##했다
##십
변
본
##져
##등
##디
현
##역
각
##냐
doc
##다고
잘
##테
##ᅳ리
##료
특
최
얘
##두
##번
##본
##처
입
##므로
##피
##키
##ᆻ으
##ᆻ고
##약
##후
하고
##작
##양
##하기
##론
두
얘기
때문
##셔
취
##지고
좋
##하지
사람
적
이유
행
##출
##ᅦ이
원심
못
강
포
그거
근데
##ᆸ니까
청
##매
하여
##임
라
점
##종
단
그리고
##티
##형
##직
참
이거
금
##태
##준
증
##천
##ㅋㅋㅋㅋ
감
때문에
들어
##설
201
작
##울
##잖
한다
피고인
돼
채
부분
양
##발
살
##ᆯ리
파
된
##푸
인제
번
##님
규
##능
##하면
출
##력
##ᆻ던
물
설
따라
##말
##질
많이
집
종
확
학
임
##혀
맞
같이
형
약
어떤
인정
##립
##노
있어
##들은
##ᆻ어요
##되어
직
왜
삼
##입
##외
##액
박
##함
##토
##께
은
##술
역
##버
다음
##파
달
##거든
함
판결
없다
타
##험
##포
##카
씨
##련
##현
##되었다
##석
토
상고
문제
##희
이게
##ᆺ이
##난
생각
제가
다른
는
##배
운
##점
있었
외
주장
##늘
##지는
10
정도
##근
손
199
##란
평
대하여
##에도
사용
심
또는
##들을
##환
##황
하나
##녀
목
##입니다
##규
것으로
있으
##격
##담
##거든요
##득
제2
##랑
##에서는
판단
##세요
##잖아요
##되는
##짜
있습니다
##죄
있고
호
데
민
열
##겠
##찰
볼
##씨
필
##머
간
##레
##별
12
북
그렇죠
로
##들의
항
어떻게
그렇게
초
새
##자가
##거나
걸
없는
##족
##기에
##ᆻ을
##ᆯ라
##루
오늘
관한
##기를
합
##ᅳ라
##절
##면은
산
##대로
##크
그런데
##예요
##프
##ᅵᆷ
규정
애
검
##인이
되는
앞
##하다
받아
이를
##승
저는
먹
##편
##판결
너무
그ᄂ
범
##향
괴
##째
막
표
##라도
##받
##통령
##때
리
##이나
000
##인데
##복
그러니까
체
봐
##집
대통령
##량
##겠습니다
여러
##백
미국
내가
##견
당시
될
서울
##애
##ᆼ장
##목
##코
##언
언
##택
##남
##병
그냥
것은
##률
##품
##학교
드
아이
이상
##변
이후
11
나오
##씀
권
내용
##초
##ᅳ를
##강
##달
말씀
허
사이
##지를
누
##기가
굉장
제3
필요
##쪽
다시
##사를
속
##망
친
##리를
군
##육
굉장히
정말
총
한국
을
##기도
##쳐
있는데
카
일본
별
##다는
대표
계속
아니라
##구요
않아
독
가지고
##날
혀
시간
해당
것이다
끄
환
##린
##법원
선고
##느
##합니다
198
날
함께
승
##습니까
했
##한테
##투
활
##도록
##로서
##자의
##순
태
관련
보면
##에요
싶
##ᆻ다고
엄
뒤
##0년
##책
코
상황
생가
대해서
만들
지급
##인의
준
의하여
여기
버
##ᅦᆫ
##이고
##범
있을
그럼
것을
해서
식
##네요
##어서
##례
책
진짜
거예요
돌
##사가
소유
##접
우리가
투
##성이
있다고
가능
돈
충
논
이러
##감
자신
##써
얼
##박
백
이야
프로
시작
##즈
갖
가장
##억
그게
18
##축
상당
피해
##럼
거죠
응
완
##취
청구
편
천
기재
어려
담
##ᆻ어
##채
##ᆻ으며
##쟁
##이라고
##온
##철
##다가
느
##하면서
많은
##슨
워
##행위
가지
##ᅳ러
##장이
국민
##정을
모두
##이유
소송
##케
현재
십
주문
##하시
정치
##평
##봐
저희
##되었
##민국
갑
메
존
##원을
##효
변호
면
원고의
패
영화
큰
절
##율
용
##ᆻ는
있어서
줄
##습
##독
관하여
##돼
##원이
##처럼
국가
순
복
##기는
쓰
그러면
아무
원심판결
대한민국
그니까
나와
년
네네
##사의
##주의
사업
##정이
##보다
##너
보고
며
##긴
##년에
제1항
법률
아닌
##장을
관계
##더라도
##켜
##락
겨
##지가
난
된다
북한
광
또한
사회
끝
등을
증거
높
일부
##or
중요
지역
15
##름
머
처음
##호증
##색
##없
병
이에
발생
등의
않는
##활
##될
##불
사람이
##허
##어나
##까요
이번
정부
갈
##광
결국
##북
찾
##로부터
기록
##혼
##벌
##되고
육
##된다
##ᆻ다는
##칙
를
##er
수도
##아가
##8년
넘
있어요
업
위법
바로
##권을
토지
결과
##탁
포함
합니다
효
그때
조금
해야
이름
##ᆺ을
##했
모르
들어가
벌
좋은
경우에는
상고이유
좋아
##드리
##금을
##창
##악
그러나
##익
베
197
되고
위한
진행
##ᆷ에
##ᅳ래
##하며
일단
재판
협
##제로
따라서
정당
##9년
##7년
##6년
##존
##가지고
##5년
일반
##처분
이용
철
##친
##으로서
되었다
##4년
##어져
선수
질
모든
자기
##자를
의하면
뜨
이루
있었다
방법
##메
##리는
##리가
직접
##베
디
팔
알아
손해
##상의
##2년
왕
중국
##이라
귀
한번
부담
보내
나가
온
키
##성을
##부분
잡
16
사실은
##으면
##끼
##해야
##극
##회사
첫
기각
하면
이미
무슨
크
##사실
원고가
##ᆯ이
##력이
아주
상태
어디
##3년
##런
##동산
황
행위
푸
이하
히
##션
##상을
##ᆻ으나
회사
위해
니
새로
활동
몇
##1년
##관계
##응
##시는
##센
까
##들에
세계
##ᆩ에
올
##으며
##력을
##원의
먼
##획
그는
##ᆯ로
기준
거기
송
##시키
하지
##자는
제4
##on
혼
결정
보이
창
농
##회의
##la
주식
보여
##같
보니까
말이
##들에게
만나
의한
사실을
이러한
위하여
테
##살
##계약
쉬
뿐
17
##고요
##권이
##하였고
##엔
##누
월
14
##청구
##열
겁니다
##으로써
##am
것도
폭
얘기를
축
마음
잠
##에서도
##탈
의미
나는
##기로
##되지
힘
위해서
30
##길
##브
##확
##찬
13
##글
번째
프ᄅ
학생
얼마
##이었
##나라
라고
눈
했다
##막
특별
캐
확인
홍
##전에
##ᆫ드
##지의
##왕
바ᄁ
되어
뭔
##ㅋㅋㅋㅋㅋㅋㅋㅋ
##추어
부동산
##손
영향
변호사
접
싸
자체
##이라는
않고
경제
##겠다
위와
동안
알려
##무를
죽
소외
하는데
특히
##봉
없이
##어진
##페
명의
##사업
##ᆺ은
##하여야
##빠
수가
##려고
##머니
약간
196
##칠
##시에
하지만
쪼
측
위치
##징
##한다고
의원
아직
##삼
건물
전에
##시아
조선
피고의
##데요
##in
아마
레
빠
경찰
여부
엄마
##협
##일에
##위원
사고
방송
##비용
넣
먼저
선거
##리아
##an
후보
##다음
글
##하기로
##정한
예예
퍼
생각을
티
##리에
적용
밝
지방
##앙
##들도
##스ᄐ
##스트
생각이
아까
##의를
##측
##상이
어느
윤
##이가
##ᆺ도
커
구성
의견
진술
##즘
##잖아
##셨
##지에
##ᆸ게
했는데
친구
##다면
징
##녕
준비
##지로
전체
혹
없고
##피고
잘모
즉
그의
시행
지난
취득
비추어
그리
##정의
##혜
뉴
등에
그다음
하더라도
선생
거의
이십
않은
일이
##소송
처분
##서는
있으며
##었는데
##가를
##했던
자유
노래
##층
것이고
상대
사이에
##시면
종합
있지
##구나
연구
중요한
쪽
##곡
이천
##서를
올라
##하다고
##더라고
되게
행정
바라
##ᅳ레
관리
##인을
아버
##도를
##등학교
범죄
##ᅳ려
피고가
떨
학교
존재
##식을
##조의
계약
그걸
##팔
##원에
거야
망
도시
이는
##소를
것이므로
둘
얻
알고
##위를
휴
대법원
##느냐
##하거나
##ᆺ한
##쿠
않을
꼬
제5
때는
폐
교육
##약을
##관의
배우
공동
25
##이며
거기에
##어가
납
##으므로
##럽
##자로
그렇습니다
안녕
있다는
사람들이
##자인
문제가
##퍼
놓
##기간
##도가
나타
##으로부터
##줘
##츠
##균
##볼
##ame
통해
##화를
##훈
내지
것인
##호증의
##장에
됩니다
##든지
달리
향
떠
올리
변경
플
한편
딱
나머
##정에
운영
같애
##도로
##칭
같다
##특
##ᆷ의
##총
급
이야기
재산
칠
##스의
##음을
##착
되는데
등이
##그래
그래요
##구하고
##가요
역시
##군요
##ar
같습니다
##명의
채권
##으로는
신청
감사
##들과
##en
모습
헤
##임을
##인은
##중에
다음과
for
라는
설치
받은
이건
이와
원래
민주
##아서
침
이유로
공소
찌
##패
위반
하면서
교수
##랴
빨
위원
사망
정보
##액을
원고는
##밖에
대학
자신의
그다음에
경우에
보험
아니고
##침
수사
검찰
새로운
##기의
피고는
갖고
##명을
고려
운동
요즘
이해
오래
듣
##시고
괘
##mu
맛이
##았다
하였다
표현
없어
##ᆯ레
작성
##놓
##행을
제공
취소
써
##었던
조사
##탄
##호로
압
중에
채무
왜냐
개발
##스를
결혼
##념
짜
##었고
##적이
##했고
프랑
##게요
name
##대리
##도의
##좌
전문
##씩
##새
위법이
불구하고
하게
같아요
개인
거는
되면
괜
요구
길
##큼
퇴
기간
제1심
##깐
##정은
클
인정할
에서
가서
서로
없다고
물론
지나
##식이
저도
##ᆷ피
따른
##나요
영향을
제출
##하세요
거래
##뢰
탈
죄
##압
##커
##님이
궁
##리고
##주는
##플
재판장
22
마지
##충
개정
##mula
평가
##지방
##찮
##펴
체결
여러분
발표
##아야
formula
뭔가
나머지
주문과
##해요
21
맡
실제로
##헌
##ᆻ으면
의해
##필
##스는
##덕
이전
만들어
##스로
24
좋게
루
발견
##정에서
살펴
드리
극
##자에
원심이
##슈
##줄
받고
##벼
##동차
있던
희
건축
그래도
완전
##지도
성립
추가
수는
기본
##수를
인하여
당연
23
##신청
보통
핵
##였다
##at
##관이
밀
##치를
31
##개의
확정
골
꼭
이사
##ㅋㅋㅋ
앞서
##찌
상당히
##대를
##께서
근로
참여
돈을
##객
나라
##ᆻ죠
##레이
28
최고
##섯
대부분
느끼
조합
붙
양도
마지막
합의
##부에
만약
##즌
선생님
참조
##밀
믿
영국
여성
인한
##스테
##비용은
##굴
##전을
되지
의사
가족
곳
##시켜
##김
어렵
##수가
입장
##자에게
생활
제기
##스가
##ᆻ지만
제6
헌
바와
제2항
##하므로
기술
대법
찾아
아니면
사랑
터
26
으로
탄
##숙
000원
문화
전쟁
##했습니다
##절차
석
경기
##al
늘
맞아요
그건
구체
##이는
##하자
공개
돼요
노동
페
유지
판결한다
##히려
업무
저희가
##치는
##널
##틀
있었던
##림
194
##ᆫ다
인터
195
동일
##ᆻ는데요
오히려
##하신
악
##대에
않습니까
##대의
매매
내려
중심
##당이
##하도록
부터
피고인이
대해
27
곡
국제
신고
관여
##보고
독일
##명이
앞으로
했습니다
부분에
항소
##검
씨가
##가가
##슬
##es
규정하고
일치
여자
상고를
##물을
재미
##장의
꾸
괜찮
##략
##더니
##보면
그대로
퍼센
##겠죠
사기
##퇴
등록
##권의
##제를
##부를
역할
지원
##꾸
##한다는
풀
##먹
어머니
딸
으
##어지
통해서
##되기
##옥
##동안
잔
지정
원고에게
기업
봉
가져
##ᆸ을
제일
누구
판시
다양
예를
잘못
6월
##상에
##블
3월
##과의
돌아
것이라고
##최
제작
##료를
##수의
부산
언제
##하는데
당사
##회를
##디오
판매
소송대리
##ic
러
##더라
설립
아파
프로그래
사무
전화
12월
##웨
주식회사
말을
##귀
##장은
##척
##분이
암
사진
10월
우리나라
##격을
충분
29
아래
최근
팀
##함으로써
적법
여기서
보는
다만
제외
##위에
##돌
##윤
중앙
##튼
8월
4월
##운데
대한민국의
##어야
밝혀
전혀
ㅋㅋㅋㅋㅋ
게임
것처럼
형사
원심은
나온
감독
##대가
##드는
보호
100
아니한
어제
웨
##사에
7월
어째
정상
##ᅳ루
##자기
해주
구조
원심의
##가는
몰라
필요한
소속
##혁
엄청
이걸
파기
대출
##더라고요
##은행
1월
가는
빼
같은데
5월
건데
##도에
능
##ᆻ든
대통령이
국회
선택
##골
##있는
있기
처벌
남편
##잡
##참
사유
이라
힘들
도로
##었습니다
있죠
##끔
##릴
축구
##쓰
##거래
참가
비스
9월
##에서의
##같은
다르
목적
##문을
##사는
사건을
그럴
##세법
##없이
나도
도우
##시간
답
##하셔
분명
거지
후에
##받은
울
남아
연결
정도로
##고인
부분이
정책
##자들이
변론
##조에
깨
##융
임대
낮
##람
##하였다고
나서
##렇게
얼마나
블
싶은
의무
음악
삼십
실제
##is
소유권이
##갈
주택
이야기를
지적
##으나
녹
우선
##함에
##흥
위험
제7
##완
기타
독립
##대한
과거
트ᄅ
##욱
##위원회
담당
##시죠
##마다
스ᄐ
하기
정신
느ᄁ
부담으로
국내
##인데요
##재인
건강
기각한다
과세
##보험
퍼센트
##국의
술
인구
##까지는
권리
##상으로
##업을
불법
좌
성공
형태
시즌
안녕하세요
##전등
##부의
##와의
하셔
심리
지지
##일이
부과
##해주
대법관
##섭
해석
언론
옛
##동을
11월
비교
##부가
없으므로
스타
최초
착
고마
##클
관심
##리오
하루
상고인
##인지
주로
피고인의
일어나
운전
견
일을
상대방
##하던
해결
규정에
##장님
읽
##트를
##점을
경우는
##니아
먹고
특정
제한
자연
##피고인
##탕
비로
드라
빨리
##가지
##었어요
##he
##인으로
해요
가까
##조합
기록에
주민
##이에요
##답
##랜드
제대로
##세의
반대
근거
##풍
##시설
부분을
##먼
##받아
엔
##하였으며
보면은
가능성이
효과
##제가
무효
##ᆨ스
걱
##it
어떠
##점에
오해
뭘
손해배
##익을
문재인
유명
건설
##냐면
행사
소송대리인
##법에
##어도
##계획
##암
소개
##보증
뛰
몰
다니
##서에
남자
따르
당해
저기
부족
##기관
미국의
절차
##ᆸ습니다
어쨌든
##인가
인간
크게
경험
2월
감사합니다
있으므로
차량
혹시
역사
##선을
아니에요
인정한
출신
정확
살아
##ᅯᆯ
대신
##원은
##로는
##점이
##멸
아들
이행
이거는
##춘
매우
그만
가진
갑자기
단체
##는데요
##금의
가운데
##되었고
누가
달라
##ㅠㅠ
##따
다음에
끝나
설명
똑
##법인
긴
##든가
피해자
있게
소유권이전등
##는다
기자
그러므로
맞습니다
해당하는
정리
##팅
##촌
특별한
##하였
##스ᄅ
받을
있지만
오십
프랑스
계산
공소사실
흔
칼
시간이
분이
##식으로
분들이
나이
박근
##시행
그까
##뿐
##요일
찍
이번에
섬
##에스
자동차
바뀌
나중에
이르
##맹
##장으로
밥
##세를
##만을
##턴
##대상
같애요
193
빌
이래
본건
지내
풍
##대표
##임이
책임
##졌다
인사
주변
##혹
실질
##했는데
해도
##있
사항
줘
부분은
매수
작품
##폰
나ᄂ
##ᆷ은
텐
박근혜
소정의
##원으로
##관리
##도는
이라고
그렇지
있잖아요
##화가
만약에
인용
한다고
맞아
##고를
관련된
ㅋㅋㅋㅋㅋㅋㅋㅋㅋ
생산
때에는
이유가
불과
##지방법원
없을
했던
##이자
상황이
50
##으니까
당신
비용
다양한
제8
부당
이천십
##겠습니까
##하려
상속
옆
쫌
##물이
아니다
두고
자료
##치가
##물의
슈
외국
사실이
공사
##ᅮᆨ
나오는
##계를
당연히
##휘
언니
기준으로
높은
부모
영업
식으로
기억
조직
점을
출연
##보다는
##촉
아닌가
금액
범위
기존
혼자
궁금
청와
검사
사람들
전부
##ᆯ러
에이
##상고인
과학
유럽
공무
##건을
이어
##인에
수밖에
공격
스스로
##만이
##홍
##싸
##고등
유사
##짝
비판
부르
결론
항상
불가
안에
##꼬
##하기도
##비를
대하여는
2008
##어난
주요
환경
##격이
뇌
왜냐하면
비율
##이트
싫
자체가
소득
기초
환송
있으면
##원에서
아버지
원칙
##품을
##폭
작은
정한
것에
경영
대회
##장에서
몸
아파트
2007
적이
전투
많아
약속
얼굴
##납
주장은
주는
아하
전의
러시아
컴
만든
드라마
안전
뜻
올림피
##사유
거쳐
표시
##일을
혈
사례
대해서는
별지
없어요
##간에
##대학교
불러
가고
##스터
##재산
분양
##씬
목적으로
##le
염
##벽
집에
##시오
과정에서
근무
리그
이다
기능
현실
있도록
이후에
##소송법
우리는
색
원을
##염
##스타
투자
위치한
아닙니까
사람은
그에
##걸
집행
다투
시설
2009
알겠습니다
있거든요
##세기
하시
##음에도
##서의
실시
발행
##ᆻ기
맨
192
##성의
단순
센
수입
##군의
있는데요
아빠
시민
담보
##폐
지금은
동시에
액
교통
2006
그녀
##ou
##트로
##하였으나
제9
2005
변제
##시의
##ion
손해배상
##겠지만
여기에
보증
그렇다면
것으로서
내용을
자리
그랬
사정
대체
보수
##권에
아무런
나타나
과연
의견으로
##약이
인도
데이
잠깐
졸
끌
##뉴
어ᄍ
나아가
않는다
된다고
법인
##어를
점에
고소
케이
##흐
에스
##계약을
##0조
##자와
쇼
않을까
경우가
돌아가
태어나
등장
격
##괴
객
하겠습니다
##욕
역할을
옛날
그러한
##건설
##음이
##대금
받는
숙
않았다
##사무
충분히
곧
들어서
마찬
##비스
##케이
무어
##역을
헌법
훈
증언
##인에게
택
싱
슬
##하시는
흐
사정이
500
기다
부정
수행
##라면
패소
낙
##곳
##개발
공급
##건대
보기
밖에
##겠어요
마이
주고
혹은
대구
등기
##했으며
나오고
피상고인
##알
##하나
라이
##직이
##쉬
어린
사실상
##함이
타이
##민주
##ᆼ이
##주고
##특별
##시를
없다는
##단체
이탈
훨
움
없습니다
##사로
##안을
##개월
지도
##드를
본인이
the
말고
받았다
말씀을
그것이
##낙
일치된
지하
등으로
처리
시대
뿐만
##이야
봐야
하자
우승
##el
##호의
##om
훨씬
##쁘
알려져
혁
들고
점유
2003
완전히
2010년
있었는데
논란
2004
##만으로
하니까
쿠
##리의
##쪽으로
##빈
꺼
했어요
##성에
못한
올림픽
아니냐
인해
어려운
##인다
거기서
현대
##소득
##넷
님
그거는
산업
본다
것들이
아내
##과는
문제는
콘
상표
까지
##소에
##드시
요청
상고이유를
생겨
명백
고민
질문
적극
물어
문제를
정의
한다는
생각해
##뷔
얘기가
ㅋㅋㅋ
받아들
##휴
됐
각각
억
듣고
갔다
##프리
시절
자기가
있어야
##주시
파기하고
##했다고
앨
회사의
법령
그루
상고비용은
##km
상대로
##선의
##었다고
샤
틀
차지
##올
방향
##마는
이른
##컵
##소가
그것도
했고
자신이
홈
##ᆻ으니까
조건
##하였다는
은행
##춰
연락
내용이
만한
모양
##란드
##ᆻ는지
법리를
##기준
##re
##고등법원
##회가
찬
별로
##10
통하여
##as
자꾸
##단을
##쵸
민사
공식
특허
##하라
웃
##회에
계획
내일
시스테
공연
##된다고
발전
대전
바다
프리
##셨어요
전국
##였던
드러
앉
191
##ol
##하다는
일으
대학교
지구
지금까지
##명령
있으나
군사
주장하는
##상표
뒤에
보아
젊
##래도
반환
##으면서
수준
벗
##20
40
확실
않았
##심히
당시에
묘
##했을
이때
선정
평균
상담
논지는
자주
##어로
##단의
##드려
하다
##팀
##ㅎㅎ
익
쉽게
##이를
삶
금융
##킨
##치고
주장을
##조건
과실
거를
##취지
##하지만
정당한
##면에
명이
남북
국정
최종
자세
데뷔
따르면
##성은
와서
가리
##스럽
동의
걸로
##궁
발언
다이
##역이
오빠
##공사
필요가
개최
##호를
경쟁
소재
절대
그와
##되었으며
보아야
##ᅥᆯ리
뽀
김정은
걱정
대로
공간
##50
소리
##금이
티비
보시
거고
##주택
이름을
##금액
신용
이라는
##집행
##인과
허위
올려
2002
감정
맥
사람을
떠나
그것
##이죠
##이지
장관
하며
##운동
##하십니까
##죄로
피고인은
##저당
걸쳐
##꺼
##싱
##딩
2010
##채무
땅
깊
##되어야
법무
늦
##혈
이상의
오늘은
##적을
##오는
사십
##퓨
반드시
##us
##채권
구분
소론
이루어진
솔
##시가
허용
##품이
원고들의
범행
냉
측면
##선이
피고에게
##ᆻ지
##갑
##수는
바이
##호에
##ᆨ터
##2조
방법으로
##놓고
##당의
일본의
의료
무려
##일까지
공부
발매
대상
보이는
##드라
##변호
못하고
##일부터
휘
##려가
아니하고
밑
머리
##담을
이ᄁ
거부
##ᆯ린
어머
##있다
##프트
그동안
법리오
뭐가
열심히
##야지
##ᆻ으므로
공유
즐
##대는
김영
##보는
등급
사이의
잃
빈
있으니까
취지
이동
##렬
보다
법리오해
다섯
##수한
소멸
##et
##인들이
의뢰
지켜
말하는
따로
그룹
##화국
##핵
##엄
위에
##스러
##것
그렇군요
당사자
있었고
징계
##드로
스페
개정되기
쓴
국회의
기관
##학을
미리
전기
대단
##체가
시장
##기업
##체를
발생한
놀
##움
되었
여행
텐데
ㅋㅋ
대리
##번째
##몬
사는
가수
하여금
##들한테
추정
없었
##서가
주의
문자
공공
옮
아니야
##스티
##돈
##소유
##록을
##산업
징역
말씀드리
교부
합계
##등기
##쁜
작가
##지지
마련
기대
옥
형성
반응
##il
치료
##7조
먹는
##웅
임명
시험
고맙습니다
내용의
##미터
구속
활동을
대응
결국은
로마
##텐
##5조
##전의
##단이
인식
그러면은
##링
합리
##잔
##어는
##비아
##니깐
정당하고
이탈리아
내부
##심을
##엘
##원고
내에서
전해
2008년
##하다가
앨범
##농
팬
시행령
놓고
소비
##주세요
하나의
권한
##이었다
##ac
##형을
##주를
##키는
수상
##ing
모습을
##적으로는
##3조
뉴스
미친
봅니다
그가
인천
증거가
삼성
해외
신경
이루어져
##정보
프로그램
##시키는
##남도
##하죠
졸업
숨
침해
흥
##델
근저당
##허가
추진
끊
아우
##체의
##메이
##키고
##쪽에
제조
##함을
규모
단계
앞에
##부는
나올
때까지
##했지만
컴퓨
원판결
##호는
그거를
올해
금지
끼
2007년
세워
2000
말씀하신
그쵸
뭐야
중에서
##쇄
##스크
탐
크리
그러고
##쯤
넓
바랍니다
광주
##의가
이유없
열린
##우스
경기도
##뷰
분야
##os
객관
##1조
채택
살펴보면
##부장
##는지
음반
1년
제시
종류
교수님
아무래도
강제
##간의
##선거
##분에
직원
##과를
##놔
브라
다녀
##과에
의무가
경우도
방문
사람들은
케
해보
원심판결을
노력
##당을
이것은
수용
##대학
##4조
##수로
##힌
품
분위
##0년대
있고요
예상
밖
항공
이혼
주심
대여
그러면서
연합
산정
판사
욕
저녀
##주식
예정
운행
보도
##ᅥᆷ프
가면
월드
짧
길이
도와
청와대
소설
2009년
정부가
##우는
##자료
계시
같고
##렌
##감을
##여서
##단에
일반적으로
##제의
빠져
가격
##구를
생기
##세가
상품
작업
묻
쓸
들어와
##당에
##라이
##금으로
xx
인터넷
##핑
##ᅳ리고
in
2011
했을
목록
있는지
여론
##9조
가능한
명의로
##8조
2011년
행복
##위가
컴퓨터
쉽
니가
추천
##석이
거주
청구를
##군이
판단은
##자로서
차이가
##항에
##종의
지배
##위반
분류
전제로
ㅋㅋㅋㅋ
선언
##관한
있어서는
목소
퇴직
00
##전히
외교
인정되는
아닙니다
의원이
2001
##제한
##지원
##이기
꽃
##거리
##르는
구하는
##분을
##동에
보유
##방송
이외
부여
사건에
##문에
타고
##하였는데
매도
분들
##자들
비슷한
##픈
##쇼
이재
##텔
입증
##수에
##주에
시리
##였
넘어가
초과
##행위를
밤
벼
위배
부탁
1일
시청
라디오
거라고
좋을
확보
##분의
분석
통합
##ᅳᆺ
동생
##했다는
##페이
##법이
덕
들어보
있었다고
##긍
##내용
겸
첨
##렸다
분명히
직무
##쥐
내에
간에
증여
2012년
전달
##리그
##장과
이론
##맥
구체적인
##주가
납부
포기
##나가
뭐냐
##명은
저렇게
##캐
이익을
증가
그럼요
미래
유리
##6조
##만큼
##관을
##심이
##회에서
만에
##그러
쏘
##르크
##봐야
없었다
##적이고
아침
살피
레이
횡
##셨습니다
컨
의혹
##묘
차례
##ᆨ시
##듯이
000원을
베이
경상
잡아
집중
제주
##되면서
마을
하면은
해당한다고
##군은
씨는
##법을
##비가
음식
##맨
##생활
##하실
종합하여
##칸
##금에
상태에서
##리와
##지역
생각합니다
활용
##성과
##죄가
뿌
상호
본인
앞에서
말한다
2년
올라가
##ᆷ버
이로
쌍
정도의
통일
젊은
종교
##빙
##킹
이것이
때도
저녁
먹을
시켜
여름
쳐
##구역
나누
가입
취지의
속하는
손해를
것인데
##번에
아시
##닝
##행위에
명칭
##듯
##괄
특수
##사건
##틴
of
##나는
주인
서울특별
넣어
바꾸
도입
##내는
2014년
##어지는
##워서
##곱
관할
기원
##교육
특징
보입니다
최근에
청소
판단을
부인
떨어져
맛
언급
상당한
대표가
2006년
##밥
##소의
것들을
뽑
##당은
190
그러니까요
실패
##문화
지상
##얼
검토
##11
##ed
그렇기
연대
완성
##리지
60
사안
##슴
##조사
느낌이
##변호사
##fa
정하는
받지
##표를
##샤
만드는
##륙
##만에
수학
##리로
육십
변화
전자
가야
않습니다
마치
행동
여부를
상황에서
##기록
##트리
다음날
수익
##ᆻ고요
책임을
민족
트럼프
여전히
##변경
##등록
인수
광고
##구가
토지를
계좌
##같이
것입니다
맞는
북한이
st
##스에
철도
##문이
##트가
전통
##증법
거거든요
걔
기재와
##됐다
만큼
국민의
배척
##랄
##규칙
지속
##대요
것인바
##법의
생긴
이것
벌써
수긍
판단한다
걸리
느껴
법정
보상
토지의
##사고
왜냐면
아닐
##구에
중심으로
고등학교
겪
##하니까
인생
태양
돈이
기각하고
뒷
위임
##bs
영어
진출
##석을
토지에
있는바
아는
평화
뮤
분할
이유는
##id
##신을
쓰는
##초등학교
##30
아르
##되었다고
##감이
전형
##진다
##질을
##ᆻ었
신뢰
원고에
원고와
허가
비록
2013년
이익
소위
기어
##크로
조사를
대상이
래
처음으로
유일
주장에
##스와
그러다
피의
지휘
##룡
것과
주세요
인물
나눠
##셔서
##nd
##컬
##자들은
왔다
혐의
##이에
##익이
돼서
##전이
곤
때에
아예
갚
귀속
증인
##면을
전문가
##학이
그럼에도
되니까
훈련
임차
움직이
김정
굳
심판
불가능
##류를
봐요
잠시
도움이
##선에
##법률
일단은
##이므로
배상
##털
##받고
##죄의
제목
중간
이전에
##해져
##처분을
##점에서
##평가
봤을
겁니까
행위를
강화
##증을
더불
처음에
##산을
개의
된다는
요거
장애
##벨
##해보
위에서
##디어
엠
통과
채증법
##벤
시간을
##ᆻ거든요
##제에
##구의
요렇게
##위로
핵심
사법
##내에
선임
뚜
##르고
긍
##12
##의무
동일한
회의
사용하는
순간
##북도
##물에
메이
들어오
심각
##19
봄이
##관은
솔직
##해도
촉
##트ᄅ
##구백
경료
텔레
##해를
최소
취지로
서울고등법원
##ch
이거를
##시행령
##라든지
던
##력에
##누리
##헤
##담이
경매
이른바
##했어요
적절
더욱
2015년
이유에
비슷
기반
##십시오
집에서
3년
##이랑
수술
제3항
사정을
##뿐만
설정
관련하여
##앤
##부로
지연
##되면
2012
##엽
실험
명예
##음은
가르
임야
##크리
##이사
##콘
임의
아나
##60
맺
플레이
예술
##신고
안녕하십니까
##ᆺ가
##증이
쌓
##권은
회복
부동산에
##치지
보인다
제1호
겨울
흑
하나는
이끌
##량이
돌려
증명
##려면
##ᅪᆯ
포함한
##ᅳ라고
##다니
있었습니다
죄송
그것을
예비
##자치
##계가
##자들의
##해지
간단
쓰고
곳이
경우에도
바꿔
거짓
##인민
대화
오른
알게
300
접근
불안
챙
오는
##한데
그로
경과
##큐
##흠
2차
##더라구요
##사무소
칠십
##광역
저런
점이
우주
최대
##찍
대중
000만
명령
위해서는
##40
어떠한
기사
##직을
물리
천구백
오후
출전
##셔야
불리
##학생
제도
제10
##죄를
자가
##ot
임시
안철
화장
아니라고
##ur
##회는
##두고
비행
서울특별시
1998
##량을
70
대통령령
사건이
흘
제1심판결
2018년
##관계에
##만으로는
##기고
채용
##낸
이케
##연구
에너
고용
않다
시리즈
그죠
송달
진실
인터뷰
##듬
##라서
함은
2016년
범죄사실
흐ᄅ
관련해서
##식은
##식의
탑
칭
##받을
##번호
##질이
새누리
뭐라고
그리스
##계에
청구취지
##사항
강력
##트의
##톡
종료
먹어
공정
스포
있음을
80
요새
잉
##자리
##인인
살고
연기
##락을
무렵
1999
전환
##관에
해가지고
것이며
당시의
이명
무엇
청구는
##었을
놀라
##비전
이분
마음이
유명한
##ᅪᆯ영
##컨
신문
##단은
사무실
살피건대
어렵다
보면서
느낌
반영
이르러
낳
##제는
희망
##ad
미안
보조
폴
2005년
결과를
##결정
안정
##뇨
##트는
과정
##심판
더불어
거잖아요
유효
원내
회사가
보관
##베이
##ig
##드가
사람의
##이면
아유
답변
##콩
##되며
같아
일정
상실
못하는
##덴
##프리카
유치
##멘
하시는
나무
##와는
구십
굴
##풀
제품
##읍
##한국
조정
습
개별
##하에
##많
##ent
##80
대비
이슈
가정
불이
흡
##국이
##논
표준
##식에
##만한
초기
지역에
##적은
35
90
구체적으로
오스ᄐ
분리
##쿄
국방
##력은
이름이
##관계가
제외한
그림
##ᆯ게요
##곤
##둔
판결에
제2조
##가의
##겠지
어우
조성
쪽으로
명의의
장소
서비스
안에서
##안에
야구
##칙을
요리
보장
임대차
안타
##싶
병원
##액의
##금은
민주당
입장에서는
법관의
##od
주도
##액이
가게
계속해서
##상은
##작을
엘
워낙
1997
##관계를
##지급
##신청을
토론
계회
##전에서
기념
배치
했다고
않아요
저거
속에서
##지와
##르게
##만원
##였습니다
##우고
##가로
멀
빛
정치적
끓
당선
##형의
박사
##ᆻ더니
##상태
형법
##책임
32
뜻은
말이죠
2017년
##으시
전략
##려서
엄마가
1인
##었어
##지게
자치
##릉
조세
##하시면
등과
##까지도
모르게
##학과
누군
##계의
##없는
책을
##보를
관광
##라든가
관하여는
##진이
쇠
결합
##가지로
작용
##말로
목표
##으려
국민들이
속에
##군을
계약을
약정
됐습니다
##아버
지역의
주주
개월
##iv
하다가
안철수
##하려고
네네네
청년
중단
##조를
주인공
부적
##로서는
2004년
모르는
다툼이
어서
##어들
하죠
애니
##메리
오랜
아니하는
김종
##재를
##당한
그렇고
역이
##겠어
입장을
폐지
##매매
##저히
##지에서
name1
##처벌
##나다
했지만
높아
##ᆻ잖아요
공모
쭉
성장
캐리
촬영
잇
들면
##시다
##기와
나한테
펼
할머니
김용
이제는
당초
좋아하는
없는데
듭니다
갈등
##수록
혜
##스토
논란이
공무원
도착
최초의
획
##이의
여부에
되었고
종합하면
42
대선
##웃
생각하는
팔십
##하겠습니다
매입
##ec
##시효
##됩니다
없으며
##겠네요
##절차를
매일
베트
##톤
자는
##켓
##스코
##ᆻ으니
##쎄
수령
##가가치
것이어서
투표
원고들이
기원전
##형이
선출
통상
##표준
미사
##핀
민법
득
어때
아직도
##만의
수출
권리를
상황을
##나무
월드컵
교과
옮겨
출발
##시킨
계신
놔
개혁
##어지고
않게
##하고자
##로를
##하려는
뉴욕
각종
야당
취득한
판단한
음음
##프로
데이터
거절
되죠
결의
189
##가에
중화
페이
웅
배당
밝히
##정부
있다면
##하겠다
명확
아무리
##호가
말이에요
##안이
공제
인구는
##으로서는
##학자
##작이
척
근까
자본
둔
설계
옆에
평양
요건
##op
이것을
##담보
제거
당원
##이었던
분들은
##회사의
전체의
싶습니다
이용하여
심지
결과가
받아들이
있구요
때부터
실행
가까운
주장과
시도
효력이
##닌
의해서
소론과
주목
사회적
##율이
##계약의
받게
소련
점점
점에서
##이드
이주
비밀
금원을
적법한
하나로
맞춰
모델
키워
정보를
동물
##던데
소송비용은
비롯
해봐
##st
멸
##이기도
진보
현재의
##책을
맛있
멤버
않으면
지시
여섯
##년이
아프
##침에
##ᆻ다가
균
연장
##15
것이죠
부합
어쩌
어찌
직업
##세는
마찬가지로
당심
초등학교
내용은
##깨
간의
제국
##홉
관계가
##재판
##랙
이자
잘못이
2002년
피해자의
충청
환송한다
뭐냐면
##문의
예산
등은
참고
##13
재심
##경을
적극적으로
##참가
것이라
도움을
##ᆰ은
##줘야
##스탄
##하였던
뜻이
##씨가
##ia
이유없다
한다면
그를
것인지
##것도
장면
글쎄
임금
거다
##부터는
##기재
참석
체포
도쿄
이것도
##70
클럽
노무
기재에
이정
싱글
fc
입법
##자동차
튀
북한에
지적하는
##바이
45
지금도
같은데요
대부분의
##신탁
생각하고
법무법인
저작
##압류
판결을
33
비롯한
보이고
##ᅳ레이
##붙
웹
수수
진정
##ow
##둥
승강
선발
##등에
##광역시
##육을
방법이
빌려
적어도
물건
사건의
주말
커피
입장에서
쪼끔
그려
협의
김성
이백
##들로
##받는
의견이
태어났다
언어
##시기
##ᆷ으로써
하이
##공무
되기
##린다
대지
2000년
회원
예전에
기각하기로
갖추
##해진
정도가
다행
##사와
##하였을
##차를
하나가
##군에
아니한다
전반
##체에
대상으로
쟁
마무
##ᆺ어
의심
됐다
##손해
##기술
사용할
##렉
1995
기여
##에이
##별로
##조서
##첩
##14
주거
작곡
다들
잊
반복
적법하게
비서
소유권
하였고
##스러운
강원
근저당권
종전
나타난
##건축
짓
시기
선물
##ation
영상
입은
콩
그분
실질적으로
##덜
##16
솔직히
ch
##려는
##사용
1996
##내고
##시킬
시작했다
##쳤다
##하였는
확장
국회의원
##아이
##신문
텔레비전
위의
일정한
파이
세월
##조의2
몽
부가가치
##거운
사태
##처리
규정을
마음을
##ᅰ손
인근
자녀
살짝
##스럽게
##부에서
비난
되면은
##냥
차용
교황
힘든
##카이
아름
최초로
매각
이름으로
베트남
가슴
fi
장기
바탕
##드립니다
조항
아시아
옷
남성
이적
깜
섭
전라
이란
강조
##노동
수능
출판
심사
##ter
기독
36
기계
드려
그날
확대
##규모
##드의
##냐고
싶어
한데
국립
기한
만화
싫어
##사소송법
회사에
##시키고
때문이다
##um
##끼리
나와서
스트레
있었어요
##메이션
##신이
보겠습니다
있습니까
##연합
관계를
무조건
퀴
##하기에
신탁
##인민공
##대체
시가
대통령의
2003년
배우이다
근처
##교통
외에
남겨
최저
##동이
집단
매출
##행위가
##간다
반가
##율을
##깔
사상
피해자가
허리
##거야
연속
저지
어떡
강한
든
방식으로
메시
조치
##덟
캐릭터
합병
전세
좋아요
##움을
하는데요
아쉬
##로운
자산
유사한
##명으로
곳에
조치를
2013
##른다
주차
관심을
##했으나
##나게
##일의
것이라는
해당하지
##em
많다
상관
소유의
##천만
판시와
떨어진
1994
재항
사실인
##형법
오해한
가해
한반
어려워
캐나다
안타까
지급을
활약
시간에
얘길
##소는
자금
류
손실
동아
달러
힘을
그르
##이란
사전
십이
섞
##고등학교
불편
##후에
##하더라도
##진을
중의
##으신
공장
설명을
##그루
##낼
##ᆻ네
##러스
으흠
아들이
##홀
##트에
성적
##조가
이름은
##bc
기독교
의미가
일은
무서
단순히
트
의뢰인
##하였으므로
스테
##액에
자격
해제
아냐
개봉
꽤
##위의
##비에
가지는
휴대
##처분의
횡령
덜
##했어
1차
##않
없어서
감도
##주로
400
##보겠습니다
피고인에게
하기로
빅
나름
한정
이의
##ᆷ으로
통신
##ᅳ라이
서울시
이유를
##라인
명시
##자나
##으로서의
이럴
##시대
##로서의
피해를
압수
거짓말
2019년
##하셨
제1항에
보십니까
##목으로
승인
정규
방지
##와서
책임이
##차가
##25
하신
자동
##수도
받아들일
이번에는
사연
##선은
##학적
##록이
##경찰
폭행
반소
##겠다고
복잡
층
##90
##im
옳
도대체
연예
청취
건가요
방해
가끔
연방
##왔다
##주식회사
시키
##운드
블랙
본격
나쁜
넘어
필리
그만큼
선배
깔
크로
소장
변호인
스포츠
법원
아니겠습니까
건물의
후반
부동산을
사실에
없게
원인
경제적
둘러
입금
사과
준비를
런
포인
예전
위협
적은
##젝
밴드
아이고
말도
좋다
##락이
절차를
비율에
##항소
애니메이션
남은
방어
##ra
형식
##뮤
##푼
출입
과정을
때가
현장
##다른
찾아가
민간
고통
지급할
##시마
그것은
38
어디서
공익
안보
왼
있을까요
##바로
계열
그들의
있다가
숫
원인으로
하셨
승리
km
##ᆸ고
냄
굳이
보존
좋지
##칼
##17
##롱
아니요
34
힘이
문제에
##기까지
역임
건지
얘기는
##정도
구입
단지
##ᆻ나
##갖
개설
지하철
스토
영화이다
삭
##류의
조국
학년
경위
##18
##행위의
노동조합
여기까지
##버려
출시
청소년
##력의
##계약에
정기
일종
##법원에
검색
자유한국
##었죠
업무를
버스
알려진
살해
##시피
말씀드려
기분
세포
##설정
##센터
참작
##스라
##경제
짐
선수가
교환
일부를
##죄에
기본적으로
낮은
이승
채증법칙
센터
##인들
tv
현재는
제2차
##청구를
##성도
입고
결과에
벗어나
##밍
성격
조심
##몽
##시켰다
이명박
##및
1993
공산
유니
제안
##방을
##점은
아나운
개시
마지막으로
##크를
고생
기획
가치
##계산
족
사업을
상고이유에
스위
좋습니다
##님의
##어주
십오
경기에서
일어난
처음에는
얘기하는
엉
정권
앤
하겠다
##공업
넌
하늘
파산
##가와
선박
##이라도
검사의
보시면
개선
했다는
단정
##끄
방법을
배달
파악
운송
##였는데
값
ㅠㅠ
능력이
##아의
##박이
일반적인
쥐
형태로
규정한
##지법
걸려
고유
수요
철거
기억이
##료로
##목적
##그룹
됐는데
카드
##구는
전시
댓
##음에
이루어지
법적
##일은
감소
상징
어어
나를
금액을
주지
건데요
것이나
지키
고객
고정
효과가
하거나
유전
##등기를
##관한법률
지출
방영
수록
1991
##ut
십일
플래
벽
##둘
달성
대표적인
배제
##화된
주장한다
낼
##행위로
예측
당장
고속
판단하였다
##하의
쫓
공항
마찬가지
출원
##학의
##으니
수석
조지
소유권이전등기를
##스에서
끝에
pr
탁
##어질
에는
정확하게
##셨는데
물을
제2호
##ir
총선
상환
차이
개념
##세대
출마
제정
통화
##님은
##많은
김경
생명
보세요
거에
여겨
ㅋㅋㅋㅋㅋㅋ
인정하고
##지면
논의
기재되어
##ᆻ네요
##계약이
##급여
##하고는
1992
규정이
수사를
##일로
1990
거니까
사람도
없었던
다루
애들
##보호
캠
초대
보여주
결정을
##범위
육군
일곱
회장
기름
##드리겠습니다
관계에
흔히
사용한
무기
##ᆫ데
##몰
취업
3일
##조차
55
생활을
##도와
그렇다고
##일인
2001년
바람
반면
생략
##동의
##에게는
부부
눈에
되면서
##22
않는다고
띄
상당의
기록을
##으세요
##ᅢᆼ크
##명이다
정도에
##목록
단독
정도는
맨날
평가를
공천
세대
예금
둘이
##튜
똑같은
소송을
##듀
제11
정부의
##상에서
##업무
##개를
##중앙
널리
말이야
##점으로
별도로
정비
못하게
99
188
##빛
##겁
프로젝
오인
많고
##르트
회담
원인이
이기
헐
##자고
와이
##빌
이야기가
고시
얘기도
획득
##종합
물러
37
저한테
##차피
우려
복귀
원하는
이영
재정
##일보
##버리
맡아
##ᆷ피언
아닌데
말소
박정
엘리
95
노래를
하실
##스카
기재된
##었다는
호텔
바른
##박을
##규정
##백만
국가대표
시사
일시
브래
중도
후보가
구매
옛날에
##가격
가산
사이에서
그녀는
이익이
미국에서
신의
피고인에
어차피
꿈
기회를
구간
##비는
보충
우와
39
##세에
시스템
운동을
털
##방법
##어졌다
##취득
댓글
행위가
##아니
##면허
관심이
배경
지방자치
##어의
그렇지만
##께서는
발달
모아
아침에
피고에
말은
##원과
##인가요
취급
신축
##인들의
북한의
개녀
피고들의
##경기
좋겠다
15일
서류
ㅎㅎ
사유가
상승
##메리카
연주
행위는
승계
서비
입주
이들
넣고
글을
벤
챔피언
##파이
내세
집을
슈퍼
##이었습니다
브리
하여야
완료
농지
직권
시에
끝까지
파괴
##상속
윈
##옹
##로가
집합
최고의
영역
##치게
가리키
소프트
만족
##체는
##량의
늘어나
소유권이전등기
자식
##배우
##종결
##un
어떻
개입
##트라
소유권을
자리를
공판
##흡
셋
질병
##청이
덮
##학년
벨
엄청난
##진의
일방
하였으나
의결
수많은
상처
공포
물질
견해
단일
새벽
##중학교
건물을
파견
##렴
조합원
점은
성질
##액은
##시장
정지
##토지
##보다도
##움이
name2
##금융
지급한
##고법
대사
##상품
5년
10일
30일
지정되었다
그때는
통한
사고가
됐어요
춘
혼인
김태
##중이
기존의
일주
붕
전공
##실에
부대
재직
수원
대통령은
##시로
의견을
제출한
해당한다
벌금
노무현
덴
스페인
##스턴
마무리
사건에서
가사
저희는
노르
##조치
흉
못할
##들어
도망
넘는
상고이유의
거에요
물품
카메
##첨
제1항의
현금
##받았다
수정
##중의
에게
아이가
##화의
란
매년
소를
경우를
취임
무시
둘째
##ag
쪽에
인민
##물로
포함되어
##였고
##명에
기망
##탑
##었으며
은퇴
뭐라
피의자
기소
##등의
제3조
여부는
##싼
##성으로
##만은
때마다
이들은
강남
##환경
##부와
세금
##이지만
제12
싶다
##화에
할지
오늘날
##값
##마트
동네
합리적인
충돌
##통신
##자들을
고양
##악을
유엔
##맞
##드ᄅ
보니
너무나
닭
볶
우려가
업무상
남쪽
경찰이
담당변호사
상대방이
특별히
de
대형
##퀴
##작용
##발을
회계
처음부터
20일
공화국
##나이
초반
충격
##믄
생각도
시원
취지를
##ᆻ었는데
칸
화재
##버스
교회
##국에
1억
만들고
잉글
발사
봤는데
가요
##한다면
##cm
발생하는
br
##하네
들어가는
관찰
바에
##마디
##겠다는
세력
환송하기로
##롭게
손을
공감
##닥
##소에서
시각
홍콩
쉽지
되거든요
각하
##반환
그린
아라
##증권
정확한
202
어쩔
예방
본래
가벼
이중
봄
과거에
##원심
오늘도
이곳
대변
좋겠습니다
##관으로
고대
##항의
확실히
##기간이
5일
소통
75
##야말로
친구가
오전
어린이
관여법
##워요
##48
공직
##위는
가을
##역이다
짚
합격
빵
##법시행령
인상
고지
부동산의
##자금
##되자
걷
##칙이
북쪽
항소를
협력
제13
##죽
원의
골프
사용하여
##되므로
일찍
##비의
잡고
딴
출석
어음
600
##ᆺ지
냄새
한미
부담한다
폭력
알지
보이지
학생들이
##원인
없죠
정부는
##이라든지
수리
##해가지고
##자들에게
금전
핀
##무서
동맹
교체
일제
##마자
먹으면
헬
##달라고
##이요
있었을
잘못된
##겠네
취소한다
갖다
지역에서
떠오
심지어
##브리
고려하여
떨어지
압류
해고
정황
건너
전화를
지분
##복을
접수
받아들여
중학교
아름다
나이가
93
떼
비해
대통령에
1989
##집을
##인들은
##ᆫ스
묵
하여튼
결승
대표이사
여덟
만들어진
##달라
따ᄄ
앙
아니하여
48
인공
##로써
없지
##에다가
조용
##법상
문서
몬
포괄
##뻐
관측
마르
항변
고추
연극
이고
아버지가
fifa
들여
판결이
신설
##률이
98
평생
##도시
이성
##단으로
종사
사실오
모르고
65
홍보
경계
##메달
##등을
받아야
많아요
증거를
상황에
챙겨
의원님
과세표준
맹
이종
##28
분쟁
##사회
녹음
##국을
뵈
지연손해
카페
확정된
연습
홀
갖는
사장
자체를
보지
추가로
기부
##덤
노력을
여지가
점령
##ce
아프리카
네덜
1998년
##전은
##ᆻ어야
##도에서
앉아
원칙에
국무
설득
진술을
것들
배워
첨부
형이
##하니
##ᆺ다
##전문
면허
##산이
마음에
##까지의
만난
법리오해의
##ov
법률상
보낸
##사실을
##카드
변론종결
##야마
##래요
방금
혁신
##명한
##정치
데리고
훌
작년
차를
김치
대법관의
다음을
능력
다수의
타당
드러나
스티
re
처분을
85
##톨리
##ᆻ을까
대항
##히는
사진을
1999년
상당하다
##소로
43
남편이
디지
94
우리의
ㅇㅇ
자료를
법리에
7일
다소
미국에
미국이
하나이다
1990년
김대
수립
거리
##결과
##하였는바
##처분이
가만
##대에서
빚
하고요
96
##차로
##니까요
##처분은
신체
주위
표현을
##집니다
맞추
미술
##되었으나
의사표
유기
##돼서
문학
북미
남부
편의
##은요
대기
총리
##몇
있잖아
자신을
25일
##과학
증거에
이어서
론
##사에서
##ap
재무
ㅎㅎㅎ
갱
하던
변호사님
불교
너는
800
외부
대우
양수
경합
됩니까
##24
위조
회사는
의사가
옹
긍정
되잖아요
사립
##스리
##닉
했죠
지원을
186
기능을
못했다
편입
##스키
비상
직장
##ay
버려
유일한
번째는
학생이
싶어요
##보세요
스튜
사람들을
2일
새누리당
##지요
출근
##이한
##23
무너
그치
오르
##면으로
얻어
대가
증권
가까이
##준다
가압류
##ᆯ을
오고
##향이
##목을
무르
##결의
원고를
##탁을
스웨
쌀
고기
47
산출
한국의
##후의
##꽃
##일러
비례
고의
내용에
즉시
##나마
낸
##이행
##대금을
봐도
##사이
##보니까
이상한
전용
##놓은
##칙에
나뉘
##서도
97
색깔
범위를
울산
방향으로
바탕으로
중대한
자살
낭
듯
제1항은
실현
화물
원에
항소이유
발급
있나요
청산
아니죠
##조는
화가
출생
끝난
않았습니까
차가
배임
시작한
##펜
##고기
미세
원고들
유죄로
보게
애들이
##소송을
있다라고
##울러
고등
의사를
##섬
죽이
융
싶은데
##면서도
분은
88
명을
##ᆮ아
할아버
잉글랜드
세상에
영화를
하거든요
원심법원에
금방
##했기
영국의
##되거나
##형에
##져서
주변에
공립
위원장
의무를
두려
선생님이
##ᅪᆨ
이해가
아저
##사람
##비로
김상
##인민공화국
청문
흘러
위탁
내고
##류가
4일
당시에는
이상이
작성한
독자
##안의
##국가
해지
믿고
통지
다음날부터
며칠
##부분을
##봤습니다
의미한다
펜
##되게
al
말씀이
간다
의미를
앞두고
많습니다
살인
입학
##하이
편집
그랬는데
길을
2014
패배
것인가
팩
그렇다
##지구
공작
붙여
심각한
최순
부당이
그래가지고
여야
기다려
##하라고
중인
신기
허리케
체결한
포르
기하여
웬
예외
##무효
28일
##ip
결론을
가리킨다
대해서도
##청장
49
업체
모습이
187
국가의
말한
우리도
김동
않나
##카오
1997년
다르게
##목이
대책
##26
한마디
어른
주시
세종
##증거
검찰이
##결정을
다ᄅ
신고를
본인의
런던
초래
다이어
보건
##로로
일으켜
채무를
차원에서
지위를
했어
저장
##된다는
함으로써
아무튼
내용으로
점심
혁명
##청의
##ㅜㅜ
##속에
했었는데
도서
비싸
##ㅋㅋㅋㅋㅋ
법률사무소
부당이득
##ct
150
궤
##육이
식민
티비에스
##ers
##젠
취재
ㅋㅋㅋㅋㅋㅋㅋ
최소한
죄송합니다
간접
##철도
14일
끌어
##정과
효력을
##앞
##롭
동료
짧은
영토
흰
##뇌
개인적으로
##가고
공통
##드리고
##ᅳ는
##물은
강력한
##민주주의
46
영양
년에
위로
식품
반갑습니다
생각할
시공
시기에
그들은
노선
##콤
산입
##지기
좋고
제반
구할
##요건
씨의
동부
했었
불리는
##오십
심리미
확인을
여객
디자인
44
##라리
##가능
알바
##ul
10년
주식을
아아
##문학
인권
##ᆺ데
열차
자리에
아무것도
거두
정답
전체적으로
트리
김일
##하잖아요
학습
똑같
가자
##고에
번역
##웨이
##되었다는
아홉
제재
아이들이
부모님
지방자치단체
들어가서
상태로
것이니
6일
소요
##용으로
투입
##og
취소를
없애
어렵고
##촉진
돼야
리더
있었다는
높이
뻔
스코
청구할
##시와
전망
##미가
들어간
농업
직후
권력
8일
##륭
##27
주연
콜
패소자의
##헨
##증인
21일
돌아오
##일랜드
페르
66
면적은
##트워
17일
##사업을
되겠다
조작
조각
앵
게시
##하면은
말씀드린
차별
띠
##웨어
##실에서
아울러
첫째
정확히
뜻을
화학
내의
입찰
##사카
왜요
##인이다
##주시면
12일
적합
마시
상태에
도전
##로도
하나도
구성되어
호남
끝나고
##mm
27일
근본
26일
함에
##국은
소식
합의를
예예예
and
담배
##어음
##연히
교사
나가는
정하여
고구
##실의
자기의
구상
16일
부분도
64
##법은
##법위반
##묵
갖다가
##이십
1995년
말했다
태평
##치의
마리
##th
폰
스웨덴
상황입니다
##업체
##트에서
9일
##하거든요
##붕
한국에
수업
몸에
##그렇
장난
저희들이
법원이
양형
##되기도
연애
내년
가능하다
##문서
##사실에
네덜란드
##쇠
22일
##처분에
체계
청취자
유래
##모토
아무도
폴란드
##가서
87
디지털
적용하여
18일
정식
53
그중
##소리
마침
비디오
##29
목적이
마쳐
분들도
썰
빠른
보자
처분의
##취지를
발생할
일으키
##책임을
일종의
어울
##량은
교육을
데에
1987
폐기
86
##이고요
달려
플라
하잖아요
별도의
상업
##세포
##먹고
##이니까
1983
등록상표
선수이다
##이라든가
##정지
##솔
글로
안내
이듬
김기
얻은
자료가
##정리
사퇴
신분
오랫
##자이
훼손
자백
##베르
23일
1996년
변론의
##유가
##호선
##ᆨ시코
에어
온라인
가중
관여법관의
밝혔다
##ᆫ지
깜짝
도시계획
##종이
54
신청을
살펴보
같고요
했는데요
전제
요런
밑에
##짜리
원내대표
나갈
##ᆯ링
##어날
드는
##엠
되고요
재산을
사용하고
법원의
군대
11일
##범죄
유도
##그라
배출
##드릴게요
허리케인
곤란
성폭
##확인
##로의
아나운서
##경이
##븐
타인의
##스피
1988
##ᆻ구요
급여
유가
묶
소방
입단
받아서
뮤지
허가를
##결을
폭발
부적법
##월에
항고
정책을
그랬더니
괜찮은
뭐예요
##일까요
만들어서
분노
끝내
##잉
브라질
##되었던
항소인
동쪽
마친
납세의
말로
##좋
전원
들었
비로소
감독의
경부터
##인도
법인의
##하였다가
단순한
매매계약
##상황
곽
사업시행
계획을
생각은
##톨릭
##회사가
본질
##수입
수긍이
29일
말아
뇌물
열어
##릭
아니므로
드릴
없으니까
만나서
무죄
##부모
국토
있느냐
이듬해
멀리
##기만
##이라면
재밌
아닐까
않았고
죽은
갖춘
측정
존재하지
##보상
등에서
독일의
##이었는데
국세
모집
생기는
##면서요
상상
방송을
13일
그쪽
문제로
프레
거냐
미쳐
양도소득
이내에
원고들은
com
##면이
분배
엄격
오토
아이를
맡았다
블루
선의
행동을
채널
83
개편
평소
오랫동안
an
해산
유통
##법상의
다리
##골을
어떨
밟
입장이
소지
중간에
##크라
##ie
요즘에
##경에
1994년
중국의
##차례
##설을
1984
##중한
24일
얻을
##이션
##뚜
소개해
84
##갖고
58
마라
나왔습니다
떡
흔들
##주의의
##흔
자세히
1992년
사고로
오픈
돌리
얘기할
수집
##땅
미치는
##함과
동원
주신
##봐요
이득
##그ᄅ
89
##하러
유형
스마트
##행정
문을
##유를
시대에
사용되는
희생
명목으로
노출
인지
아니지만
말에
내는
행위에
##제1
모여
조치는
넘겨
kbs
검증
테이
##으셔
##방에
56
정부에
질문을
몸이
있다라는
만일
##님을
##동생
##사유가
펼쳐
##고가
세상
##하네요
땐
혼란
구역
##본을
부근
sp
19일
결성
##넘
구별
##하시고
의도
수영
##허가를
생성
사망한
닮
##무성
그녀의
맛있는
##하되
외에도
68
내리
프랑스의
같아서
적절한
##하라는
##둬
공격을
객관적으로
져
한하여
조절
자전
##제공
공부를
규정된
##산의
##륜
이뤄
##료가
4년
효과를
##대장
파리
될까요
자세한
신라
##색을
방식
측면에서
저게
판단하여
흐름
그래야
많은데
##부분에
나고
홈페이
##맛
지역을
진입
무죄를
##위원회의
피고인을
비핵
##방이
##안전
클래
다수
##ist
것이냐
체육
대금
고향
코미
무역
##판매
대통령을
오스트리
관련이
##증명
##하구
설립된
셰
판단하여야
##na
번도
맞어
루이
th
서쪽
그곳
곳에서
보건대
면제
57
대규모
##지면서
##치로
지명
자극
긴급
미사일
제4항
구성된
추측
##시험
접촉
하천
요구하는
조금씩
억울
진단
##각을
읽어
##사업의
##화로
작업을
씨를
흠
스물
##하기는
완벽
운영하는
해군
##보조
카메라
멕시코
관련한
##ᆻ습니까
##그렇다면
방위
자랑
록
##아파
누나
심리를
일본에
투쟁
풀어
체제
위자료
비교적
##각이
자의
제1차
원자
지급하라
##멍
##하겠다는
있었지만
##꾼
인정하는
들려
저항
##실을
재량
##영의
피보험
롯데
63
##정비
통보
활성
##얀
지금의
구조를
단백
000원에
몇몇
그러지
##서로
근저당권설정
인기
필요하다
##프라
1991년
##버린
공시
##오고
1982
경기를
술을
##해가
찰
택시
ar
음주
사령
사람들의
혐
최대한
유튜
##문은
##셜
바르
반대로
##이던
##ᆸ이
##되었는데
67
간주
아니라는
듯한
있겠죠
들은
좁
나가서
제이
잠깐만
1985
##니스
시내
소년
것이었다
달라고
타이틀
임용
하도
아니할
그라
1981
전주
##수수
우승을
원칙적으로
나면
안돼
73
##교회
현저
정말로
##ard
##기에는
마시고
하세요
없지만
##기일
주소
##자도
말해
1980년
치료를
결혼을
질환
기울
괜찮아
제14
트위
피신청
되나
피고들이
##되는데
거고요
핸드
1986
아카
강원도
##력으로
싸우
왔는데
##긋
주에
일상
##청에
여러분들
##마가
con
##거같
바까
##세무서
77
##끄러
성립에
##리스
##유예
##으면은
동의를
보안
사후
논리
부합하는
삼백
뭡니까
권한을
평론
##부르크
인해서
말할
포장
반하는
##으러
그야말로
없으면
1993년
도급
김형
자리에서
이외의
##분양
검은
##하지는
통치
##ᆨ에
형사소송법
미터
규정은
자네
나름대로
##아노
##주면
드리겠습니다
##서비스
뒤집
충족
눈이
똑같이
##데이
공화
공사를
붕괴
주관
제3호
##술을
탄핵
전하
제18
##리어
소집
정도를
사항을
건조
##ᆷ에도
엔진
유승
건물에
##면의
700
##받지
##행이
##ᆻ냐
반란
기회
##심의
##이버
##ᅳ레일
##나와
##and
에너지
원심판결에는
마늘
##실이
동안에
판단할
통제
해줘
un
혐의로
그러는
##잘
##리기
대북
처벌을
##부동산
시청자
링
국가가
히로
요양
정하고
바깥
협박
여당
말씀하셔
주된
여ᄍ
##였어요
들어갈
상담을
원심판
##전으로
##들로부터
한일
알아서
넘어서
스튜디오
예쁘
가치가
그러는데
서식
감독이
그러게요
##체로
운용
전후
##됐습니다
국정원
제발
오늘의
임무
물이
##항소인
중소
명백한
없기
1988년
##신고를
##하겠다고
범행을
복지
에스엔
##기관의
##정책
스피
##점의
멋
ue
판단가
되겠죠
결과적으로
##의원
황제
김현
가지가
공탁
김진
위원장이
그러네요
##산에
이로써
맞지
시효
실질적인
강하게
##회담
76
보기에는
##다라고
피고인들의
생존
지식
이사건
보완
저를
남용
##장도
훌륭
집안
고위
대단히
가담
##프를
자라
2개
있을까
깊은
지역이
바가
##년도
멈
형제
합의가
친일
##었지만
78
나타내
손해배상청구
세상을
않는다는
아이디
제2항에
##부담
##질러
##크의
서울고법
##볼까요
##론을
##못
uefa
##힐
원이
##취소
가로
토지가
##앗
##공무원
##마을
절반
주장이
곱
헝
현재까지
가능합니다
92
##축은행
일도
개통
움직
피해자를
했거든요
오브
표기
##과세
드리고
형님
뼈
돌아와
후원
가톨릭
로스
아동
있나
##길래
xxx
##폴리
갚는
##으실
##뒤
##투자
##둑
대위
##쳐서
멋이
2인
개가
분포
제17
알았어
성과
늦게
목소리
윌리
##고는
못해
##합의
##자이다
##디아
##팔십
어깨
르
이용한
궁금한
전개
##하자면
고발
이분이
##제이
하계
감안
##주인
##군과
목수
180
강의
제작된
취지에
위반하여
지가
하자가
##느리
축하
소멸시효
나의
입원
치러
병원에
되자
ㅋㅋㅋㅋㅋㅋㅋㅋ
여성이
##하였다면
퇴근
00경
멘
##당사
##딘
면접
민주주의
말하면
신성
분위기
부당한
답답
어렸을
문의
근거로
팀이
##겠느냐
##계에서
##딱
##언을
날이
펴
##었으나
name3
대립
남한
점포
꾸준
##겸
상태가
겉
동기
네트워
납세의무
갔는데
좌우
제4조
##수와
방치
오해하여
##선으로
무리
나쁘
이후에는
들을
제공하는
##복지
해체
한반도
코너
부르는
나오지
먹어야
##향을
신규
연령
##하기가
##대출
59
##던가
들어요
사실과
작품이
주장하고
이후의
##가락
구축
도모
##타민
방법은
##르의
김재
1989년
##ㅠㅠㅠㅠ
뮤직
##ᆸ션
##공개
요즘은
친노
지위
존재하는
##내에서
쪼금
날짜
연대보증
비해서
##장인
조약
않도록
스태
이하의
방법에
##활동
##내역
인간의
##하셔야
발명
##카와
학생부
얘기해
회사를
숲
##개시
명의신탁
##덩
재단
에피
새롭게
대여금
생물
##상과
역대
준공
##양도
무릎
아저씨
아가
##평을
69
##구로
79
각자
##십니까
자로
구체적
삶을
선수로
##화는
##ᆸ다
이집
##ab
게다가
열려
##랜
데려
##조로
흡수
쪽에서
회수
정상적인
아니면은
할인
포함하여
알렉
친박
이렇
##있고
존재한다
사찰
어릴
차라리
일치되어
##ᆷ과
##금액을
유대
하려고
피부
발언을
기다리
북한은
##넣
##est
되는데요
김무성
대화를
##이었고
집권
##처를
없잖아요
파일
##협회
가공
금전을
그해
맘
하도록
##기간을
##쾌
제5조
피고들은
일로
줄어들
##또
후의
김지
마이크로
##왜
증거로
크리스
경찰에
통계
기초로
어떻습니까
제15
수비
##민족
74
요소
##개혁
확인할
##운송
사람에
##미를
##판을
##형사소송법
카카오
##검사
##계좌
##툰
계획이
청구에
##하긴
##승을
##지인
씨에
##있어
sk
용도
데서
근거가
##니어
좋은데
##하였거나
자를
연락을
당사자의
제국의
반발
종종
이러면서
시작을
연관
가짜
전면
원고들에게
당한
##ᅳ레일리아
##장애
징수
##서와
##겐
박정희
취지에서
탄생
꺼내
오리
싶어서
제기한
##보존
일본에서
##수용
규제
사유로
##에만
경락
##조정
경상남도
뒤로
것이지
규정되어
##ᆻ잖아
어두
전취지를
용역
그들이
##ss
tr
앱
받았고
크고
컵
걸어
##쿨
아마도
출신의
##치에
환자
설시
##협약
세월호
재건축
##왕의
내각
들었습니다
기준이
여기에서
소녀
하기도
묘사
위치하고
최순실
이틀
존나
상해
향후
부칙
##구만
##삭
##등기가
조선민주주의
하여도
귀국
단기
변호사가
닫
부분의
의뢰인님
면에서
##드릴
##급을
##대회
지위에
##하였음을
죽을
2020년
검사가
상대적으로
것일
##근로
의원은
##입니까
설치되어
테러
했기
말하고
비용을
별다른
정착
##관에서
##신의
태풍
le
##보가
##민법
버리
위헌
귀족
모시고
##업에
오면
불복
##ine
##if
부른다
부분들이
##컴
##남이
일부러
키로
증거들에
##중인
영향이
##지사
렌
못한다
탓
##하면서도
여기는
탈출
강요
##인한
한글
밤에
##운전
##ㅋㅋㅋㅋㅋㅋㅋㅋㅋㅋㅋㅋㅋㅋㅋㅋ
##에선
아픈
##년을
##영이
이며
개인의
될지
예비적
유죄
보유하고
행사할
지난해
만날
증언에
##푼의
빙
인정을
현상
##국에서
하시고
##저축은행
##조선
이겨
##산으로
대륙
##av
있었기
쓰러
대답
경험이
1980
원래는
##단과
소화
3개
놈
선수권
뛰어
김준
사장님
제16
사람에게
서양
치고
이슬
##ᆷ입
어려울
해야지
##연금
이후로
##바라
태평양
목적을
장관이
효율
일관
##당에서
에서는
번째로
자전거
사회주의
의식
둥
핑
사건은
제6조
185
충분한
이쪽
한때
##자라고
가격이
판례
91
진정한
왼쪽
얘기하고
후쿠
기간이
엠비
몸을
형의
일에
##목에
위원회
항의
##ᆨ이나
##는가
풍부
주제
법원에
##발생
논쟁
주었다
경남
##병원
##셨죠
쏟아
아일랜드
공소외
서명
모르겠습니다
프로그램을
사전에
##것이
생길
승용
본격적으로
있거나
자금을
배가
달에
위반한
붙어
##수행
##중을
영구
##가루
사용한다
##적이다
##순위
했으면
성우
##ak
다가
오른쪽
필리핀
##볼게요
##기한
식물
도달
설탕
지금부터
지냈다
않지만
요시
경상북도
맡고
되겠습니다
글쎄요
##해지는
방사
끌고
하시면
부정한
인정된다
환지
모의
걱정이
##ess
믿을
##소외
##자로부터
전까지
아빠가
박영
태어난
##35
수여
##발명
정치를
##사인
##짓
피고인들이
이인
##형은
##드러
##뜨리
직접적인
오사카
유로
자체는
시절에
대개
##모가
오스트레일리아
피디
말라
##옵니다
##기지
##영화
인기를
나오면
##당시
ne
현실적으로
스키
해방
어머니가
손님
의미하는
1개
##ᆺ포
곧바로
##수익
이따
되나요
##의무를
나오는데
##되었을
##했죠
사기죄
##항공
애가
시정
분의
##으려고
##미널
당신이
피곤
기록이
전부터
친구들이
sh
진료
##석의
##하고도
인가
납세
재항고
누구나
2의
일본이
트로
그러게
기회가
일부가
넓은
성매매
전에는
빠르게
기록했다
베네
형태의
존속
테니까
##구십
##듭
한국에서
선전
세운
동계
신빙
셀
더불어민주
재료
개헌
##방해
변화가
피고들
시작하였다
##견을
##협의
여쭤
##tv
이리
관리를
있어서의
사단
하루에
부분에서
나랑
오래된
놓은
##고의
건축물
카톡
성인
확정판결
딸이
초과하는
시대의
2015
on
문화재
##파를
재산상
일자
줘야
덧
할지라도
뭔지
눌
##승인
가리키는
위법하다고
##임스
발표한
##석은
가시
베르
식사
법령의
바람에
용인
법인세
##이용
맞다
##으로도
북부
##친구
주기
나머지는
소리를
중반
계승
제19
##원들이
##마스
부디
단어
나왔는데
찬성
##영업
대다
송금
##문화재
대략
까지는
않았던
이르는
사정에
오스트리아
##보내
재임
헝가
##쌍
공소사실을
##분할
범위에
##제도
사고를
승객
어머님
##사령
집행유예
과실이
유행
정정
##렁
수표
뭐지
일주일
##빵
##능력
핫
옷을
가처분
1986년
기본적인
단위
##모를
가스
메뉴
##건물
날씨
##200
들이
작전
취소하고
소환
뒤를
##시즌
후손
아베
##면에서
##즈의
to
됐고
부가가치세
1987년
##레이션
국민이
##눈
##분들이
무료
##ᆯ리는
집으로
찾는
마사
철학
이행을
##정상
빨간
걸까요
가질
##싱턴
1945년
이십오
착오
##파가
요건을
##우가
비가
지나지
팀의
하나씩
심리미진
모르겠어요
승강장
아니었
터키
##교의
미칠
퇴직금
현저히
##ᆯ은
내놓
합류
##art
유리한
윈도
보내주
뛰어난
필수
원심판결은
개인적인
is
과정이
##파의
봤습니다
대표는
협상
회장님
조금만
내용과
##적의
민정
있긴
괜히
자율
##낭
연출
비타민
즉위
상위
##ᆺ불
##셰
아니하므로
연구를
동영
이만
들어온
조례
주식의
제7조
상가
##선에서
확정한
계약이
인출
##일로부터
##함은
트래
능력을
##해졌다
듣는
##감독
다음은
그러다가
000원의
아키
건립
꼼
브랜드
아이들
##유의
##삼십
##예정
폐쇄
##기관이
뚫
09
콘서
##드에
종합적으로
번에
꼽
가치를
##행위는
##역에
보여주는
가능성도
인정되지
##가액
미군
##ᆻ거나
삽
음력
아름다운
되었으며
자유한국당
미디어
특례
거친
우린
것들은
서서
##건이
많아서
적도
판결의
서부
##ob
포르투
##피아
가집행
황교
현행
##프는
31일
##ᆻ단
##셔도
카를
받아들이지
후에는
##크는
한두
외국인
있음에도
그런가
꿀
대조
오백
소리가
당사자가
갈라
##ity
##33
위험한
##ᆺ는데
과정에
특정한
애플
응원
1984년
인접
아이돌
임의로
공소사실에
작품을
일년
이전의
부족한
법조
박물
만나는
오일
##빨
##이어
우울
되었다고
얘기한
민사소송법
##경의
주장도
지속적으로
사랑을
다하지
##프가
##에다
##하냐
##해지고
수사기관
##마를
조카
개성
점차
##길이
소식이
성격이
쉬운
이수
처분은
##프ᄅ
유승민
시위
천황
과도
가라
##시까지
제9조
120
나라가
정리를
밥을
벌어진
별표
승진
증거들을
아래와
팽
지니
하므로
사용된다
재밌는
머물
##티아
아니지
주시면
어려우
##시키기
am
정체
사망하였다
영화배우
상고이유에서
##볶
##45
다니는
예약
있겠습니다
회생
쓰레
번씩
만들었다
비판을
엄청나게
의존
눈을
엑스
공식적으로
여자가
##종을
너도
체험
대출을
##ud
##전쟁
갖게
양쪽
한강
개를
말해서
선고한
음식을
수십
차단
전쟁을
인디
평창
이병
설치된
반하여
씨도
탈퇴
깊이
활발
강경
판단하고
##형으로
##계회
사회에
망인의
##껏
전직
삭제
동양
법에
숭
무엇이
봉사
독특
##판에
십구
제36
말이다
게이
다카
##행사
##ᅮᆫ다
애기
중개
##버트
모르겠는데
하긴
찍어
##현의
##ang
##령이
하셨는데
##크가
세계에서
껍
잎
시의
##먼트
계산한
##워드
1985년
악화
##색이
1979
왔어요
이르기까지
있었으나
##항을
##랑이
하였다고
실체
상의
로보
##현이
음악을
몰래
데는
부속
결정이
감염
##메달을
##하려면
##명령을
계약의
전라남도
##ㅋㅋㅋㅋㅋㅋ
피고와
물어봐
오로
보전
유월
아버님
윌리엄
캘리
지불
##등이
##만원을
관계없이
고전
##구조
소수
##민의
오지
않아서
결국에는
1970년
##연도
집이
##령을
##등급
데가
##보자
응응
##대와
불과한
포인트
토요일
않기
##ill
##ㄱㅋ
##맛이
05
오이
며느리
sc
다운
세무
##끈
##대문
사람들도
상대방의
무게
담아
당일
수급
지나가
치킨
이후에도
공모하여
뮤지컬
시인
고속도로
장성
##진은
걍
안되
호소
홈런
##보증금
##터를
토지는
장래
판단이
연고
##병을
##거지
마세요
기분이
모임
포지
현역
모르겠지만
있었으며
원천
해안
##늬
여부가
중국이
붉은
요구를
원심판결에
부상
1의
##고속
간호
서울고등법원에
##46
##능이
무효라고
만드
본인은
신호
살아가
공기
끈
입을
1982년
##셀
어마
주면
워싱턴
나왔다
##스트로
##비에스
많지
물건을
신속
전쟁이
유족
동남
유발
했지
것만
낫
양성
가만히
##해라
제20
별개의
##세로
##경매
경비
허락
사월
##브로
있었죠
없었고
##igh
창조
서비스를
으음
지정상품
포함한다
##신용
##서에서
##정으로
메이저
채권자
대장
상세
메모
이민
에도
항소심
##사라
나옵니다
완공
킬로
게임을
공동으로
실제로는
모데
헨
##콜
위법한
피의자신문
##nt
근대
여행을
임원
##주교
왔
##연이
##능을
해소
##특례
가려
위치해
월요일
형을
##활동을
교통사고
보도가
비율로
브로
중에는
##니깐요
##재가
2층
심한
복합
겹
법령에
mbc
##나라는
##ik
##주지
장악
친구들
훔
##이라서
상태를
##서울
주민등록
양자
##건의
제1점에
투수
어디에
실수
##셨습니까
##ᅢᆼ이
법을
아직까지
어허
소득세법
판단에
대회에서
헤이
##육십
텐데요
일요일
##럴
##하고요
기준을
채무자
은하
##대책
솔로
법이
##채권을
너희
남녀
##단계
막아
그러기
승소
##ell
있으니
##21
거라
정신적
승리를
cd
여의
소프트웨어
개정된
마케
알렉산
않았다고
스트레스
책이
##약품
범죄의
프로듀
광장
규칙
##대상이
동시
##판사
기후
출장
##망을
대표이
않았습니다
받기
한쪽
말입니다
미세먼
핸드폰
##성립
##세액
##포니아
십팔
보시는
##용을
마주
컬
요지는
닦
사건과
대단한
##즈를
잡혀
##갸
다를
##안은
##다시
놀이
도시로
해와
일부는
김병
나와요
된다면
아줌
지역은
##민사소송법
##산화
했잖아요
##거라
봤어요
##당과
다르다
184
무상
있어서도
잭
##이하게
뻐
포함된
##석에
화해
##오카
공원
권유
반면에
##씨는
ii
재판을
틈
##보도록
##ᆻ을까요
어긋
피항소인
가능성을
진행이
##일수
꺾
##돌이
##련의
##37
이태
##법인의
##우리
분위기가
김대중
실무
님이
08
##방의
진화
영수
같구요
국어
보시죠
해임
연락이
##선고
천안
##36
##용의
현지
선거에
주부
##인트
박상
새정치
학원
내지는
열두
그에게
수사기록
병합
##세이
##설립
인기가
제2항의
학부모
##인들을
판결은
수고
극복
괜찮아요
특성
생각보다
몰아
##과정에서
만들어져
##악이
##이거든요
오천
고급
하였으며
제주도
세부
공고
제1호증의
영입
fr
공을
마지막에
자연스럽게
유상
모두가
##우의
##진술
채권을
국민들
후배
스마트폰
편성
체크
뒤에서
십육
믿지
납입
바쁘
##력과
##달러
승인을
##가포
조건으로
아니고요
법원은
##변제
플로
황금
##연을
##소와
##터가
가져가
사해
완제
이경
공주
1983년
##션은
이외에
장치
900
피고로부터
요지
전당
고민을
##절한
##용이
역사를
##셔널
맛있게
방식이
규정의
라인
사항에
필승
5푼의
장군
근로자
모른
이상을
41
##동조합
##기보다는
전사
##놈
목격
정치적인
국회에서
노조
살려
손에
저지른
후보자
닿
대출금
대외
준다
마치고
밖의
부지
프레이
덴마
승격
전남
사건으로
샌
생각하면
거기에서
그나마
적정
##니가
삼천
양념
발견된
##잠
길게
만료
##본부
아니한다고
좋다고
압박
출자
유한
종중
호주
중대
마약
영화는
이벤
삼국
면책
비하여
변화를
현장에
따져
전체를
등장하는
혜택
미치지
말하자면
계기로
사기죄가
갔을
##공원
달아
카운
드시
넣어서
해양
사람들에게
긍까
꾸준히
이내
기술을
아내가
채증법칙을
도덕
성남
성적을
##나의
##님께서
황교안
현장에서
보기는
저질러
##절차에
널
##산시
듀
미국은
피아노
주장하나
통행
거대한
싱가포
팝
수긍할
부문
##초에
대통령과
법인세법
##이익
한나라
휴대폰
아리
건물이
비롯하여
##조직
사업자
경합범
##히고
하나에
햇
##세무서장
양육
얼른
먹이
캘리포니아
단백질
담보로
##소송의
밖으로
##올리
시나
##ub
##가이다
오월
좋겠어요
얼굴이
시작이
미니
상계
골라
필요하다고
참여하였다
진짜로
##38
무한
##티에
싹
##te
삼아
객관적
에드
왔습니다
화장실
##틱
##여자
유예
국유
긴장
물어보
지진
##름이
세이
160
##인이나
반도
댁
1981년
사회가
종이
경주
유튜브
se
만나고
##부인
인자
##에서부터
제8조
삼월
갈아
이스라
성명
##열이
했더니
짧게
준비해
야마
물에
##교를
##전한
등재
인쇄
때의
실천
찾을
##문제
##산은
##회복
거듭
##국민
##마저
예정이
##환이
자신들의
심의
사모
전랴
##종은
확인해
82
얘가
해석을
##사십
법정에서
하나를
##테인
##하였음은
권리가
의회
##됨으로써
진영
피고인과
이러면
고소를
암살
사용하지
올랐다
철저
##사업에
금요일
절차에
선진
않느냐
알았어요
##어머니
##구에서
뭉
제2점에
기존에
##네시아
##션을
땜에
내려가
넷
밀어
청주
아랍
죄를
##음으로
규정하는
창원
겁
일일
유료
등에게
자신에
##팩
공범
땡
시장이
힘들어
be
##미는
뽑아
##세와
건국
시작된
대체로
서면
배척한
##였으며
않다고
입게
##다나
뜨거운
##짐
소유권보존
##판결을
처분이
##47
이십일
미국과
싸워
말미
##냈다
가능할
부활
나타나는
석유
##회계
##운동을
자고
덩
검찰에
##영철
먹었
대처
##선수
입시
면역
월급
에피소
##가합
브ᄅ
장례
반응을
공연을
했고요
알아요
지리
불린다
금속
배상할
##공단
##그리
중소기업
전설
특검
머리를
느끼는
종전의
프라
취지는
##임금
1960년
타임
없거나
##ue
거구요
제도를
##공사를
위하여는
증거의
##국으로
유출
##밀리
천연
##라가
측면이
덕분에
공개된
하셨어요
무장
인증
##끝
등기부
##어와
수사가
##ᆷ이나
하나만
직전
결제
서른
학교에서
편취
씨씨
귀여
피고를
##위원회가
하구요
##ᆺ고
분도
가득
추징
단속
07
중재
프로젝트
삐
##ᆮ고
##ice
보급
##살이
택지
논문
##ᅳᆺ한
##젤
한계를
종목
추구
텍
하더라고요
##양을
법리
4개
짚어
트레이
보다는
경정
부채
정부에서
이해를
1978
##칠십
##소년
휴가
##all
at
재벌
##부지
명에
남자가
전과
##테이
경까지
옆에서
지지를
자체에
모스크
##소한
칭찬
mar
##자마자
캄
비싼
번호
임신
##해주는
폴리
##ian
##나서
1979년
지점
you
법률에
##이었어요
이월
즈
공중
아닌가요
영화가
조합의
일어나는
유무
##수사
구월
아니잖아요
할까요
보험계약
십사
십삼
식의
변호인의
06
대기업
부딪
구멍
소금
서민
창작
하락
부장
##치기
그랬어요
집어
##표가
베이징
한참
차량을
##ᆫ가
관객
그렇구나
##나라의
섭취
단정할
부회
##던지
##쓸
공제한
퀴즈
지체
독점
관해서
지방세법
##했다가
군인
##드와
반성
##청을
자에
대충
##보전
평론가
원고로부터
항소는
##권과
충청남도
##39
분열
있네요
사용된
어렵다고
나간
구금
##결과에
절도
스케
종류의
소유권이전등기가
시점
제임스
##참가인
순번
##나고
야당이
##둥이
##6년에
##리스트
##ive
곡을
하셔야
도저히
##적에
보도를
할려고
삼각
대부분이
##사유에
브루
가기
아이스
일탈
##판이
같은해
수반
알리
국가대표팀
##감정
세력이
오세요
사용자
그릇
발표를
사실오인
막을
갔다가
채택한
##그러므로
던져
조건을
삼일
##루스
탑재
에스엔에스
의학
매월
중국에
갖추고
이어가
드디어
이젠
할아버지
혈액
##보안
입사
보좌
##있습니다
유병
##드에서
노예
서울에
##분들
가능성
창립
폭탄
##하느냐
2억
사용을
올린
연맹
작년에
드래
소급
##텐데
해라
피해가
대신에
소송비용
해상
조기
##율은
어때요
사용되고
킹
기사를
지는
이십사
모순
##였다고
편안
후속
비대
꿈을
뚜려
이슬람
준용
오랜만에
됐던
노래가
발휘
반대하는
##픔
##궐
배포
##터리
##동으로
부착
병사
나온다
##공급
##이언
##사지방법원
동해
의장
나왔어요
##제품
##법으로
##곡을
허위의
환급
##프레
김창
마마
되구요
관점에서
캔
##ᆸ겠습니다
적용을
아시안
부실
영상을
베스트
##주시기
필요할
호흡
##흘
윗
김수
경북
심장
주무
##마이
마리아
구단
##법령
이용해
약속어음
예선
금액이
냉장
보일
자기는
##신은
집회
소식을
분에
쓰지
6개월
됐을
촛불
##배상
영장
##보니
##ᆻ다면
몰라요
##7년에
##뮤니
ap
이끄는
이나
영업을
이러고
500만
감시
본다면
##권자
회장이
보내고
가도
맞게
곳으로
핀란드
보기에
근육
설사
##념을
한국당
하느냐
##계는
것임을
원심판결의
아직은
작성된
##축을
강도
따뜻한
##로에
신중
##슈타
이르게
환매
##끗
있어도
##칠년
2개의
출범
##bo
##운영
순서
고문
##뭐
후에도
##년대
포르투갈
없어져
##분은
됐어
클라
##티브
##환을
##주의를
나라를
##엉
이미지
언니가
복잡한
조사한
박원
새끼
탕
선거에서
향상
##스틱
양파
것이라면
확실하게
##차에
성실
손해가
소유자
대부
선행
적응
호칭
맞고
세르
무관
##봤는데
도박
백만
ㅋㅋㅋㅋㅋㅋㅋㅋㅋㅋ
##채권의
수치
##프의
크기
몽골
톤
이스라엘
or
국왕
실시간
##었는데요
기간을
하니
박수
250
적용되는
모자
라이브
해당하여
##징수
화성
회전
평소에
##구와
인감
제1호증
헌법재판
대박
높다
정차
밝혔습니다
부족하고
지사
곳은
원칙이
너가
ex
어르
맡겨
##느라
승낙
전투에서
대가로
지시를
레코
민생
성적이
천천
형사고
경험을
불을
마이클
필요는
둘러싸
문제도
##셨을
일하는
복무
펀
계급
##트와
##주와
화면
채무자가
##49
##결이
##환의
##받침
거시
정산
우수
##역으로
시간은
님께서
위기
목포
##에게도
##체육
##보수
큐
노벨
의혹이
##간을
많을
예능
체결하고
인과
응급
않아도
##타를
라틴
식별
1972년
##어마
봐서
말씀하셨
##데미
##관과
가족이
손으로
##개가
합쳐
목소리가
현상이
가르쳐
메르
원주
체납
하드
##졸
##스케
##개로
##컨대
##병이
저당
분석을
전두
잃어
##실로
김주
속한
버리고
진심
##집에
급격
포도
지나치게
작성하여
엔터
##란다
얼굴을
당황
부담이
##통을
이들의
되므로
사랑하는
##직원
##화와
식당
되는지
확산
창설
에프
싶지
##채무를
##공항
##수이
기반으로
변호사의
##아지
실지
1973년
신앙
여보
1층
사귀
보러
인적
##방에서
잡지
179
샵
##ge
##예술
새겨
##공동
세우
않겠습니까
##론이
1950년
##플레이
쇼핑
각각의
잘하는
이용해서
장착
계십니다
지낸
계기가
##률을
##조사를
##거를
##보드
치매
증명이
##절차에서
슬로
##대전
이루어지지
사천
경과한
##cc
역사상
##셨으면
감옥
포항
어디로
스타일
코미디
신인
적시
빌리
회피
본원
사업의
큰일
홍준
어렵게
알아야
낙찰
있을지
레드
##ph
##평의
내야
무대
겨우
바이오
작동
고쳐
##되었다가
곁
##겠냐
화려
살이
나라의
##발명의
간단하게
존중
진행을
##한테는
양승
##탐
이어져
##너스
연금
높이는
##계약서
당연한
##숭
##총회
짝
나누어
의미에서
천천히
배고
건가
##머리
아버지는
잘해
대통령령이
##주주
열대
리스
있냐
깎
##시대의
키우
지목
해주세요
있기는
네가
동작
아메리카
운영하고
##차는
이르케
알파
##하지도
##합니까
그분이
제공한
부러
무거운
설령
군데
##ᆯ에
의사에
입력
영원
넘게
전체적인
않았을
돈은
요청을
세금계산
당이
영위
##영은
체결된
극단
##에서만
경력
언론에
속으로
##관계의
호의
익숙
가지를
화제가
실효
##하를
미나
콜로
가액
##밭
지은
매매계약을
형식으로
##자산
봤어
그때부터
학교에
매수한
개최된
주체
##확정
침공
벌어져
본부
하였다는
보는데
충당
어마어마
52
저작권
피해자에게
##떠
##본법
여기가
올라와
무섭
양반
편하게
##ᆸ시다
미성
##청은
그림을
##족의
했으나
##능력이
속도
##했는데요
##선과
이끌고
##타이
##밤
표현이
조건이
##거래법
1회
이번엔
당뇨
183
보도록
때려
선택을
##보이
있겠지만
제출된
##년간
느낌을
##되었지만
##관광
##셨던
3차
갑니다
주제로
지방의
연계
밀려
빼고
비행기
##시티
계세요
##브라
반려
약속을
패션
열한
목표로
##팡
##거워
원작
주간
병역
매니
해당하므로
년이
외에는
수단
##해주세요
춤
철회
##ᅳ럽
##와이
제25
##우를
놀러
##업의
보내는
회사에서
자진
##생활을
직권으로
직접적으로
세계적으로
뿌리
##협동조합
인정될
##즈는
유력
맛을
##금지
득점
##주신
##세기에
성격을
주위적
이회
또다시
얘기하면
베를
밴
주재
개봉한
나왔던
##니는
이사회
팀은
법리와
직원이
##여야
서방
할까
토대로
인물이
제2항은
3개월
대성
##절이
##ᆻ구나
본소
##연한
납품
인용한
##ib
##기간에
내신
곰
시행규칙
인정사실에
이루어지는
플랫포
##마의
후보를
내내
간부
붙잡
##스트라
##ts
과징
미치
실용
이용할
하네요
경유
들여다
샘
일종이다
##으시면
빠진
다이어트
##유럽
눌러
위법을
위장
##헨티
##증의
맞이
기록상
##자면
##좀
하에
1974년
어디까지
사회의
보이는데
훌륭한
유인
지난번에
수시
정관
탈락
후보로
노인
박성
기준에
##패를
실종
불법행위
##미래
되며
소송대리인의
모바
##컷
##벅
엿
아르헨티
부가
거치지
박종
교수가
##씨의
지연손해금을
오페
개그
이석
카카오톡
##게임
법적으로
기재한
접속
것임에도
볼까요
대표변호사
##너무
유지하고
##즈가
그거에
##수이다
수도권
gr
##쩍
##결정에
않으며
떨어지는
연간
##경부터
##막이
그중에
써서
액면
##랭
달갸
상황인데
결정에
서버
대한민국에
매매대금
감독을
더블
최근에는
##범죄가
담겨
##료의
소는
1978년
##아시아
금융기관
정보가
엑
여신
자원
권력을
##늦
name4
그랬죠
진압
근로기준
법규
게재
전송
개혀
해주는
##팬
유치원
금강
진술하고
##역에서
투자를
후인
소유하고
##스트를
위험이
##이도
중에서도
##명과
계속하여
팀을
공직선거
기상
이웃
##함으로
혼합
들었어요
인정하여
설마
홍준표
##오일
하였는데
데이비
##훼손
##차의
전파
##임대
사업에
중화민국
강릉
고구려
##등기의
사본
상임
##태를
##지않
##스러워
원상
역사적
그후
객관적인
가난
사우
마쓰
뜻으로
##다리
숨겨
근처에
개념이
##아도
가능성은
천문
##66
##동은
행사를
절대로
이용하는
000원으로
##인으로서
니코
관계로
유일하게
일련의
연설
다음으로
##배를
전신
구분소유
도중
필요로
그저
보여주고
he
생각해요
쓰여
##놀
피담보
크다
같으므로
분을
##희의
없으나
본관은
프리미
최우
대학생
말레이
덧붙
하라
기자회
바람직
대하여도
현황
공사대금
없음에도
##연맹
##ae
51
추정된다
##욱이
주장했다
작성의
부담하는
보여줘
##람표
방식을
매주
##부대
마땅
김석
su
생방송
일월
##관련
##박한
부담을
이들이
의미로
보인
##띠
가는데
신도
느낄
과다
##절차의
뜻하는
드릴게요
오신
학교를
통상의
la
##었거든요
이준
효력
이루고
파트
강제집행
트랙
주연으로
장비
알아보
국민들의
눈치
##고지
일본은
군대를
상법
나가고
댄
연체
발표했다
종결
서울중앙
포함하는
피청구
##재의
프란
따뜻
3인
종로
용어
시작되었다
깨끗
없으니
배정
공소사실의
##부장관
같기도
ㅜㅜ
이행하지
##행에
##물질
유학
##군으로
먹은
독특한
써야
##말이
##경은
학문
##이상
인정하기에
의심을
축소
##8년에
코스
조선민주주의인민공화국
속한다
돌아다니
##방법에
경우와
제10조
근로자의
구제
담고
남성이
##르가
##항은
하나인
대표하는
금원
프로그램이
전력
##늄
가지로
##류에
me
수색
##외로
##들하고
가맹
찾아볼
서울대
되지만
1976년
거래를
재개
##까진
호르
##났다
이년
##되나
카르
##으리
제37조
측에서
경찰은
##드레
일들이
매장
제32
들어가면
##9년에
플러스
형태를
##그로
밖에서
아미
버전
완전한
부처
경고
##금과
쟤
##사키
##시설을
글로벌
초에
파라
##침을
빼앗
##se
##아가지고
퍼센트가
조종
##픽
##밀한
진주
##ong
##적용
##크라이나
##번의
##기름
##재산의
앵커
원으로
추적
쪽이
페이스
##양이
있은
민주화
검사를
공용
하위
의거
##슬라
시집
비교대상
단체협약
가면은
##수당
##민이
쓰인다
##브를
바닥
##텍
돈으로
반찬
##키아
과일
##군다나
##목의
##등본
공업
과실로
이일
사임
내린
저렴
국가에
열고
대표를
##죄는
관리하는
주민들이
##자들에
실망
전라북도
81
합성
자유를
행하여
서류를
발라
산하
##톱
일자리
제외하고는
가이
학술
lg
##흑
인용하고
합니까
사람으로
박사님
##틀랜드
언제든지
선보
존재를
대학에
1주
이야기는
협조
우측
##환으로
모스크바
지붕
##시스테
시티
씨와
##청구에
나카
우리나라에
##져야
기도
나타내는
대동
##찾
들어와서
수송
##ㅋㅋㅋㅋㅋㅋㅋ
머리가
전부를
1971년
##텐츠
##오년
##해질
##절을
됐죠
재위
##기구
향해
##장에게
##이다라고
협회
##해와
원리
시작합니다
활성화
##먹는
장사
괴롭
밀리
##하기를
북서
##건데
동성
것보다
##난다
만들기
해볼
탈당
강점
af
##윈
결과는
말미암
수의
정치권
##최고
입니다
##케이션
십년
의혹을
메시지를
##ᆻ느냐
수수료
성공을
김광
미루
자기네
어르신
목소리를
##량에
공군
##레스
할게요
채워
하는지
##똑
##훈련
##ta
상식
외의
##으라고
드립니다
##억이
주최
예전에는
잡는
우크라이나
##등에관한법률
중순
1975년
##4년에
정도면
법률의
북한을
억제
관료
신동
ad
거군요
과반
잘라
불가능한
대수
##무가
얇
##로그
당의
##oh
위안
인사를
윈도우
##방미터
성향
밝힌
##말을
조리
식민지
인간이
둬
##치면
들어오는
약간의
보험금
끓여
철수
1968년
확실한
이규
어이
강간
##ate
기다리고
위법하다
고통을
의원들이
저녁에
잠수
오스
##ᆻ거든
이순
##달리
행성
사회통
아카데미
##천시
정해진
매운
생각하지
개방
무사
##검찰
적당
연구소
날인
##인들에게
돼지
채권의
##ᆺ날
이모
##1호로
장식
확립
##ore
중국에서
##위원회에
##위에서
곳을
왔어
명확하게
방향을
##우드
규모의
##권한
빗
게임이
발굴
##꼼
커뮤니
양이
##화국의
##었기
받는다
내놔
##ㄱㄱ
간단한
십칠
##닐
##라의
##되던
일어날
진정성립
그걸로
얘기했
거기는
권한이
대학을
해에
되느냐
켜
최선을
감자
##왕이
제1심판결을
이은
알레
목숨을
경기에
##념에
이들을
처한다
그들
아님
동음이
수술을
해설
됐다고
ph
##전화
정상회담
돕
배려
하되
네트워크
못하여
누군가
가동
보이스피
메인
제기할
##루를
##원심은
##졌고
있었거든요
애매
썼다
##5년에
##라스
생일
##졌습니다
사서
않았다는
##청구권을
확인이
드는데
159
시스템을
##행의
영광
남는
발견된다
제외하고
1세
pc
동음이의
##분야
잇는
쫙
중화인민공화국
##넌
##집이
누락
남동
막기
반응이
##이년
##사업법
##어진다
##면적
전인
교섭
인도네시아
재배
돌아온
발송
##박쥐
##음악
해가
유명하다
감정을
높습니다
화합
위치한다
##범죄가중
##시행규칙
wh
수소
##초등학교는
##이게
##진에
##율에
경료된
베를린
하라고
죽음
##없다
교토
##io
##들인
델
네이버
##혐의
##회사에
싸움
한도
##점유
보냈다
함부로
1963년
씨씨티
진학
바람이
촌
기대를
셔
##토리
스파
시작하여
남의
정권이
##경쟁
본선
##조의3
시골
엄마는
가구
삼촌
군의
과장
보신
북한에서
안타까운
1969년
방출
상황은
##56
준비한
그러니
놀래
제12조
짱
##직에
##리게
공사가
넉
1977년
부수
교도
##자금을
다닐
원판결을
한화
음식이
재생
팔아
##라구
##곡이
법인이
##2년에
나빠
면이
비용이
오직
중구
##다카
초등학교이다
제안을
정복
그동안에
지어
나중
하였
사례가
##앉
##아파트
그런지
있는가
대행
명령을
구성원
윤리
구성하는
##채무의
##하에서
##마토
면적
미성년
독재
##다시피
임진
프로세
##하시죠
##블리
수탁
##전자
좋죠
대부분은
주택건설
##업무를
요한
부당하게
##견이
공산주의
##더러
##망이
범죄를
여성의
##시설의
내역
관세
110
##기간의
얻고
이해할
김정일
고무
끝으로
보이스피싱
##표의
130
지급하고
##자료를
백화
맞춰서
cr
음성
경성
비슷하게
극장
파는
보였다
결론그렇다면
데도
초기에
스위스
오염
쾌
부작용
임명되었다
##평균
완화
##아는
아이구
알았는데
##치료
사람한테
행위로
들으
뛰어나
##지마
걸린
결코
번의
의문
가면서
아까도
함에도
##겠구나
새로이
하도급
##34
거리가
##심사
선호
이쁘
재개발
낮아
판단하게
##ich
벨기에
가상
보편
##일람표
스리
얻었다
젖
##슨은
##범죄가중처벌
##결정이
시작으로
모바일
##달에
72
##ᅳ르
오빠가
##해주신
아줌마
##측의
거론
지고
박준
기성
일방적으로
선거를
지식을
기온
된다라고
문건
끊임
##연대
부분과
맡은
무서운
종업
불이익
헝가리
받았는데
달라는
발매되었다
기가
광역
그로부터
##뚱
진행하는
##m의
제30조
##철이
170
##길을
1위를
오바
오로지
기자가
앞으로도
대량
힘드
cou
오만
사용자가
변호사를
훈련을
##리다
재결
##씨를
##됨에
##미의
북동
용서
##미니
##ㅌㅌ
조사가
문언
##tr
##여행
이회창
인식이
재해
문자를
잘못을
읽고
그리구
실질적
의원을
청문회
러시아의
##대금의
손해의
동반
검찰에서
##86
##거죠
지급하지
포함하고
##팔년
힌
제작에
공무원이
법의
멸망
되돌
성질을
이래서
한양
나이에
리더십
##00년
##발전
출산
co
합동
us
용산
건네
이해관계
불가피
##디션
물려
다음의
다행히
시월
##업이
5개
거로
##사이트
수백
파워
불리한
없었다고
안동
년간
채무자의
사기죄로
흙
##르기
교류
육상
##위원회는
##의무가
##호와
집행을
##하였음에도
용도로
땅을
율
스카
##3년에
만주
##룩
##롤
##리즘
약정한
제11조
선수들이
인구가
##갔다
나오셨습니다
활동하고
참작하여
사용되었다
끝날
인터뷰를
의정부
담은
명도
구두
##장치
##먹을
측근
##병대
업무에
유해
맛있어요
이천십육
자존
19세기
초등
k리그
2세
국도
팔월
장면이
##쌀
##로드
비핵화
않았지만
뿐이다
1000
이지
린
해줄
##축이
힙
얘기죠
콜라
사립학교
상을
##수산
고종
##고사
북아
제어
##임에도
이어지
반소원고
##였죠
대통령께서
납득
지지율이
장교
##절차가
##1년에
원판결은
구글
야간
선거운동
참가인
정수
전체가
##침이
책은
어떡해
##젤레
##uc
혐의를
모리
스크리
아뇨
##바다
원심증인
세웠다
대공
셋째
기운
##심한
했으며
김민
면할
##념상
경기가
유용
##살을
이탈리아의
심판청구
뜻한다
있더라고요
진지
꼴
기구
얼마든지
##규정에
다니고
소극
드시는
대표님
모를
혼자서
불과하여
없거든요
처분에
위성
보여집니다
맞서
함수
##트랙
구현
미드
181
그레이
##밀하게
십이월
##증서
소스
##물인
제2호증의
난리
##99
아휴
착수
상반
올리고
##바르
발명의
총리가
적극적인
졸업하고
정해
##계약은
##십니다
아니며
##표에
장수
178
채무의
sbs
로버트
기사가
사직
as
무덤
경찰관
##ᇀ은
농민
모셨습니다
특히나
62
##채를
##폴
##ᆯ런
영웅
기간에
광복
기능이
##염이
사과를
총장
##층의
불공
상당하다고
웹툰
##탱
1심
사람이다
##으라
##례를
이윤
시작하는
귀찮
운반
##루가
짤
의원의
철도역이다
녹색
시키는
서초
계시는
있으면서
제3자에게
##층이
일구
##란에
새우
그레
먹어도
##잇
나두
아니기
높게
##실험
##포를
##테르
##감한
##57
보고서
어쩌면
##거는
제1항에서
도움
소개를
뜯
랩
1948년
ㅋㅋㅋㅋㅋㅋㅋㅋㅋㅋㅋ
##떡
지닌
##사기
평범
의지
민주당이
이어지는
수를
정유
정태
농촌
국회가
이재명
##있는데
민사소송
##화한
우유
무서워
이현
윌
간이
서울에서
액션
위험을
청나라
##팀이
감정평가
제품을
정무
##비와
창업
탈북
쓰레기
크레
병원에서
변경되었다
느끼고
뒷받침
멍
시를
나요
작품은
##도르
전날
관계는
언제나
##이어서
조달
후기
##이네
앓
남서
취지가
죽고
1에
등록을
패턴
폼
전형적인
증상이
##념이
##철의
이루는
극히
약칭
##때문에
포지션은
##통지
밀접
기억을
##ys
시어머니
상무
en
유언
응용
지분을
##심에
##니의
우연히
역으로
정권을
갈등이
상습
콤
다툼
주장할
야권
2016
환영
막상
##당사자
동북
관계에서
##사랑
주목을
140
아니하였다
동년
피고인들은
##부분은
바보
산맥
건강한
긍정적인
금품
##아를
살펴본
##권자가
##타는
##ect
1964년
##일까지는
이루어지고
들어보겠습니다
갓
차려
얻는
코드
개발한
##진흥
점검
역을
노란
있단
낯
오오
들었는데
복원
환불
##ᆷ임
브
주교
출간
최종적으로
충남
##라고도
부상을
전북
이차
측은
발전을
##과정
##늦게
대학이
일체의
쓰이는
쫓아
##뱅
이시
제23조
않았는데
마음대로
정시
국경
##발이
세기
약한
##야죠
시간입니다
칠월
##ok
이끌어
외환
세탁
더군다나
우리나라가
상응
제공하고
##약에
정치적으로
음료
제도가
ㅋㅋㅋㅋㅋㅋㅋㅋㅋㅋㅋㅋㅋㅋㅋㅋㅋ
가격을
기업의
김해
굿
라면
경작
과세관
##다란
마드리
매달
곳곳
두었다
미화
이전에는
심지어는
##매수
##파는
반환을
3억
위치를
##위원장
배신
비정
##화물
마음으로
시설을
즐겨
자격을
하나하나
연말
##납부
쎄
##이잖아요
사이트
##제국
십만
제4호
바뀐
국방부
소의
눈물
대결
유산
했는지
##먹어
##공을
##하시기
동서
##ert
##들끼리
##연의
치열
조현
##판단
침입
장남
정치가
정당하다
스트리
중부
명백히
##후보
단서
생각하십니까
주말에
요번에
##됐던
##없어
1940년
디스
개념을
유병언
부패
1967년
브레
##000
교육이
스무
과목
사인
##에게서
일조
안나
범죄일람표
##원심판결
##상호
##화학
1977
##열을
이재용
##딸
인종
##내지
##하구요
기록한
서구
세계적인
여러분들이
있음
오피
##소프트
주둔
산정한
진술이
사면
중요합니다
진술한
떨어
부정적인
식구
김일성
국가를
후회
되어야
상대방에게
명예훼손
파란
##요일에
김한
좋아서
비비
받았다고
앉아서
수습
저희도
ㅠㅠㅠ
##당했다
속이
위배하여
부르고
반소피고
어머니는
부탁을
아기
있었는데요
받았습니다
보컬
경향이
지역으로
자유롭게
##생을
04
##ly
카이
위치에
준비가
추석
노동자
어업
깃
사회에서
##률은
준수
계약금
분야에서
##더라면
중립
중지
##오가
매립
##조회
나선
중이다
씹
가보
##본이
한성
국내에서
거기가
##해석
않았어요
변동
##해야지
1962년
드림
원정
잠재
비리
뿐이고
##뽕
움직이는
바퀴
채권자가
운영을
박탈
##스트리
상품의
##으루
비트
##하셨습니다
진상
상장
지급받은
신경을
뉘
바꿀
쓰리
##방향
전두환
부자
##권도
참여한
##kg
주실
##약정
사항은
##계획을
나아
찢
놈이
##불이행
##식과
##천군
골든
##자로서의
거네요
##리한
했으니까
저번에
##문과
진행하고
모여서
##제2
##강을
##게는
김덕
사이버
##들과의
상고이유로
끝이
##하가
최재
찍은
아티
##들에서
##다섯
##노이
##클럽
삶의
##항소취지
##크래
##오프
##제와
오케이
않으므로
##그램
엔터테인
##범이
##생이
곡은
스코틀랜드
##오면
여보세요
불법행위로
인정하기
손상
##하진
아들을
인재
감면
##했지
##뤄
##곽
될까
지향
##층에
피고인들에
모르지만
바른미래
##단에서
이번에도
막내
싶고
것이기
배를
이메
##스포
부를
부임
평등
필요성이
##대행
메시지
참모
걔네
줄어
픽
총괄
길이는
##색으로
마디
충격을
차량의
처형
fa
##매를
건물은
부과처분
시장에
신한
평가가
맥주
말미암아
박지원
대한민국에서
##되도록
아래에서
전통적인
##겁게
되기도
##자원
##에프
중복
지급하기로
드루
##1호
서울민
##있게
##비치
무엇을
랭
사냥
자발
##교사
해주고
타이완
차지하는
##경기에
후임
왕이
자체의
시스템이
##잖습니까
놓여
중고
요금
##순이
자격이
##규의
카드를
잠을
우편
도주
사백
충실
예수
지난번
##버그
후지
##역의
태도를
##하마
청와대가
김명
명은
다큐
##범의
묵시
불이익을
하구
똥
주택을
##ᅱᆫ
과거의
##사유로
##3호로
답변을
##탁이
독서
현존
피고인김
성과를
아테
변형
정부를
##쿠라
것이지만
담긴
자신은
기록과
찾아서
##할까
동업
ww
기대가
##기념
##보기
##per
전수
왠지
학생들
ma
실업
주한
##했으면
변경된
사람과
누워
##채권에
선조
##양의
간첩
아니거든요
이원
신화
보낼
주사
##감도
순위
압도
있구나
제3호증의
하더라고
여유
##공사의
브레이
이러는
##일본
법무부
말라고
없다면
주의를
저의
##탄을
1946년
##전환
##바닥
##고속도로
##시킨다
사드
항복
비율이
이념
부른
##버리는
걔가
##근거
##iz
##ne
##58
##속으로
버린
천만
최진
##져요
##두에
##키스탄
사진이
꽂
명절
공소장
국내에
시나리오
##ᆿㅋㅋㅋ
이진
요즘에는
죄가
몰려
##하였지만
날까지는
권리의
불합
성을
##놀이
실험을
##인으로부터
리포
기술이
이상으로
##평방미터
아들인
재밌게
예쁜
깔끔
##리면
서해
반기
정치에
조선일보
두려워
무소
패러
##잡아
##법과
##2호로
##문으로
it
되었는데
원활
봤더니
대표의
1965년
##ight
후유
회의를
명칭을
켄
독립운동
71
사형
많죠
합의부에
177
##종으로
받으면
##셨다
영향력을
좌측
##셨는데요
차량이
##상보험
요게
인정하지
##총리
포탈
기재가
훗날
##만으로도
있으신
3개의
##적으로도
갱신
박원순
##ps
고려하면
시작해서
대목
##어가는
양승태
##ᆺ의
무단
바라는
전차
포위
지급하는
정치인
품질
순수
보복
##겠는가
전술
##해주고
##시지
살아야
##큰
##까지만
##비용을
##통이
그런데도
감동
날로부터
##나이티
##ᆷ프
화를
##ver
노후
규모가
##뜨
##부과
##퍼센
썩
te
십일월
1961년
드리는
촉진
##스리그
반증이
##란이
사이에는
명백하므로
##내의
기술적
아파트의
성분
사업계획
정리해
화장품
##사한
사회를
작곡가
거리를
모으
학생의
행복한
씻
행위의
신정
부사
정식으로
오키
##되었으므로
관광객
대대
부친
촉구
##량한
망원
##식품
##꾸로
구경
진술기재
해석할
흐르
열리는
항쟁
역사가
차트
계약에
무효로
##끄럽
일대
제24
##계로
같으면
와중에
코리아
관할한다
내세워
##래의
확인하고
##미야
##림이
##당하고
잡을
쌓아
보정
되어서
구원
잘하고
않았을까
세계에
꼼꼼
##틀러
##론으로
##다이
특거
모양의
연산
그렇습니까
뭘까요
가지게
유동
##혀서
##전과
체코
나라에
춘천
발효
##한테도
첩
넥
아니구요
풀려
특이한
노부
##및항소취지
분명한
차지했다
##일영
시리아
명명
제작한
##인민공화국의
멋진
느낀
col
짠
신원
건축물의
비례대표
하얀
피고들에
추억
용의
골을
##는요
잠깐만요
##론의
##백을
오버
유나이티
판문
성분이
##설이
##규제
걸친
행정구역
조용히
##셈
세력을
결정적인
##됨
유지한
##슬러
지원하는
얹
일으킨
불려
##등록을
세트
태국
##궈
없도록
안양
최다
엠비씨
##밖
부분들을
리가
농구
##무라
노사
개막
상관없이
목요일
##달라는
황태
채소
날까지
짜증
해결할
밝은
캡
프로그램이다
뉴질
서울대학교
##가스
고마워
축제
이집트
##가입
부산광역시
못하였다
이상은
원시
청탁
거기다
제소
파티
결정할
##단지
특이
미만
##효과
공간을
제1조
##해줘
지적을
잃은
생기고
##경원
협상을
애를
돌파
기재내용
지도자
##들고
##ord
1966년
##하셔서
보더라도
제3자
##기에서
검거
##순의
분담
##가족
##증에
##하셨어요
1로
이광
상륙
##경영
특수한
경기는
맞은
도서관
시상
##에관한법률
##류는
피고인들
##ant
아사
하냐
기둥
##도서
신뢰를
이강
##보장
차지하고
마감
경향
##행한
피고보조
주장하면서
대의
##화되어
뭐랄
키워드
시대가
세금을
대금을
##청구권
부도
금액에
응답
임기
##사년
들어가고
취하지
##뼈
##있지
년대
롤
헨리
험
심하게
1970
기망하여
공인
터널
하겠다는
1976
여긴
커플
주장의
여론이
천구백구십
##위와
##가격을
담당하는
대표로
소비에
##츠를
호르몬
단편
증언을
로스앤
##타운
진짜요
1949년
요코
왔고
자동차를
##기기
약정이
태극
이례
지칭
운동이
1번
##처에
왜곡
##셨나요
##our
##녹
감액
시즌을
디자
##ᆻ대
한꺼
전임
##로스
벌어지
##고한
해봐야
추상
간장
오프
추락
로서
중독
고령
보고를
30분
읽는
##시에서
세계의
##주군
들었다
본인에
##버리고
나치
취하
만나게
로스앤젤레
궁금합니다
사료
유효한
오기
했구요
콜레
퀸
합산
발행한
프
일인
연재
꿈이
##스라는
오세
발레
주장한
진행되고
방조
존경
포함해서
추심
이루어졌다
투명
득표
답을
사이가
여태
있었는지
박재
여러가지
##룬
이야기도
##보도
백성
##ᆮ는
왕국
혈관
아스
신용보증
7년
##지나
생태
활동이
##펀
지분에
말아야
뚝
전철
패소부분을
##희가
1974
풋
##스팅
원고들에
재산이
기초가
##5원
##셨네요
해당되는
182
합법
사유를
정동
##시스
결정하는
대법원판사
모습으로
##송달
스미
똑똑
신용장
양형부
##햇
##즐
##담당
조선의
고양이
방정
청구취지및항소취지
##다라는
결정한다
재산의
##관리법
2할
##들만
수면
얘긴
##틸
우리나라에서
약관
이를테
흥미
군수
##됐다고
모르겠다
콘서트
나지
장학
납치
개조
터미널
애국
거기다가
회담을
##음으로써
취약
##ld
바빠
행사에
공개를
한꺼번에
거치
같은법시행령
식초
않았나
해당하는지
경우의
발생을
연결하는
##저우
같다고
영화의
연기를
61
미국으로
원금
관습
취득세
계약서
이가
명으로
점거
아이테
죽었다
구하고
소정
시카
##할지
개인이
해석이
끝나는
##넉
프라이
##뚝
##조항
취한
영혼
건의
히트
##end
위기에
##공이
문헌
해준
제기하여
굽
sm
##쪼
가속
제기된
##겹
대통령도
야기
어딜
하야
아들로
대학교에서
장소에서
무지
말았다
김선
##혔다
##사항을
##청구는
출신으로
반대의
건강을
##55
##어에
공소사실은
여름에
멈추
개신
사망했다
오페라
학과
##당으로
활동에
사실상의
경선
특집
성폭력
들어올
##주기
지자
약을
잘못한
주가
##에르
로드
##77
상속재산
중세
톡
이었다
사실관계에
러브
감정이
유류
적용될
##등포
용이하게
##왔습니다
거래의
모래
고사
사람들에
기재는
1973
별지목록
브리핑
떡볶
예뻐
마침내
차에
소유권이전등기의
##이냐
참나
##세계
뭔가를
##니아의
비용으로
검토하여
아웃
안되는
환산
활동하였다
상해를
둘러싼
##고시
찾고
튜
논술
1971
가진다
임무를
변호사입니다
##권리
끊임없이
##닭
재판에
명의를
해리
##부산
국회에
같다는
표면
안으로
입장에
한창
##편이
않을까요
성립될
거짓말을
##였어
차명
##기각
수호
점수
당연무효
나이로
당에
균형
차기
##명의로
개인정보
혈압
##물과
##약의
녀
##학에
##통합
죽어
시점에서
##체와
진술에
상고는
근로자가
2회
##기일에
냄새가
어렵습니다
분묘
이의를
먹기
독자적인
일억
##학에서
헤르
낚
##라니
신선
##오의
참전
압수수
##자격
##내기
##인이라고
아버지의
뿌려
해명
고려할
탄압
##기준에
이유있다
국가보안
부드러
##보에
권고
1920년
영문
##주의에
인문
발표하였다
##안으로
사실인정과
##학원
이유만으로
정신을
##뿌
그러죠
비틀
조직이
계실
명단
보라
사위
우리나라의
##쥬
광범위
했다가
제13조
초청
마케팅
짓을
##로워
식이
의제
기록하였다
이날
적용할
등도
덴마크
##기획
없다라고
나오게
##89
##혁명
보증금
경호
빡
체제를
정교
없었어요
돈도
넣는
맞죠
##퇴직
의원에
판매하는
##싶다
다뤄
제30
##특정
검찰은
자식이
##44
태도
초반에
위대한
제21
##pa
친정
중요하다
인용상표
웨스트
##하자는
분해
##집행을
절차가
원칙을
##숙이
아오
##편에
##은행에
##원고는
달하는
원인을
최영
양의
##마리
국민들은
소형
횟
im
##ure
##박물
살아남
웅웅
##베리
있었어
내부에
나은
나라에서
시민들이
이외에도
대원
한마디로
뻗
소비자
kt
끔
세우고
한국어
저하
갤러
양보
그들을
인격
##병우
##용에
요리를
맞을
##사단
차이를
##준비
홍순
##빡
줄여
목사
그리하여
##조판
구금일수
화이트
까지의
지정된
합리적
##의무의
정통
의뢰인님의
팩트
프린
1975
정해져
몰라도
드실
옳고
##상으로는
원수
실내
복수
기업이
공무원의
##af
쫓겨
걸고
해당하고
##받게
##위생
감기
보호를
##ᆯ의
영등포
남아있는
뉴질랜드
세상이
국민에
경제가
공헌
세균
받으면서
##따라
##전기
다투는
초과하여
베이스
너한테
시점에
##변을
망인이
기억에
지혜
우리를
저촉
유추
강행
번복
총회
심결
##축구
##되지만
##재로
아파트를
프리미어
강제로
사무실에서
사장이
##점과
제한을
명확히
가지구
교육감
잔여
김정은이
테스트
변환
전반적으로
그랬어
도중에
##셉
싱가포르
##신에
##청에서
##아아
대구고등법원
문제의
##장이다
연료
계란
##되었음을
알려주
##번째로
정책에
그랬던
스캐
하겠다고
학기
##증으로
수익을
무력
갔
안심
분기
해운
마자
##오백
제2심
##사도
평안
떠나서
좁은
##마에
현저하게
승부
관절
100만
정신이
타격
된다라는
최상
직무를
bo
떠난
속의
요거는
트위터
날부터
##돼야
실장
들어갔다
##ens
유전자
##뜨려
보태
후계
크라
##기본
##채권이
자리가
제26
리스트
한국인
이자를
상하이
##성군
온도
175
얻게
롱
일괄
년도
dna
구비
##파에
속상
진술조서
6년
##겠나
풍부한
유권
로맨
범행에
공표
##책임이
##이었죠
후보는
추가적인
예컨대
##출을
##짱
우리나라는
마크
##삼년
비서실
2면
당신은
꽉
딸을
사태가
##건물의
말씀해
##회사는
아이들을
세계를
김종인
그니깐
스토리
배운
재산에
##로나
유아
날씨가
이완
듣겠습니다
트라
받았으며
패널
범죄에
걸쳐서
영어로
착용
사안에서
##조치를
헛
공간이
수감
원은
창의
1944년
제42
커다란
제35
##름을
##은행의
##그를
##르지
학위를
##세기본법
##옵션
##타르
##있던
보물
그곳에서
이송
그때도
결심
때문입니다
방송에서
다녀오
매수하여
탐사
##ial
나니까
##주에서
모른다
이야기하는
##sp
국선
이름의
연루
1958년
전체에
않죠
삼고
손가락
##강의
어려움을
순환
1위
##거래가
휩
##랑은
##판결이
가능하게
회사와
싼
수임
한자
않겠다
##디가
피해자는
여동생
go
사항이
도면
확인한
출연하였고
클래식
텍사
임금을
부부가
합의에
녹취
부득
포함되지
##qu
직전에
##떨
수령한
김윤
독립된
부어
선고를
제5항
이처럼
김혜
이혼을
불과하고
수상했다
역임했다
조영
논의를
ac
약정에
##ᆻ는가
##분간
강수
산림
푹
미안해
재항고인
##팽
각자의
수요일
공지
로부터
순차
삽입
선을
##모로
##하는지
제23
금액은
##크리트
##켄
홋
자신에게
대학원
밝히고
매니저
청원
인정사실
##자라는
들으면
##머스
돌아가는
충청북도
활약을
가나
준비하고
대학의
##사건에
##사법
옵션
##총독
손해배상을
염려가
구조가
스승
필요합니다
갈음
에너지를
되었습니다
자기를
교회의
##화하는
토마토
아파트에
탑승
시대를
발생하지
죽는
몰수
가방
사정만으로
대만
주류
재발
생각해서
##뿐만이
제14조
최일
##학은
열렸다
이루어질
##시겠습니다
의하더라도
현저한
##ry
##껴
##타가
봤던
여기다가
치즈
행사가
창단
벗어난
해보고
양도소득세
대해선
##서류
##나가는
아니니까
##브이
장애인
sy
##수면
몫
주식회사의
장면을
견디
##태가
##근이
고런
##오스
받았던
엄마한테
논의가
소송의
올라가는
넉넉
산책
않은데
낳아
##76
하러
교원
##현은
간다고
##지는데
쓰면
경제적인
망명
1956년
##하잖아
세액
방영된
##있어요
쌔
##미한
형성된
일하고
##조서의
고가
형에
##강에
타는
##불능
설치한
만든다
지상에
물러나
##대여
##리나
크루
부서
재산상의
##연구소
의지를
차입
양식
시작해
괜찮을
##들이다
적합한
적게
칼로
##평에
지역구
뛰고
##족이
올리는
6월에
연대하여
##할때
토지와
1941년
##ith
나포
들으면서
김연
고민이
카운티
핵무
옛날에는
정원
##할려고
복구
제4호증의
말레이시아
네에
지지율
##운수
##지만은
1969
먹지
블라
닥터
위주로
방에
제17조
어떻게든
나왔
여러분의
##했거든요
##무늬
통장
##고합
##청구의
사도
자매
이상하게
국민을
년을
##횡
외계
순천
뺏
##라운드
수시로
재학
##집에서
태어났으며
##카이도
시점이
범행의
소음
못했던
##시민
일명
변경하는
테이블
이를테면
3의
펑
##동맹
로켓
인정되므로
죽음을
있겠다
코치
판시한
도와주
기생
너무너무
1972
상처를
유성
달걀
측에
잔금
적용이
모양이
로봇
##공화국
받으
넣은
##범죄가중처벌등에관한법률
편지를
닮아
감수
수준의
김준환
오라
운전을
##저기
##준이
세르비아
내장
##리에서
나는데
내부의
통산
양도한
소비에트
추정되는
본격적인
단단
##례가
천재
작품이다
##혈압
##렬한
##뵈
먹게
미달
지내고
사로
모니
취득하는
터져
##해제
중성
홀로
영화에
##빼
고안
##파로
신발
나가야
명칭은
##신으로
요소가
승무
갈수록
##터는
치는
##피를
거라는
남편은
미야
발음
##시켜서
분야에
당을
영남
쿠데
더불어민주당
재활
포켓
한국이
허용되지
애초에
제16조
4인
견해를
랜
##서야
##인가를
저러
법안
##정비법
##오를
##해준
##네이
##론에
##32
부진
1930년
일체
전략을
2번
일각
##중개
##이거나
부품
ㅋㅋㅋㅋㅋㅋㅋㅋㅋㅋㅋㅋ
정당이
##번호를
이승만
다루는
##모의
어디가
보죠
삼년
##투스
##ort
다리를
먹어요
올바
##선언
현직
말소등기
##해의
왔던
무엇보다
기산
##키로
살펴볼
착공
##떼
노래는
아세요
젤
늙
크로스
보실
해줘야
모르겠어
힐
편지
힙합
##제기
진실을
난다
온천
보리
있네
유입
진로
채로
선생님께서
콘스탄
##드럽
4개의
간행
1959년
신의성
##봄
제18조
속도가
일환으로
불렀다
##지분
##거부
김인
말씀은
폭행을
채무불이행
간단히
my
기판
##진짜
양산
##카가
상여
뭐죠
남긴
포함된다
걸릴
사실의
발을
작가가
##툴
같지
겐
매력
정작
읍
여왕
도발
각기
인식을
참여를
삼을
쓴다
대책을
동조
수사에
개발을
사마
현상을
파트너
사용이
자유로운
##퍼드
대응을
선포
알려졌다
돌고
사업이
이미지를
새벽에
우리한테
##베르크
가문
김부
군주
챔피언스리그
원년
것이고요
##지점
예정이다
잡은
의미는
소중한
##투표
정상적으로
드러내
겪고
##걸이
세액을
##속의
현실적인
쳐다
##증권의
속해
그러니깐
사람들한테
대학에서
일종에
좋아해
176
##훈이
지지하는
쑥
시작할
##쟁이
신고한
지시에
시계
##필요
시험을
이분은
크로아
스탠
뒤늦게
##ack
수신
##거리는
마흔
전액
##오로
동거
난민
부드럽
초코
매매를
분위기를
##사건의
바꾸는
##일리
오호
##권으로
왕조
##호에서
결과로
원래의
동화
상고이유는
만들어야
상이
주장하였다
정도만
보험료
##보고서
선택한
멜로
##색의
구로
사업연도
살면서
1일에
환자가
통지를
##xx
##다운
조언
맺고
##구리
자문
피의자신문조서
임진왜
##부령
사실관계를
김승
말씀하시는
시즌에
공정한
##ock
참고로
##과도
연예인
##타의
리얼
##보단
본안
보면요
##누스
제목이
##ba
지나면
##격으로
저랑
##관계는
##자들과
##들이나
원산
##세서
이렇게까지
반국가
데이비드
역이다
편찬
궁금해
거주하는
bl
이길
지키는
자기들이
굶
##네스
없었습니다
의사의
101
##드라고
잊어
이룬다
가져와
##억을
젠
무산
발부
중요하게
찍고
오징
안고
성취
##줘요
##만호
퍼져
목적은
we
두루
사용하기
채취
하자는
##마마
제19조
##one
1952년
##부장관의
##ii
법원에서
싱어
잃고
##르를
158
##대부
채권최고
정경
##6원
도쿠
속도를
에스케이
##티노
준우
애들은
선거구
건강에
##들에게는
동방
드리면
걱정을
신용카드
##책임의
잊지
사다
해야죠
당첨
디제이
향해서
헌법에
전쟁에
숫자
드라이
##우에
적어
중국은
결정한
부모가
##ᆿㅋㅋ
라고도
1954년
##잡고
방탄
##팀의
위원님
자에게
판단하는
##ᆿㅋㅋㅋㅋ
신상
부럽
찾기
아가씨
미수
온다
수행하는
의사표시를
날에
톰
트럭
165
원본
관행
뉴스를
유럽의
nh
민중
한편으로는
본인도
구워
광고를
동영상
많다고
상속세
친한
제한하는
##우주
쉬는
이창
형은
가까워
1만
그러자
의도가
토크
##표시
드물
횡단
영수증
##속을
##투를
질문에
구성요
보통은
이득을
기자들이
조별
후퇴
교차
회담이
지니고
덥
##name
##같은법
그런거
메이지
1947년
악의
도메
##근무
미세먼지
등등
푸른
성공한
주변의
거란
놀라운
끔찍
조치가
중시
셈이
나오니까
##기간은
쟁점
남양
부인이
고모
알면서
오스만
육아
올라오
잘생
##열의
##공제
##추는
거꾸로
중계
금메달을
친절
##튀
안의
레오
재혼
인정되고
발매된
제38
위반으로
가중처벌
스크린
##두는
파기한다
따르는
그러시
제15조
사촌
20세기
프로듀서
다름
##승인을
제34
대조하여
혜택을
##시부터
##르면
역할이
나만
판정
꾀
공약
##드니
종합소득
사회통념상
지나고
선언을
##일곱
법률상의
교수님이
볼게요
##해줄
조명
갑작
##적이지
쇄
##상대
inter
1개의
##지자
엥
##생의
철저히
조선시대
주어진
##소비
##ace
없던
##즈니
쟁의
드세요
##기사
##기능
비공개
결혼식
거래가
우리에게
##시키지
##풍이
약속한
##함에도
1968
##법인이
제2호증
가졌다
나타난다
##준의
가볍게
등기를
사라져
##약관
위반의
늑
자체도
취득할
적지
타당하다
항성
공식적인
##man
##껑
가량
##법에서
##ᅳ랜
비주
현장을
들어보시죠
유상증
주유
##행성
왔을
##사람이
기자님
도시의
설립한
##주택의
됐으면
name5
ㅅㅂ
포스트
백작
믿기
째
메리
주기로
많잖아요
조선총독
##였으나
보충하는
급제
믿는
속도로
갖추어
관리처분
은행에
전역
발발
수준이
있음이
개별적으로
##등한
드셔
왕국의
사무총
않다는
무료로
##베트
시기가
정서
머물러
평택
범죄사실을
사가
신혼
세입
##구년
##됐고
것들도
##대사
아니었다
연구에
처리하는
##법률사무소
1939년
그녀가
##수표
##ᅳ럼
##수급
##영을
박지
맛있어
궁극
연결되어
캠퍼
##선택
제38조
단독으로
6개
후보에
사용자의
먹는다
배척하였다
모아서
냉동
뷰
##시리
시발
부하
결의를
뱀
목적에
높고
관리하고
민사소송을
모셔
한의
방송에
계좌로
이대로
1980년대
요구하고
의약품
닌
빌딩
wor
찜
많기
페르시아
##3원
보여요
공정거래
##tt
그랬을
##교도
정당하다고
개혁을
불만을
##드린
복제
가족들이
##ove
거리에
국가에서
논지
참가한
##따라서
사무를
알선
0으로
##동과
화폐
씨한테
음악이
양도가
박물관
총독
예고
##까봐
저술
꼬리
소명
무인
협의를
##베리아
활동했다
트렌
다다
##바지
뱃
달라질
1919년
나중에는
금액의
소속으로
일차
숨어
거잖아
##해운
##막을
크리스티
당하고
안전하게
투표를
cl
스테이
##티오
car
지적이
20년
번은
형벌
대표에
뒤에는
토지소유
##계획에
##4호로
일커
계절
156
짬
비판이
브라운
섞어
인생을
동종
원심으로서는
호적
##4원
##구치
##력도
보상을
상한
실시한
엘리베이
##여섯
당내
시작한다
오케
문화가
아래에
작품으로
단계에서
##이니
##구성
김희
자제
##일날
man
한동안
점과
##악의
거쳐서
##ast
우병우
올림픽에
핸
재건
처리를
나왔을
다가가
봤
달리하여
##내용을
배척하고
가태
##였기
총무
말씀드리면
##궤
##ind
내렸다
##욕을
안가
##더군요
지급보증
##드리는
##론은
형식을
막대한
1955년
물품을
##결정의
##외의
가옥
경쟁을
수산
얼음
도로를
##층을
전화가
한계가
##아주
##규정을
합리적으로
##인수
밑에서
문화를
##클레
드레
저에게
달라요
미래를
빅토
이벤트
시까지
언제까지
##2원
만남
일부에
학생들은
고영
##럭
사유에
상표법
예견
창당
##시켜야
##계획의
##타로
##자이너
갔어요
두개
대한민국에서는
벡터
건축허가
5억
cp
##희는
불쌍
##스라고
택배
가지만
##리사
사용하였다
궤도
##은데
##비도
딱딱
캠프
##공장
올렸다
##차량
정보통신
어리
오가
##프링
##였지만
암튼
##기인
대물
상고논
##병으로
행위로서
나서서
얘기들이
공학
차이는
신부
청구하는
정부와
귀책
동일하게
론그렇다면
주전
이분들이
만성
온갖
석방
이홍
##자유
일입니다
고교
논지도
비극
제20조
경찰서
반기문
##겸피
있으면은
##담에
순간에
젊은이
##구청장
의식을
들리
금품을
지상역이다
상주
댄스
미국을
물론이고
조합설립
공공의
상관이
km이다
ro
##소설
장의
##ment
데이터를
느리
##통일
일어나고
대회에
근접
측의
엄격한
이세
##하하
연세
쪽은
##아리
같네요
갖춰
위법은
우수한
##간이
없었다는
된장
국민들에게
##즉
패스트
요하는
매체
항목
##마르
처벌이
적법하다고
전화로
오년
##3호
원장
점수를
##슨의
이십칠
밀도는
인터뷰에서
저쪽
결여
뵙겠습니다
##vd
##서부터
전단
##질의
주장하므로
1953년
new
##쭉
##작업
105
리처
김구
리버
##근의
##셨잖아요
항소이유의
count
일부로
성공적으로
갇
연봉
##가니
여기다
향이
##78
##권설정
청와대에서
당심에서
의외로
진행된
머릿
평상
구성요건
##드라구요
마인
몸무
강력하게
챔피언십
##98
계통
손실을
한명
##감에
철저하게
화이
나경원
##모리
##루는
##쯤에
내무
깨끄
비용은
모욕
168
소유자가
입증이
##원수
상하
좌파
##메리칸
돋
당초의
##사진
받거나
입에
다니면서
주십시오
되냐
복사
분당
##하다면
해당한다는
튼
##셨고
보기도
##노동조합
색깔이
주인이
신주
강연
생각한
판단하였는바
표명
김포
시간도
1942년
부당하다고
특징이
소득이
##미나
지키고
노선을
나가면
ms
##다녀
인류
##일까
알면서도
##중에서
##토지의
결론이
골프장
신학
처방
투어
딱히
약속어
외무
편이
선거가
10억
특정경제
때로는
##처가
대한민국이
##은행이
하셨습니다
##비밀
##부사
김홍
크리스마스
##ational
##기로는
##심판청구
아르헨티나
서기
방식에
히틀러
1957년
##이센
##교가
않았기
창고
##조차도
치명
트레
차원
개국
##능력을
el
소문
탐구
하우스
집은
디스크
밝혀진
이비에스
대하여가
청구가
과징금
특징을
날아
무언
날은
광업
독립을
마이크로소프트
승차
##미로
좋아하고
##멘트
ed
쿨
이희
기각할
했다라고
조만
여객철도
나폴레
도요
기록은
손해에
운동에
##석으로
커버
항소비용은
해석함이
갖추지
닥
1967
##했는지
소송이
갈등을
손자
##받기
백오십
어떨까
있었으므로
근본적인
제3항에
면세
노르웨이
145
##2호
달고
고맙
취업규칙
마포
원소
##미술
부모님이
짓고
##었잖아요
암호
많거든요
발표된
동생이
kbo
배우고
가슴이
##쁨
따서
함락
바꾼
납부한
내용도
힘들게
##가인
부재
##료는
##감호
##습을
범죄사실에
나라는
가벼운
재임용
그러냐
비치
서술
다시는
확인하는
우라
표를
부과처분을
방지하기
##서비
장차
드시면
빌보드
청춘
##훈의
##ᆯ렌
찰스
안대
두는
단위로
##신청에
썬
##96
조직을
한잔
##용은
발간
초상
케이블
혐의가
분산
했었어요
화요일
제1호에
가액을
거기도
##사들이
자로서
지급하여야
부산지방법원
비난을
장모
너네
있으시
좋아해요
그것에
한복
##보지
1990년대
신청인
땅에
안토
##급의
스타일이
##결에
##ro
고리
##조성
부탁드립니다
인감증명
신의성실의
제사
적혀
등록된
예민
경우라면
실은
등판
법적인
##범위에
진행되는
컨트로
김은
##클리
허용될
부당이득반환
나폴레옹
##힘
##방지
각본
측이
쿼
탱크
##보건
방안을
##부장관이
##ies
##과대학
더구나
##후가
룰
충전
##헌법
위를
김원
##좋아
펄
곡이
총선에서
했었습니다
블록
더욱이
##렛
##ᆯ리아
1943년
내부에서
인조
필요하지
영화제
김영삼
중도금
##느라고
##그마
약정을
골드
완벽하게
껍질
스페인의
김경수
유형문화재
##동법
나와야
##주의적
등장한다
##부분의
162
요새는
양도차
##치아
##피고는
##피해
해놓고
편이다
진행할
죄에
선택할
보았다
과제
재판이
뭔데
지방에
채권이
##여덟
선하
##직으로
제공한다
뇌물을
발탁
증거는
틀어
말야
미드필
평범한
수분양
락
그렇겠죠
##두를
샤를
종류가
한계
중요하다고
##형과
##카르
이라크
진술은
침략
집필
자신들이
제40
칠레
운항
산다
일이다
고수
##변에
밀가루
##겟
제도의
발견한
원상회복
##규정이
천문학
보여준
##얘
##뽀
네티
##31
##했다라고
166
니시
##풀이
유독
차로
##보호법
시기를
##제조
아니어서
##차별
귀엽
##검찰청
치유
##업자
집어넣
이마
반박
나들
패키
이러니까
스티븐
사기를
정책이
시장을
강동
감독으로
묻는
##즈로
피할
전속
##옷
조사에
유지하는
##ᆻ다라고
전한
하려면
안드로
남쪽으로
cod
##리히
주변에서
##ide
##즙
결론은
##토의
시진
##회원
배경으로
##공사가
임상
선수는
시킨
살던
이화
밭
재미있는
질문이
일일이
마음은
##체스터
다음날인
중동
##규에
넣을
흐르는
만만
목을
인공지
퓨
##쩡
고혈압
도래
갑제
클레
##사전
중이던
거나
하시는데
##있을
광화
여러분이
목욕
기재의
##수원
퍼센트를
잉글랜드의
책에
들어봐
물고
내셔널
좋네요
멜
교과서
시키고
시행된
과거에는
공사의
스파이
견제
##빌딩
서서히
역은
1호
주어
원판
국물
발병
목표를
그림이
##리라고
##우면
##셔가지고
##임의
손이
##법원의
주력
어유
필요하시면
눈으로
무거
함경
대비하여
말려
소송촉진
수차례
말하며
##교수
형상
함유
이르렀다
인테
것임이
일어났다
명백하다
전에도
##신데
##토록
여의도
아테네
가봐
당원의
##ff
행정처분
##요구
나에게
바쁜
##경찰서
신빙성이
나눌
이십이
##역은
##이라고도
par
##키가
올라갈
##장관
##답을
일인데
환자의
##추진
번을
생각에
작사
161
##어촌
기지
에어컨
추첨
파르
##ath
됐든
왕의
허위로
ag
분들을
##등기에
노트
김규
교향
##찰을
위험성이
일으킬
##ain
인정하였다
폭로
다양하게
웨이
대의원
부담하고
스펙
이슈가
##국장
키우는
길에
미네
상품을
킬로미터
비교대상발명
##ᆻ음
떨어지고
부인하고
텍사스
판타
확률
요구에
대부분을
오십시오
그분들이
김밥
꽃이
앗
없음을
화산
선정되었다
인디언
턱
##줘서
소속의
유보
생각나
귀가
향한
수석이
그러네
어지
처단
##처는
봐라
취할
증액
가지번호
오시
검정
쓰게
1965
매번
##언니
핵실험
##태의
깨달
바뀌었다
주차장
프로필
연락주시기
대안
기아
해보면
##국과
필라
부당하다
표시한
틀림
소장님
##입을
마셔
시카고
없고요
##타고
곡으로
01
##해에
불명
제5호증의
범위가
했잖아
주택의
어렵다는
##97
대접
때에도
되도록
##우지
힘들고
##증은
다르고
수험
10월에
##아래
요소를
몰라서
다큐멘
##인정
소주
싶을
홈페이지
드린
적폐
##편으로
윤석
형태가
근거를
있었잖아요
나오기
공동체
급속
마산
라이트
폼페이
중국을
천구백팔십
수준으로
되었을
입주자
조합이
##고리
없잖아
고기를
못해서
크기가
중추
달래
##뜩
주시기
리듬
이십삼
##민주연합
이선
남편의
##직한
코르
침몰
출시되었다
##특례법
##5호로
##지니까
낱
피터
고백
ic
##상법
청와대에
학력
여기에는
고고
상황인
메달
##졌어요
##ory
2선의
##토를
디자이너
기초사실
인천광역시
비정규
의지가
행렬
증상
작용을
사원
되겠네요
추모
치면
##시에는
##야구
되찾
도과
가혹
되잖아
위협을
중력
##7원
사자
의문이
비율을
네티즌
이행할
공매
##배가
##카의
##란을
##가치
가문의
이걸로
경제적으로
캐나다의
pla
선적
자유심
##수리
의심이
걸리는
##할게요
입양
##플러
기득
전쟁의
결론그러므로
사적
##사우
##데스
굉장한
##만큼은
다룬
사일
##미사
##분으로
돼지고
제22
1면
##ᆺ하게
뜬
갔던
거대
##아웃
짐작
ss
살기
##금액의
한가
오우
영국에서
이곳에
cm
##수지
등기의
곳이다
아시는
목록이다
군이다
##투쟁
##박스
##철에
이산
쯤
##8원
##공의
임종
검사는
바둑
안전을
성경
검출
##병에
피상속
발견되었다
착한
회의에서
##자본
다케
만나보
주요한
서울민사지방법원
바꾸고
##해봐
피로
당당
제3채무
##위원회를
끼고
쉐
##었지
##사항이
엎
최대의
자인
문서를
164
알라
정치인이다
방송이
인터네
여성을
고립
##옴
사실관계
제시한
##오지
어려움이
베어
골키
##팀에
하려
제한이
심상
받았을
##등에관한
아시죠
논리와
이라고도
때를
##종합건설
서운
미드필더
일본인
시장에서
유지할
전반적인
##아홉
자기도
드시고
##친다
만들어졌다
155
닉
명한
휴일
드러난
##ᆺ갈리
부추
부양
##회사를
돌이
응시
화려한
##기나
##령의
명하는
##텔레
있었음에도
##창을
대고
엮
놀아
교부받은
반국가단체
말씀드리고
연결이
##ᆻ었죠
물리학
##보충
jr
핵을
우회
천주교
의사로
적정한
보조참가
모로
##딕
##티가
##존재
원용
법관
백악
것까지
점도
이른다
학생들을
##비한
다이아
##콕
어렵지
##지정
전적으로
오다가
사회적인
##피고인은
##구청
마니
보병
개연
보이며
왜냐하면은
공룡
##공시
발의
이거죠
확인대상
포켓몬
##ri
세인트
##획정리
섬유
껴
때만
출국
중국과
아는데
157
으응
손해배상책임을
##임은
틀려
본래의
350
##였다는
우리에
##생명
##방법을
현금으로
그러세요
불분
두부
##께요
씨랑
한편으로
##재단
사실조회
제3자가
##품의
폐기물
##뜻
가다
##하여서는
조회
됐는데요
대가를
주시죠
##내서
호는
찾아와
기억나
사각
##국제
##국수
공여
하느
공수
교양
##편의
바이러
도심
즉각
학살
프로토
포함되는
아끼
원인은
##불상
지구의
##이즈
3번
##국인
날려
가다가
##티는
##재산을
지방자치단체의
요기
아이디어
사채
##보로
월간
해결을
무고
신랑
사람인데
지대
끝나면
##내야
지켜봐야
##실은
불거
원자력
##과이
수천
따라서는
139
전무
개체
성균
언론이
3대
오던
##겠다라고
퍼센트로
##과정을
가마
사운드
범한
제3호증
동아리
sn
남기
루마
식사를
얘기예요
백제
근거하여
##갱
하버
당원이
##안과
##하였는지
마르크
아니겠어요
이유에서
감각
북측
산재
제3자의
도로의
##크림
숫자가
##테크
소문이
춤을
제3점에
적발
이노
##하기에는
번만
올해의
구성이
##코스
소매
##ans
거두었다
니콜라
저서
##카는
열거
##ᆻ음에도
소규모
일본을
잡히
##쩌
전도
동행
재난
세로
##더스
##헬
농지개혁
내서
관념
##에른
##동물
##공학
타협
산소
주제가
조희
않는데
특혜
버리는
위약
##실한
불만
##팀은
상당하고
아닌지
페이스북
이유불
프로이센
##중공업
파탄
년도에
영조
클리
##기관에
겨울에
##녜
거울
추기
소프트웨
##ㅇㅇ
가등기
신장
막고
167
술에
##기록에
sch
보스
##범으로
##플리
법칙
발로
있으세요
그전
이상인
##씩을
레알
산업재
법률적
놓아
시설이
취득시효
##종에
열리
흰색
##제도의
##주셔서
##유지
등기가
범죄가
얻기
유고
계곡
판단함에
##편을
버ᄐ
싸우는
성립하는
헉
대회를
##방으로
타인에게
외관
##회사인
빨라
압축
장이
사내
##대구
##합을
##이었으며
입장은
##가지구
안전한
에피소드
##사관
상영
없었는데
확률이
##ach
##ber
국민의당
##지이다
성의
##든요
창출
빌라
농협
흑인
이용을
열차가
농림
##대원
반대를
취하고
박용
백이십
대한민국은
폐하
싶은데요
않나요
병행
주인공이
많이들
나타나고
번이나
인근에
반란을
기관이
신임
알고리즘
이삼
박우
동안의
해석하여야
일실
##터의
##산에서
생각에는
뚜껑
개신교
##현을
상표를
##온다
1966
얼굴에
직원들이
##둘러
면치
줄기
착각
보시겠습니다
##pt
##남을
실려
##액으로
상대방을
파생
상당을
임의의
정성
##화재
시작했고
피신청인
##사리
##총회의
완제일까지
##기자
불문
##옌
장기간
##금액이
골키퍼
시위를
출력
바이러스
말만
##님도
프랑크
##사이에
않더라도
행한
여수
차는
보강
사단법인
##체인
##더라구
않거든요
##뱀
협정
##냉
엽
상기
유포
당좌
도시이다
##서류를
개척
머무
나뉜다
##시스코
있음은
구사
##심은
아버지를
데뷔하였다
에드워드
##하우
지표
번호는
##ical
##pe
비유
##저작
##비디오
적립
프로그램에
특허발명의
3층
한다라는
휴게
보호하기
##셋
변경을
일시적으로
살게
사업연
회사정리
소련의
오게
요거를
옷이
집중적으로
어떨까요
부담하게
태양의
##이네요
소리야
교부받아
신사
제21조
톱
제3자에
그전에
##수에게
지능
##나물
2017
존재하고
##해서는
채권자의
모양으로
마스터
명나라
호수
국제공항
##시간에
부당하므로
완벽한
##진과
특성을
163
##하였기
도구
인정된
기반을
한국을
향토
유가족
데다가
대응하는
후쿠오카
진정성립이
그보다
적대
154
변론을
산정함에
아쉬운
##7호로
이온
자체로
##스톤
##줍니다
전까지는
##판은
출동
모양을
주먹
미스터
##길에
##시네요
가니까
아바
가한
서정
입는
대표자
클로
200만
##덕이
싶다고
많으니까
형사처벌
##왔던
친구는
씌
부담하기로
##ary
제보
해명을
실력
파기를
필요도
빛을
제364조
##학규
성추
손해배상의
장을
석탄
밀접한
선수를
상표의
##9원
의식이
바이에른
##땡
수업을
##세액을
초기의
진행한
전쟁에서
감독은
포기하고
유재
한겨
##었으면
군에
풀이
웃겨
대폭
내게
납니다
장해
일으키는
근무하는
군이
지급된
##지며
미쓰
##교육을
가가지고
피하기
##ᆸ지
은근
125
학교법인
흩
적을
학생들의
시킬
자동차의
분석이
파업
상당하는
병이
설립되었다
8월에
##1원
전복
재수
##밀히
##로와
같긴
뮌
공이
뉴스가
##재산에
당분간
문제와
##적이라고
예산을
개칭
만다
친척
적절하지
이사를
거랑
##동에서
상태입니다
점유를
##현에
얽
##발행
해석에
##말고
##문에서
순수한
자이언
##비율
선제
투여
멀티
변신
##ond
흔적이
1936년
1910년
##ug
##도급
긁
미흡
성숙
##확인을
기타의
4대
그래픽
##생산
도로교통
타이거
플레이오프
예에
단어가
왜냐면은
##유공
입대
벼슬
##가면
##가액을
아인
사격
준비서
올림픽에서
김영란
##ee
##가야
원씩
생각하는데
##ᆨ은
평가할
##ᆻ음을
##분배
김장
##매입
배우는
이치
##전도
ㅋㅋㅋㅋㅋㅋㅋㅋㅋㅋㅋㅋㅋㅋㅋㅋㅋㅋㅋㅋㅋㅋㅋㅋㅋ
원고들과
채권에
바닥에
제1회
말씀하시
이론을
##모는
백두
꿈꾸
##카드를
협약
옹호
##교는
쪽에서는
경료한
시리즈의
드루킹
##원장
배제할
##로마
여권
##슨이
게임의
##88
이한
있거든
피고들에게
##ㄱㅋㄱㅋ
##터로
초기에는
ep
보살
과잉
반사
진단을
빠르
얘는
싸움이
인용한다
명문
운전면허
엉덩
스캔
dvd
청구의
닛
소홀
내년에
##호텔
얻지
골목
위상
못했고
첨가
건전한
하였던
부분으로
힘들다
삶에
올바른
해발
##씨앤
밝혀져
제의
되었다는
예로
북쪽으로
카라
행사하는
서울중앙지방법원
감히
##ᆻ었어
##애를
사회적으로
이십팔
남을
앞서서
희망을
가계
동경
단어를
금지하는
정류
참기름
##왕은
요구한
확정되었다
1938년
거면
##생각
##외에
##용지
침범
##께서도
대포
샐러
효력은
언급을
영화배우이다
신입
분식
교부한
있겠습니까
김옥
반지
민원
루트
콜롬
##해볼
맘에
소가
콘텐츠
##기계
재화
키가
붙인
털어
도마
파크
comp
부천
##경까지
준하는
프로가
##시게
이사회의
##어리
관세법
배상을
초순
가설
정할
것이거든요
##공사에
##타임
강아지
환승
명확한
대상을
나타났다
라이프
##룸
받았다는
##셀로
신청한
##검사를
처벌할
##위원회에서
##돌리
8년
차관
강서
##고추
1951년
##속에서
1970년대
공장을
##책이
안성
생리
상고이유서
실시된
##조치법
##인지를
제33
##앵
여사
학생에
불과하다
야야
공소시효
빠져나
학교의
요구되는
틀린
저건
있는지를
선대
포털
양측
장미
##병의
장애가
##홈
있었는
이익에
피자
도피
학교가
꾸며
##이로
##었다가
나갔다
찾아뵈
##브레
제재를
관리에
##높
부가가치세법
시부터
말까지
가태요
저걸
##화하고
하였을
항해
전액을
와요
스프링
이체
지출한
제1의
제27
당심증인
##니와
진행되었다
##신청서
늘려
##거래를
과도한
고장
새해
내리고
서울지방법원
것이다라고
임진왜란
함이
대답을
모험
제50조
제6호증의
위안부
##필이
##약한
##터에
문신
설명이
##서양
있겠네요
##일년
생강
ㅋㅋㅋㅋㅋㅋㅋㅋㅋㅋㅋㅋㅋ
넓이는
##해보상보험
os
포착
점용
가루
##건강
했었죠
##베스
##쟈
가와
정을
이름이다
후보자가
바라보는
##팅을
상응하는
##대신
무대에
얘기했던
미용
당했다
생기면
제3항의
해놔
차량에
발전에
##티를
날개
승려
재산분할
신청에
사례를
이즈
소결
스탈
love
드로
요구할
##이치
고도
노스
벌어지는
않냐
나누고
##age
대항할
쏴
노력이
추워
쉴
안쪽
##썬
지원이
내리는
비미
##ick
스ᄏ
경우에만
크림
벌어지고
만나면
운영에
유연
##임수
##코올
제39
물가
참여했다
보시고
관람
에르
##안에서
##부분이
##스틴
경계를
엄마랑
##줄게
관련해서는
더더
##인데도
군사적
노태
여겨진다
그지
상품이
지급되는
##어야지
소론이
##ᆷ픽
누구를
이르지
등장인
인식하고
임야에
테마
다릅니다
있더라도
##영향
##버리면
##액에서
곤충
county
##브ᄅ
불가리아
근저당권을
10만
135
3세
##취지에
팔레
##슬링
퀘
부끄러
메가
오다
사이를
##꿈
명칭이
##ᆺ가루
하잖아
있었다면
이십육
부유
##계열
아이들은
안에는
배추
이불
쓰기
삼은
실체적
##학교를
아닐까요
영주
바나
최우수
##남도의
바래
##신저
추방
취소할
##경으로
송진
146
다루고
충북
측에서는
##긴다
발생하고
##원에게
무혐의
통화를
누구도
떠났다
트러
땀
##식에서
대표팀
아래의
잦
문제라고
##불법
은폐
사용될
의미의
지방선거
잠이
전라도
구름
대한민국을
떨어질
동구
제정된
죽여
##ᆸ게도
뒤집어
가신
##체결
##법원이
선동
보여준다
쉬고
산입한다
대지를
##되지는
영화로
소설을
이곳에서
정리가
##으시고
무선
입국
아메리칸
위기를
여성들이
한중
배분
알아봐
잔존
임대차계약
##환은
반환할
설시한
밤새
테크
보험금을
수단으로
요번
종사하는
저가
도라
장점이
가족을
##ᆨ이라고
##넨
취득하게
주민들의
숙박
캠페
afc
##사상
김미
불어
하고자
등장한
전격
방식의
하려는
이사장
어떠세요
그러니깐요
인스타
제2의
##섭을
삼십일
패소자인
스트레스를
썰어
특례법
듯이
지난주
사법경찰
남겼다
2로
##공산
중심이
전동차
귤
joh
원심에서
교육에
석사
침해하는
달린
이상에
법학
##페이스
하면서도
가져다
##iss
장관을
누군가가
부의
피용
프리드리
152
정당하므로
역사적인
##콤한
전원합의
서울의
##감은
##혜원
그려져
자영업
불구
##됐을
유죄의
제31
좋겠어
##조합의
조항이
기자회견
육성
1937년
즐길
박시
역전
생각한다
경찰의
사고의
상관없
졸업한
음음음
척추
1은
간섭
빠지
글자
ab
욕을
##파일
##석과
초점을
기록되어
자택
##계와
추후
##글로
씩
사랑이
##관찰
놀고
올해는
##니를
됐다는
내용들이
십자
메모리
##가시
두지
히로시마
일찌
감당
의원도
나타낸다
##보살
날아가
##평화
##같은데
해석하는
지사가
보스턴
타워
믿어
##진영
왔다고
장소를
그런데요
수입을
30년
이오
##로만
시급
조문
브이
장소에
알았다
몰고
아니하며
많았다
달이
선배님
적용되지
##지대
감리
타입
봤다
##행위와
출연하였다
구미
준비했습니다
등급을
보유한
훔쳐
아티스트
제기를
공사에
너랑
##등은
##천의
않았으며
##츠의
했었고
남해
##녀가
성질상
한나라당
진도
##교섭
##경비
막는
##거리가
카레
참여하는
라이벌
##km이고
생선
##생물
제1호의
##했잖아요
변호사와
##기소
여당이
##령에
삼겹
읽을
##지상
본다고
계속적으로
크지
앨범을
짓이
불량
오늘에
엄격하게
그밖에
제목으로
##었나
심신
하셔서
멸종
한상
##위조
이루어
거주하고
불편한
적당히
저해
개장
있습니다만
##애가
언덕
모습은
브랜
주시고
올릴
##지역에
구청
단축
입었다
못하도록
높다고
##하였음이
1918년
##건은
알기
방학
작전을
아이에
업무방해
그랬잖아요
즐거운
##ᅨᆫ
자유심증
##그레이
음모
##네가
했는
아시겠지만
불확
사용했다
밝혀졌다
어두운
종일
상당인과
생겼다
덤
스케이
분자
증빙
갈색
수준에
공화국의
##가면서
유의
기간은
##상태에
##보의
유신
비즈
양을
##ᆻ었어요
장갑
해주시
##였거든요
##자리에
##스도
해본
##미리
##무의
비닐
법은
##경과
ㅡㅡ
인도의
남극
열매
바뀌는
아니하면
총장이
선수들
공개적으로
예상되는
사실오인의
의하지
개량
학사
인데
들어가야
##프란
아니하거나
무의
##작으로
부동산이
수사보고
압박을
12월에
##주시고
연휴
줄여서
모델이
필요하고
섬의
되었던
정세
어쩐
질문자
별거
충격적인
마법
개명
배울
볶음
프랜
2018
##리면서
대통령에게
1960년대
즐기
주채무
붙은
피난
##직할
##철은
##ere
억압
정면
##륨
쿠바
할머니가
손실보상
##95
##ck
권위
레몬
지중
주행
다진
##예금
명예를
##스럽고
지켜야
비단
할리
소송에서
##됐다는
일어나서
지워
해태
##쓰고
주민들은
그중에서
상당하므로
##ivers
hd
##반을
투기
제1항이
융합
##ᆿㅋㅋㅋㅋㅋㅋㅋㅋ
##전용
##바이트
김여
체류
##찌개
환경을
주권
##하였으니
전입
승나
발견하고
##ma
장르
추천을
차례에
줄이
커서
##시간이
사정만으로는
대권
주위에
주셔서
##일지
##키의
생각하시는
불렸다
##군에서
바뀔
되네요
소액
동지
##ᆻ대요
##ence
마요
도둑
스타디
전투를
완성된
이후부터
별이
비교하여
##명령에
리처드
안산
역사에
상고이유가
여기저기
공개가
##기준을
스카이
##감사
쫄
후보의
이우
인상을
삼만
근무를
사안에
퐁
등급으로
모토
체제가
##코프
남편을
그만두
였다
##노의
제5호
고구마
##표는
스쿨
숙종
제품이
갖는다
살아있는
오리지
약화
루이스
##인지는
대지에
크로아티아
##부상
3월에
칼리
##ᆺ는
##뻔
이대
그러던
격파
조상
##복이
name6
##정신
정권에
##란의
습관
선물을
##재개발
##올라
역에서
질량
마이크
오를
동굴
##숙의
##ᇀ이
##어에서
##데르
전성
앞뒤
##변동
일반적
염색
발언이
2주
아시다시피
뚜렷한
##라미
##분하여
클린
늦은
새누리당이
##증거에
갔어
사막
인력
##전선
차고
데이트
##장면
셈
병원을
참석한
##ft
##우스는
김문
행하는
날을
문자로
랑
옳은
재무제
요양급여
지옥
보험사고
통상적인
뮤직비디오
##그레
##무역
계층
적당한
게을
최신
결정은
캐스팅
끊어
정진
경에
감찰
소송총
존재가
하였다면
대구지방법원
다리가
전승
윤관
토론토
플라스틱
안희
들어가게
##탈의
학생을
듣기
정년
상황으로
특징이다
양심
타격을
육백
##벽이
전국에
접한다
##채권은
##act
도지
성능
##반이
##언이
볶아
사해행위
##크래프트
1개월
강의를
식에
거래에
불러서
남아프리카
##리그의
2심
모터
수상하였다
##치오
상담이
한달
산화
##악한
##anc
몰리
강을
앞으로는
계산을
격려
주면서
103
동대문
알겠어요
그럴까요
상대방은
아니하였다고
존부
##미디어
몄
스톤
말씀드릴
인원
범인이
151
찐
선생님은
##특별자치
시진핑
사야
여유가
금고
열람
##했었다
이천이십
##빨리
맑
비공
##받았고
나눈
가세요
주머니
##비나
박주
맞추어
##풍을
사우스
처럼
물질이
초록
##족을
표현하는
##9호로
##등기는
피보전
생명을
교차로
팟
##손으로
증여세
염두에
무엇보다도
자동으로
##판의
##ᆻ으면은
경영하는
고성
말소를
100분의
가수이다
##다지
##득의
대치
추계
##쿠스
1932년
자본주의
성폭행
내면
##재결
##학회
제기하는
##하자고
전자금융
가령
사생활
조경
##금고
발생한다
정상회
##해양
선량한
동쪽으로
##범에
유배
##첸
소요되는
받으며
담당하고
은행이
새마을
보행
고조
먼지
기숙
과태
사주
약물
제24조
해당되지
조합원의
차례로
##깃
손학규
사고는
어마어마한
구속영
##이긴
이름도
이미지가
##4호
입지
타인
##제3
파기하여
말씀드렸던
이전부터
불과하므로
오인한
영원히
750
인하
이어지고
정봉
##석에서
무엇인지
나란
##걸리
중에서는
스트라이
성직
북극
편의점
이려
##피가
##이든
##여객
관장
있어가지고
역사는
##근을
나오면서
손해는
혐오
대표이사로
##종일
##왕을
은행의
오전에
성형
누적
대표적으로
경제를
제89조
##려구
##미아
##토지에
올스타
공산당
둘러싸고
##75
##됐는데
깨다
운행하는
유흥
간과
매매계약이
##으려면
##제출
제약
해결이
가난한
콜레스테
##전에서는
##디에
제4항에
부각
그러냐면
국수
##넬
감싸
아니라면
기재를
탄해
##클린
오렌
솜
때문에요
넣으면
깊게
아니더라도
내릴
교육의
제압
얘긴데
레인
1914년
두어
##팍
지나서
새정치민주연합
먹으러
줄을
농어촌
맥락
##퐁
츠
시조
못하면
대통령령으로
##부정
성장을
전원합의체
정상이
##비트
명칭으로
짬뽕
아픔
툭
급하게
직무에
다수의견
##금속
서쪽으로
만두
119
위원장을
님은
핵심적인
450
그녀를
계획은
김성태
압수수색
뮌헨
구성을
신생
돼가지고
고등학생
##거리를
지정되어
주어져
등장을
##중국
범위는
뭐냐면은
멀쩡
김이
요청에
##ass
이장
보나
##하더라고요
모인
팍
없음
게요
강성
부족하다
인물로
무상으로
책임은
갚을
##룰
##한지
방안
서울지방
선수단
보여줄
##피의
소유자인
개발이
무효인
주시는
##절도
신청인의
밀양
##껍
오성
최경
않는다면
패소자가
편의를
답이
시범
경력을
반포
##된다면
달리하는
제2항에서
이뻐
선원
씨하고
발생하여
제출하지
프로그래밍
욕심
오늘날의
플랫폼
말구
당하는
규정하면서
자신도
사랑해
##값이
튼튼
##대차
한신
오락
선교
사랑에
dr
##라고는
##현황
##초를
영향으로
분야의
선출되었다
##장소
유혹
명목
##작업을
누군지
자산의
피가
표지
일주일에
마쳤다
전산
전담
106
##명의의
##사건을
##야의
단행
쌓여
진심으로
##보게
동창
##상태가
##요건을
##변이
양도담보
나들목
밀라
대승
전진
##되었습니다
언론에서
로마의
가능하다고
##벽을
1935년
웃기
##콰
피를
증축
한국은
300만
푼
내려와
##ᆯ리스
원고로서는
경찰에서
공급하는
##트루
카지
아랫
##명령이
기무
전염
들고요
불필요
봐서는
하던데
지장이
신당
조금은
상고논지는
이봉
안경
개찰
장인
확신
##독립
균형을
##나를
토론을
##걸로
되겠
만기
지연손해금
##미르
무허가
있었으면
외상
153
이별
##pl
##라노
편에
레벨
효과는
##85
알죠
##병호
준다고
과실상
##으로만
파손
강남구
그쳐
내보내
##업자가
발견이
용어를
소유인
제출하여
사유는
em
ㄹㅇ
갖지
수원지방법원
죽이고
사고에
부르기도
조지아
##가에서
열쇠
솟
유진
인정된다고
버튼
복음
포함된다고
표시하는
이유와
보상금
##ton
전상
##명령의
기차
이용훈
연구가
출원상표
전향
재즈
하네
삼사
포트
느끼게
마다
같지만
따지면
##개정
174
재항고이유
백화점
1명
원로
##ite
##거같아
1주당
##지배
영상이
강신
노동조합의
사안을
##코의
법률이
본건에
##제도를
미지급
감지
종속
데려가
##ix
고현
##재는
성행
마음의
이러다
용돈
플루
김용준
##조건을
불상
제22조
중요하지
##꼬리
오카
공적
##중이다
스스로가
심각하게
선박의
심리미진의
고유의
하반
사건본
방식은
엘리자
모델로
떡볶이
재보
##칙상
원주민
네이
##바와
대변인
원장님
박스
찾은
그땐
ㅎㅎㅎㅎ
듣지
작품의
알면
##ᆺ잎
염려
홈런을
##시니까
##연에
##구획정리
발견할
남지
##파와
참가인의
##쇼핑
##원리
##군에게
해결하기
답변이
몬테
##킬
평화를
##회의에서
마누
눈물을
바꿔야
중학교이다
전전
여부와
세게
##디는
언니는
##감하게
휴양
1933년
##금액에
##상한
미워
무용
##물이다
##land
아래로
불만이
채무가
달러를
##사채
1963
특허청
연관이
없다라는
관련해
생략한
이일규
마틴
상정
요로
이후인
##프랑
mus
기하
바지
연평균
달라진
싫어하는
##탱크
무기를
값을
들어야
172
이끌었다
짓는
##있다고
성동
부담에
마그
공구
유지를
도합
##취급
169
시도를
시장의
##었는지
가져오
환원
성립하지
가격으로
보관하고
이돈
##상도
##펠
원내대표가
##cl
정조
단호
115
아들은
##중은
##훈은
가족의
김석수
나야
용도에
##건설의
죄송해요
냉장고
대칭
안을
기각한
##싶어
##킬로
나타날
없었을
비서관
줍니다
것들에
체결하였다
옮기
수상한
03
##sh
정재
##일자
비영
사문서
##몬드
##하십니다
활동은
##ase
주제를
오류
##위배
곗
제4호증
분쟁이
극단적인
천경
나누는
제품의
시원한
하와이
##주년
부총
전방
##동기
화재가
모의고사
##수석
일리
광명
레지
대화가
##율의
##림을
사랑의
qu
##상환
##팔백
싫은
홋카이도
중심에
사태를
이공
박준서
즐기는
동아시아
##하루
##봅니다
폐업
스탈린
제척
앞장
머리에
점유하고
##ᆿㅋㅋㅋㅋㅋ
이익의
자칫
본인들이
일본어
항공기
##aw
여기도
##세한
김남
실장이
제26조
의원들
아실
##착을
##화할
아니하다
만화가
뭐랄까
연동
문자가
변제를
1924년
##자였던
##항에서
토끼
김소
참가했다
역사적으로
입어
##작가
파울
##판결의
##조의4
##했나
원인무효
이소
두꺼
라스
글이
8개
부상으로
받으실
##반의
질의
교수로
가격에
애플리
##지니어
미스
사육
보육
##파크
더욱더
별도
선고된
정치인이
이해찬
##헤이
부동산은
택지개발
02
##시나
시술
군대가
##ern
일이야
9월에
엘지
아쉽
초등학생
양형부당
않으니까
##바퀴
했느냐
판단유
빨래
탱
저번
작고
서울로
기록하며
비난하는
##ah
##건에
배만
240
근저당권의
##이닝
##인사
아이의
기회에
것보다는
##우기
##넹
##콥
##채권으로
##부본
등산
##권자의
지역에서는
준비하는
##게이
메신저
광해
##때는
##ᆻ었거든요
하든
수취
빌린
두산
싶었는데
피해자에
기호
검찰의
성립한다
##ish
그러잖아요
지나가는
말씀하셨던
##성이나
149
##보면서
비교과
1934년
cla
##우니까
확인된
신고가
산업재해보상보험
추출
불평
남자는
제28
친족
##법원은
가족과
들러
##원심이
##음과
막혀
아마추어
게임은
법정진술
아니한다는
싶으면
이야기하고
메르스
##ᆻ나요
##ᆷ이라고
성공했다
360
##이와
##하우스
일만
4월에
##아르
전력이
발주
사라진
후추
그러니까는
혹시나
부분들은
##카를
원형
대하여원심판결
낫지
통틀
특급
102
싸움을
##츠는
지배를
비정상
제6호
이복
요인이
받았으나
##슬로
상세한
프리드리히
##개선
표정이
이영섭
##똥
사양
##주도
재물
감금
##졌는데
##노스
보고요
사연을
방위세
##우스의
##스티벌
아직까지는
대학교의
##가산
나서는
사기죄의
채권최고액
사후에
도는
행정처분의
드럼
##자키
신호를
##작성
있었고요
합의한
문화적
그곳에
싫다
바르셀로
정귀
147
게임이다
토착
목에
태조
흥분
역임하였다
콜롬비아
거둬
##료에
논문을
##사실이
공동상속
접근을
자유심증주의의
일기
개에
비롯해
심심
여자친구
박우동
저널
##려요
##결정은
##착이
용기
보이므로
오토바
필름
1928년
예외적으로
##였을
시세
일원
##결승
##절로
##졌다고
그렇게까지
나왔고
온도가
##권자인
평당
죽게
##이었기
결론에
지속적인
차장
##토가
시속
##마루
##안군
취사
강등
건강하게
초창
함께하고
##ica
또다른
옆으로
어려우므로
##해온
과학적
면허를
7개
ge
먹었어
##플로
이특
추운
장려
미래에
##단위
##티스
상대식
김주한
벌금에
##창수
조직의
신이
한국에서는
나고야
국가는
제7호증의
경험의
쌍용
##대상으로
문장
하나요
섬에
외형
##취를
##니오
연수
##연은
용어는
##청구권의
연습을
##ai
##쑤
특단의
양회
태워
적색
대입
한수
찬양
대지의
연쇄
공동주택
##니즘
식량
현재에
히어로
##라야
##저께
찾지
성별
광주고등법원
진격
##켈
출신이다
칼을
필립
##사항에
발령
있었음을
##필지
이외에는
말씀하셨는데
##화되고
##당시의
넘어가는
##타마
되었으나
과정은
실력이
살다
외모
언젠
비교를
내일은
소지하고
전작
##임에
생각으로
먹어서
일간
누굴
군산
갑질
자료에
##한도
레닌
##볼까
##김영
탄수
##내용에
##들어가
비과세
##이었으나
생겨서
사망에
무엇인가
사설
기동
위키
없네
조선시대의
지급받
136
무시하고
작업이
지점에
##뮬
ㅎㅎㅎㅎㅎ
id
mc
백지
내에서는
도출
리모
##감과
##낮
전교
왕조의
pe
##부도
되거나
인턴
화면에
평일
핵심은
인연이
##열에
도시를
매매계약의
끌려
설정된
주파
##왔는데
섭섭
##척이
날카
처음엔
테니
구치
무겁
##디스
교수는
논란을
쓸데
주자
막히
이해하고
인접한
주를
구리
요약
박만호
판매를
관악
무늬
##택시
있기도
했냐
돌아갈
거요
시기는
토지수용
금액으로
등록상표의
1962
커지고
출전하여
다스리
미주
영역이
서울형
##범죄가중처벌등에관한법률위반
##사나
사안이
공평
높여
표현한
이르고
현실을
해봤습니다
나뉘어
스페셜
전략적
하인
와가지고
야생
알려지지
시켜서
든든
인공지능
증언은
필승의
야채
제2호에
##셨나
지킬
비박
##합이
친구를
탐지
사정은
보수를
##월한
김학
국민적
보건복지
반도체
지주
##규가
##ome
아내를
자세하게
제3항은
장치를
직후에
##ᆻ어도
##이었지만
웨일
기름을
채택하여
뿔
목이
##놓는
##대도
충성
팔고
대신하여
자료로
##상담
##수탁
재고
예정입니다
빛이
제로
반증
좋다는
르네
중장
##오나
정치자금
효력에
하자고
국세청
사실입니다
##봉을
변경이
개그맨
쑤
대피
##셨다고
상급
##산물
112
싶었던
농담
평가한
단체가
뜯어
노는
오해를
일이라고
유적
##질환
항구
관계법령
지난달
국회의원이
설이
판매한
신속하게
##테이너
##ᆻ듯이
정우
##일으
보여지
살아가는
해수
와우
결정된
승용차
지자체
이쁜
인수한
원고들을
성균관
료
##하듯이
화면을
##투아
여학생
상소
안된다
생각했는데
분명하다
하시면서
정의당
##ime
냈다
##산과
엔터테인먼트
주셨습니다
우아
같은법
받기도
학자
대표도
제네
##월드
2019
생각하시면
드는데요
##사유를
도착한
비롯해서
의류
내국
171
정윤
##그만
##미에
특유의
참여할
가져온
11월에
##bm
##시한
시끄러
신문에
잘할
감경
##코는
아이는
##0년에
쪽을
##스런
유력한
원조
노선이
불출
했었던
자신과
구상금
유가증권
운행을
000원이
1964
이십구
##자연
전원의
관리가
##통지를
일으켰다
입단하였다
오타
##하는거
##조례
제31조
##지역의
유효하게
##민족행위
드래곤
##시대에
사제
##라고요
권해
5월에
개념은
김상원
ps
어색
조심해야
여야가
가라앉
2만
쪄
##라를
조세법
경희
않겠느냐
박경
합니다만
알려지고
트랜스
조만간
신흥
성북
접하고
감안하여
##68
대면
니네
그것만
걔는
자유한국당이
피고보조참가인
##닷
성사
반출
멈춰
없어진
진흥
변상
교육과
mm
하라는
근육이
호기
밀고
억지로
되겠습니까
경부
생애
##반에
배급
##직에서
씨에게
싶다는
세계대전
변화에
북아메리카
3회
거슬러
다르지
##의의
생각했던
소송은
움직일
##의료
남이
내외
계시고
생활에
게르
방송국
어머님이
부과한
##벌레
최악의
영화에서
지난주에
블로그
##라기
마시는
108
##시간을
찍는
쌍둥이
가집행할
곳곳에
도쿠가와
##선생
##공신
환경이
인터넷에
국세기본법
괜찮은데
급격히
주방
응하지
##시스템
거칠
##부문
단절
##봉사
인구의
univers
의문을
경제학
설명할
5인
##한거
##종이다
##트럼
지금에
김형선
길로
때문이라고
저자
예상을
야당의
살았던
금융감독
국선변호
원만
무면허
128
한국과
송파
탄소
생기게
종교적
영토를
no
피씨
샌드
놓는
운동은
입증할
1부
##지니아
뭐든
맨체스터
기다리는
유나이티드
2세는
##찜
##자문
힘으로
클라이
유럽에서
세워진
넘어갈
윤재
##스텔
장관은
##부담금
정귀호
##하였다거나
남기고
산악
불법행위를
작가의
##시절
##치와
##양수
열세
##넓
정당의
##ㅠㅠㅠ
쌍방
영어를
버스를
천체
##세법시행령
##비히
##너지
때까지는
동인
표시된
들어오고
많다는
인정과
받았어요
연결된
수긍하기
낳고
world
비중이
처인
크다고
빠지는
##own
wwe
에버
당나라
영장을
##광고
가격은
스케줄
##65
##한의
마스크
거쳐야
지각
서경
부탁드릴게요
##공정
취향
언어를
워크
여자를
일본으로
벌인
등급이
토지거래
베타
##폭력
2개월
이쪽으로
구호
같다면
관해
##터와
도로로
최저임금
수동
조립
30경
##뉴스
현존하는
위원이
넘기
연구하는
들어가요
중심의
전국적으로
명단에
제29
표정
홍성
어어어
배수
제3호에
##즈에
압력을
드래프트
추인
수입이
같거든요
서대문
최태
생각하세요
산정에
일본에서는
엄마도
220
변제할
형사고소
##일과
파키스탄
실용신
개업
산에
대표와
2호
미시
##오리
동래
작아
##판으로
이유도
먹는데
결혼한
수행한
임야를
판문점
김순
배기
권력이
행동이
##보통
영역을
##까지를
##은행은
한데요
비영리
캬
휘발
약혼
먹으면서
##호에게
차액
기본적
그랜드
학업
목조
##족은
한번도
길고
좋겠는데
외국에
빚을
조선민주주의인민공화국의
##하였습니다
##코리아
액수
너를
설명해
##왕후
##ᆺ값
##딴
기밀
박보
심사를
하셔도
임의경매
본토
사대
##소송대리
삼십오
##디를
필요하다는
싶네요
병을
헤어지
채무에
출연한
플로리다
수당
없구요
들지
감축
적용한
소중
##형태
활동하는
##상표법
실패한
법정에
학생은
비교해
줘요
근본적으로
5천
예의
일정을
육천
길이가
수평
동치
##olog
문화의
관여한
뭐하는
영동
제42조
그리스의
끝났다
피해자와
벗겨
이호
##부르
운수
##민주당
쇨
##겔
동법
파고
파면
눈물이
우선은
재량권을
##분석
사실관계가
연상
두드러
##외선
장거리
##강도
148
가슴에
##레인
144
비즈니스
##ᆻ니
##할까요
프로그램의
낳은
숨을
유태
방화
##반응
들어있는
기초한
##ᆻ었다
경우엔
사람인
버티
##놓을
블라디
mon
형님이
104
사령관
부위
규율
이천십오
이천십팔
##서에는
##소스
그래두
시작하겠습니다
기업에
이임수
사업주
배우자
채권양도
7월에
어머나
##제작
##대고
바위
##건가
배서
있었지
웹사이트
국외
##범위를
##주의자
공격하는
이주대책
제수
부통령
##성한
할수
아이티
##했고요
대구광역시
##산군
사람입니다
밥도
뭐냐하면
##ᆷ도
이긴
가정을
##우라
로렌
폭격
맡게
##펄
##ᆺ으로
138
127
##손실
조합은
##성에서
드네요
자격으로
바이올린
모릅니다
징역형
상호작용
위임에
돌아오겠습니다
근로기준법
않으나
강우
메세
기초하여
##곡은
이따가
##한을
본형에
18세기
예쁘게
##이스
우익
외로
북한과
아트
오메
불러일으
주소를
보석
##상실
살았다
뺀
1931년
물리적
요코하마
john
햄버
고집
진동
버릴
바뀌고
##au
미국에서는
묻고
##ier
유익
불행
야스
품고
주주총회
폭력행위
all
디엔
설치하여
아내는
가사를
본명은
##억원
동일본
여론조사
최소한의
so
알아보겠습니다
망인은
조언을
아니하였고
중과
##감면
편을
이곳은
저두
000명이다
디즈니
##에이치
했어야
버섯
500원
플랜
##신경
##설치
10여
열었다
식재
##시설에
멸치
도쿄도
공직선거법
동성애
##노조
##범죄의
없어도
전보
##디의
부과하는
업무의
##ust
대상에
나리
디젤
팔천
##대상인
##신다
종북
팀장
부과처분은
인명
분입니다
더하여
제25조
줄일
증거들
무효의
두세
손님이
면직
자유로
퇴임
취지2
그런가요
계엄
##연하게
장점
성공적인
적고
지정한
대거
오셨어요
##통에
크기는
##소수
##색은
웰
되다
말하지
##할만한
장소가
북핵
긍정적으로
그렇다면은
루마니아
전부에
사실심
언더
오징어
가야지
기왕
등으로부터
국한
분인데
회사에게
변경에
할당
청구원
슬픈
이적하였다
주체가
##힌다
표창
누리
방법도
안대희
해를
죽자
괜찮다
1925년
슬퍼
##트라고
##민은
##청년
급한
계좌에
어쩌다
##ᆺ갈
지질
##주차
적재
##라면서
부풀
소원
##공간
출연했다
수행할
나항
합치
뒤인
백인
##있어서
##정보를
화이팅
1시간
했단
사업자가
141
부당하다는
뽑는
보기엔
모니터
계쟁
져야
그다지
제자
##하시어
포함되었다
주석
오케스트라
pd
##들여
생생
##처의
늘어난
이어질
증권거래
일들을
관통
##두가
외부에
근로자에게
블랙홀
거처럼
공과
##등으로
소유로
찾아야
넓게
이유없으므로
단일화
##운송사업
알리는
도시정비법
제기하지
친일반
미쳤다
##준은
##연구원
복용
흐름을
어긋나는
##ᆸ은
제대
음란
##며는
정도까지
발생하였다
성립할
희망하는
##트레
##장군
입체
국민에게
##ca
공권
##님께
종중의
나눠서
속하지
맛있다
구조로
이부
그쪽으로
같으나
당근
무척
피해자들이
##ance
탄도
케이스
에너지가
##것같
##들한테는
##son
일본군
하사
##분과
동국
하였으므로
##노는
직선
대마
##뿔
비잔
선이
간식
힘들어요
소재로
##ost
##꿀
##한이
따라가
편리
공동정
##브러
##결과를
무리가
입각
테레
남자친구
환경에
##ung
맛도
통칭
용이
##ction
마스
활동한
##대학원
di
##뎌
로비
##강제
풍속
오리지널
기쁨
서브
힘내
더러
회색
최병
000명
진행합니다
이거에
확인의
카자
##행위로서
##불교
크기의
codice
당국
은닉
제28조
논지가
레이다
의도적으로
4번
ser
보류
##상공
추대
그럴까
말씀드렸지만
묶어
##00만
수사기관이
ㅋㅋㅋㅋㅋㅋㅋㅋㅋㅋㅋㅋㅋㅋ
배만운
쥬
인건
부분들
천사
소식입니다
럭
있군요
정한다
도사
도시는
오늘이
설치하고
미사일을
##비시
오늘부터
##했었는데
질서
표시를
위생
현대의
리그에서
##old
오바마
##할인
참가하여
대에
이십년
이의신청
##정당
그럽니다
##스트가
뜻이다
날라
##순은
##ᆻ는바
##커스
포기한
조치에
일할
굵
오디션
중이
##십쇼
충격이
##쓰는
임대차계약을
동아일보
경사
메트로
혼동을
빠질
아세
##오와
이런거
해당할
기록하고
제목을
428
시원하게
대표이사인
##ml
##루미
대상인
늘어나고
fl
원짜리
얘기하는데
라며
1922년
결의에
론그러므로
관해서는
소나
배타
미국인
이유없어
1일부터
시시
##ᆨ이라는
##질서
먹었는데
인물을
꽁
김신
사용해
##되었기
내려오
##사고를
##대교
1921년
깨끗하게
부드러운
인가를
서북
물적
직계
규정하여
이루어져야
들어보시겠습니다
쇰
##쁠
번주
위원장은
프레임
다큐멘터리
있지는
예상이
갈비
슬픔
탐험
노역
남게
억울한
좋아하는데
1929년
들어보면
스펙트럼
거가
송달된
익스
유니버
임무에
무거워서
##회장
국적
실명
변수
##버릴
병력을
적법히
소속된
준결승
취득하여
나이트
맛집
값이
소유권이전등기절차를
##pr
수수한
동참
오후에
항변을
에미
인정되나
분양계약
sou
불꽃
1923년
계획에
##ula
시는
##액과
민영
리드
##베르트
표현의
정신과
계십니까
챙기
##업무용
불매
정의를
의논
교장
망가
과학기술
거둔
##친구가
바라겠습니다
데이터베이
##프란시스코
아레
##밥을
1월에
목적과
시대에는
본문에
건축법
빅토리아
cor
약탈
박명
##량으로
없었기
아름답
당할
할부
##타리
보아도
느껴지는
##업무에
뻥
시흥
요걸
##대상에서
어트
사람들과
##범을
엔엘
타이밍
거기에는
도로가
##거가
간혹
모르는데
윤영철
좌절
##해진다
##암이
불허
##퇴근
액체
##요시
##스란
연락주세요
되돌아
우루
보험급여
부본
정권의
설문
##ᆻ는지를
거부한
금지하고
느껴지
전반에
##무는
지방을
이왕
##사정
계단
역설
월세
향을
자료는
임차인이
ip
쏙
분만
##기록을
##학자이다
두번째
109
머리카
했었거든요
##공무원법
8강
오면서
여자는
142
것이라고는
팀장님
간접적으로
랭킹
이방
##니에
##기금
자손
좋았던
하더라구요
왓
송부
돌아가신
주니어
육십오
하우
##품으로
117
난이
안희정
예탁
##려면은
규명
경기장
##륵
##학적으로
남동생
사람이에요
어머니의
칼럼
정찰
판정을
국장
대한항공
법칙을
항일
항공사
다쳐
입구
돌연
개인적
생각해보면
낚시
##시면서
수렴
다른데
권장
##협력
000원은
갱년
##할수
찍어서
2는
pa
시바
##대기
사이에서는
##청구권이
태종
마드리드
##드래
##년의
##근데
코파
누구한테
##프라이
##전부터
빌려준
실지거래가
뾰
제후
##테스
10개
군은
면도
동맹을
취미
취재를
물은
제27조
절단
소득금액
팬들이
명성
막말
제32조
모르니까
첫날
판시하고
##산업의
##위반의
걷는
##인들과
아니함으로써
그렇네요
파일을
언젠가
심리판단
##ose
영구오일
이어진
##회와
선정한
돌아왔다
##캠
재심대상
한겨레
공동불법
뭐해
손금
회사로부터
해주시면
김능
107
연구원
재미가
##시경
인형
재차
##팀을
군사를
당연하죠
괜찮습니다
가져야
##촉진법
2천
수질
에디
##하길
모두를
##법위반의
##시잖아요
칙
최윤
못한다고
회사로
제공을
##소개
실수를
손혜원
체력
근로자에
##널드
kg
책으로
갈리
토지구획정리
살펴보겠습니다
임대주택
고마워요
매수인이
불문하고
있으시면
산타
비판하는
잘한다
파헤
2위
##츄
윙
비업무용
##노총
##버스터
컷
##총회에서
언제부터
요건이
간호사
하기는
하시죠
협박을
낙선
걱정하지
미안하다
졸라
##유산
아버지와
쟁점이
소지가
캠피
차용금
헌법재판소
내놓고
불특정
분명하므로
추산으로
조금이라도
##했네
요미
드문
제한된
레이저
op
다툴
##버렸다
헤어
건설업
말아요
호응
상대가
징계의
닮은
링크
##시고요
어휴
지형
##글라
연결되는
다이묘
원심판단은
##43
소관
출혈
맞아서
##토미
##웰
전유
너의
인정근거
박찬
코로나
목적의
오일팔
비자
했나
##ᆻ는지는
##ank
하여간
##다니는
재단법인
구한
모은
들었던
들으시
##권이전등
##꼽
공유수면
##상승
들으니까
김세
별론으로
줘서
수직
단선
영향력이
발표가
즐거
##책임은
않거나
구성된다
샌프란시스코
gre
정전
없나
발렌
알어
누구야
휴대전화
담배를
##나르
수준을
천경송
소모
입회
출마를
이문
소송에
요건에
이천십육년
상사
남측
##출원
합쳐서
메탈
등록이
명성을
제29조
##주의와
제목의
##인들에
옴
##보면은
게이트
잠정
떼어
독자적으로
2가
##나리
별개로
##기관인
컬러
김중
##티미터
나오죠
어디까지나
왕자
왕복
축조
맞춤
행하여진
##뛰
위기가
경력이
성질이
씬
기준시가
좋겠다는
1926년
지게
기뻐
나오잖아요
음반이다
나열
조수
##급금
라운드
변경하여
설치하는
##드르
##면과
##동욱
고개를
친구들은
사십오
나을
전선
않으
##진행
##방은
포유
##격에
면적이
시선
##민련
##령으로
물질을
데스크
##남용
필요에
병원으로
공천을
호박
칠천
판타지
않기로
김관
김양
##감으로
시모
반입
스웨덴의
##ᆻ자
당기
불고
##역과
##퉁
튀어나
헬스
피심판청구
모노
같애서
개발에
근거한
즐겁게
##for
##이면서
##장한
전형을
중요하지만
##인바
허벅
##책으로
##67
정도이다
##녀를
##죄와
히데
이천십칠
저렴한
조계
본선에
##인이라는
##앨
##남의
줄이고
신청할
잃게
들어오면
용역의
##cd
이식
회고
이상훈
육체
##드리아
황제의
혼동
##위원장이
영업비밀
fre
사기의
의정
소고기
신년
귀한
흔한
깡
##어업
없네요
성종
증후
가입한
콘스탄티노
##펑
##거예요
송영
결정하고
137
싸게
도로에
휠
프로그램은
알렉산더
거긴
그렇잖아요
분명하게
상징하는
본문
오프닝
결의가
금메달
##질변경
진술의
제조업
커뮤니티
이관
보고서를
부적절한
가산세
gu
좋지만
항만
국유재산
종로구
조항에
에릭
남아메리카
엉뚱
대를
여하
세상에서
업그레이
##필드
비빔
##산동
체계를
##살레
클릭
참여하고
팀에
재항고를
상처가
##재정
황후
마이너
통하는
나가요
까다
둘레
입장에서도
측면도
##대지
5개의
##배추
상고이유보충
라이온
소송비용의
쭈
##ile
##증과
윤치
전화번호
건설교통
이것에
명시적으로
팽창
자수
중입니다
국경을
조정을
양형의
방송된
노래도
다녀와
바른미래당
전지
최성
##포가
말고도
이돈희
##유치
제33조
##주의는
증거능력이
들어갑니다
##할게
금원에
경위와
준우승
이루어진다
##퍼센트
야당에
##되어서
국가정보
##co
스폰
밑으로
인생에
육이
그때가
글씨
돌아오는
##쾌한
보니깐
경전
##분들은
사정들을
##아버지
있겠
맵
적용된다
chr
비공식
거리는
마블
##주민
##약정을
행복하게
일각에서는
제곱
정화
설비
사용에
##중이던
고의로
인정이
봉쇄
고르
##항이
치열한
이사가
피에
국군
개개
실린
토벌
터잡아
축적
그들에게
성립을
보호하는
상황이기
올라가서
알코올
레코드
시야
보름
##맛을
표현은
##상태를
김덕주
4의
제휴
해달라
일응
이야기할
제출하고
세자
ㅠㅠㅠㅠㅠ
##드라마
나폴리
고도의
비춰
임금이
상황이고
폭이
대위하여
일러
소실
지역과
삶이
단계에
묻혀
소급하여
##ve
보다가
정밀
##방식
어머니를
단체의
##채무가
세리에
##백이
낭만
원심판시
카지노
##하여도
안이
양수한
후쿠시마
자발적으로
삼겹살
##발의
싸우고
초래할
##쏘
내연
김제
지급받을
광산
결정하여야
조합에
여태까지
##서비스를
보거든요
의원과
선거는
그룹의
편안하게
##류로
##열은
##검증
아프가니
3분의
가겠습니다
본인에게
##외과
가능하고
선수의
작품에
오렌지
내기
##공고
잡아서
위치가
울고
근무한
떠오르는
어드
피고회사
통일을
맞다고
##트럴
언어로
뭔가요
사정으로
컨셉
얘네
얘기까지
##섬유
주저
자산을
양해
제2호의
담보하기
흥행
미만의
118
움직임이
1927년
불륜
자기들
썼는데
서로가
업무와
낮추
##싹
1917년
컨설
##ᅪᆫ
##수단
##진한
거부하고
살펴본다
차분
##산입
소송수행
벨라
기준은
이천십오년
작가님
증명하는
2에
상공
이런데
김에
주장하여
173
에스엔에
시신을
장윤
##매출
계약은
그담에
도매
돌아올
##ign
3d
소용
공전
변경한
대전지방법원
사실인정
본원상표
##ᆻ었던
##고루
##실까요
안될
들어간다
일부의
불법행위에
가끔씩
오디오
배송
다음에는
126
극우
주의의무를
타이틀을
의장이
증인이
##승계
내보
러시
검색어
사로잡
보셨어요
미결
불신
4억
오디
증거도
만났다
휴업
사모님
추구하는
##시네
헤어져
조사에서
연결한
2년간
##부산저축은행
툴
##ium
일률
서성
군을
맺었다
##100
났다
##회생
##무제
##육년
유니포
사년
지장
있다거나
간편
네네네네
데려다
캄보
수험생
것만으로는
통영
##살피
감옥에
신조
와다
외출
##션이
이십만
발표되었다
아내의
2대
htt
정형
설명하고
끼어
퇴직금을
##dr
##모니
직업을
올리브
원판결이
누구든지
맛있겠다
나쁘지
뤼
산지
##펙
낮춰
거부하는
per
##것을
에에
김유
##기엔
##불이
키우고
올라간
특징은
조항을
##경기에서
##약정에
산정의
중국어
방문한
유키
규슈
박태
##강이
접대
##칭을
웃고
##것으로
천구백칠십
최후
그때까지
협력을
윤상
결혼할
##유통
번이
민주당은
예산이
민간인
제공할
이룬
간을
건강이
오토바이
배석
남쪽에
발생하게
##회의를
##적이며
취직
람
센치
민사상
문자메
묻지
아니구
최선의
##댁
##능한
박진
언론의
생산하는
아침부터
하수
##천이
##강점
일본과
벌어
정상화
부과할
데뷔를
기관에
무렵에
아프가니스탄
페루
대도시
나에
##집은
말씀해주
뭐를
무작
환수
빠지게
생각입니다
행정청이
기간의
전매
고의가
만들어내
##회로
무죄로
##겠다라는
위원회가
변론에
##리라는
추세
추정이
##운의
본사
살림
해결하는
전대
전통적으로
fm
111
그것과
사업장
##소송에서
항소취지
뚫고
최일구
2명
##데이트
첫번째
행정청의
##잡이
일어난다
##42
대주
##lan
마이너스
##중심
들어가기
운동의
진술기재1
##pg
17세기
습격
하버드
##자들로부터
계좌를
채용한
기자회견을
정주
안다
안하고
피고로서는
단식
달의
##평이
아르메
비슷하다
##여부를
화의
##교회의
양념을
돌아서
15년
##비행
영감을
##다고요
배우가
급성
바꾸어
거보다
하에서
우발
지금처럼
특약
간략
드라마이다
정제
내란
출현
박기
만나러
변경할
워낙에
cent
와인
합한
부담하도록
##이었을
구간이
er
박쥐
상대방에
mv
후진
중앙에
방문하여
모델을
지키기
##소서
생계
연차
##례에
체결할
정황이
백팔십
##참여
나타나지
발매한
시로
상표가
##과정에
##병은
편한
벌금을
143
1세의
##항고
함께하는
원심판결이
했다면
소속되어
일자리를
##겨서
방언
명품
겨냥
##략을
매도한
트럼프가
주관적
피고인으로부터
열다섯
도시가
펠리
하자보수
##트르
주상
##특허
평가하는
살펴보아도
완제일까지는
##뱅크
지번
##제르
때나
인정에
당시는
후반에
공감을
집착
##했구요
시절부터
##트류
모듀
받으시
창간
##ina
음악가
조건에
홈페이지에
하차
빠지고
제55조
품격
누르고
##플라
쇠퇴
본안전
이후로는
종합해
둘은
지정하여
출연을
##앞에
내륙
의사는
녀석
인도를
##보유
##분류
김도
봤는데요
관계자
나가지
돌아와서
참가하였다
##라이터
정기적으로
불공정
그쪽에
공의
국회를
##켓을
잠시만
##ᆽ고
지수
변리사
맞는데
토너
문제입니다
해보니까
여론을
##으려는
아나운서가
비법
책의
음반은
쇱
필승은
덧붙여
셋이
못해요
직원의
하셨던
##클라
래퍼
정현
포매
리메이
##수수료
일행
그렇긴
눈빛
길러
좌익
웃는
겁나
신원보증
4차
분과
것에서
세대가
메디
넘은
안녕히
밝히지
약속어음을
##도니아
들어가지
홍문
##페르
친일반민족행위
##영과
독일에서
설명하는
쥐고
첨부하여
어울리는
##겸피상고인
##멀
내정
배후
물고기
가지의
위김
##치면서
감성
규제를
것으로는
경찰서에
제5호증
놓으면
##새끼
드릴까요
철저한
전하는
잘한
쪼개
##해보겠습니다
intern
##시구요
조화
##계에서는
사실로
회식
얘기하지
인정범위
속은
##균이
칼슈
김철
##곡으로
##ms
비엔
템
건축허가를
그리스도
김능환
정이
원심결정
싸이
수강
##양군
돌출
이천십이년
실시하는
섭외
##6호로
호프
##느니
나란히
##펌
##피스
청탁을
##토는
징계를
2세의
##yl
##수준
프랑스는
부정경쟁
들어보니까
재량권의
시게
없습니까
우호
##바키아
문제들이
제39조
독도
복권
곤란한
##드리도록
담보를
##트라는
문화재자료
전제가
##조각
##준다고
시간과
토마스
##협정
싱어송
제명
지금이라도
장편
##설계
##규정의
##크스
용역을
연결해서
외국에서
소득에
사상을
사소한
자회사
##군사
학부
총재
지었다
##적일
당직
지바
두께
국민들한테
중기
역의
북쪽에
걸어가
잡아야
국이
##농지
사장님이
##았습니다
예언
스타디움
##여래
##프와
워너
이글
정함이
전자기
인정되어
##주의가
존재할
궁금해요
냉각
촬영을
부적법하다고
리어
윤종
받도록
타원
대하여원심은
##시켰고
엔진을
종업원
일이죠
페스티벌
데뷔했다
가리켜
드려야
##빌리
들어도
양호
공개되었다
원칙으로
##up
정사
신분을
통보를
채권은
잔대금
가리지
##oph
산출한
지도를
##차게
당시에도
빈곤
##나가와
오천만
내주
영리
##북도의
표현할
기업들이
1907년
거하고
##령은
시작하면서
제53조
##총을
직무상
저거는
목표는
계열사
금호
##금지의
그랬다
입으로
설치를
침투
생활이
##블로
1908년
지름
##룽
만들었
2월에
확보하기
now
자유의
아니예요
##전력
뿐이지
아들이다
아인슈타
이만큼
저하고
포토
학위
가능하며
국가로
휴가를
국제적인
바꿔서
일제강점
납세고지
##살피건대
유영
정보는
배고파
##삐
##피는
한국방송
계속되고
가지고는
영국과
혹시라도
거부할
소멸시효가
##협의회
##기반
##내가
방순
##증권을
박은
##애나
이사로
밝혀지지
상고인겸피상고인
##내용이
경상도
무관하게
gen
##기분
리누
##초의
죽인
채권압류
생각했다
별명이
국민은행
증거기록
행정관
유지하기
1912년
구형
중산
말한다고
문명
못했습니다
##설에
지급받아
절취
난리가
가깝
잠수함
part
##나지
으로서
누구냐
화물자동차
에스엔에스에
##임대차
##요지
음원
##ᆷ이라는
곕
##집합
##자로서는
시달리
설레
삼았다
##없고
이슈를
근처에서
건너가
햇빛
해협
정준
##겼다
외면
속을
별의
##봤는데요
쌈
되겠어요
수록되어
##으셔도
발족
알았다고
퍼포
대출이
따르지
##계획이
기인
입문
res
미얀
문이
문제인
범주
언급한
보르
경위에
열이
애비
##fc
야외
서독
보여지고
없이는
샘플
##공여
노동당
악기
일어나지
소장부본
제2회
##위치
판단에는
사이드
신성택
스릴러
지창
위태
##화되었다
않고요
도지사
강사
모르겠
비율은
가미
차이로
덮어
##리학
위촉
와야
방면
10분
수록된
##골이
해달라고
몸은
칩
##환에
##초가
제8호증의
포인트가
승용차를
이조
##라며
주름
##비서
진작
##독한
경제에
기용
그래갖고
무신
콧
병력
갈래
추가적으로
맺은
서울형사지방법원
더워
일본국
코트
##이유에
사기꾼
이것저
##광역시의
##한성
대남
괄
연립
생각됩니다
현대자동차
##지붕
주셨는데
기요
진행될
해결해
##롤라
기저
출제
상황에서는
몰랐어요
도와주는
##릿
##와도
오르는
소금을
##근은
##봐도
아버님이
##리안
지어진
대인
##음의
김우
입맛
빠져나가
str
선생님들이
처리할
귀속재산
##웃겨
gl
##저런
경우들이
투약
##1의
배틀
변호사는
보험계약의
bbc
with
기명
모방
##희에게
대회는
물품의
##가능한
상에
##당하는
환상
아버지인
염증
투쟁을
전하고
합작
##눌
##빤
##원군
##권에서
김보
겸임
건물로
가족들
시장은
일보
선형
해마다
담임
비만
않잖아요
먹자
됐거든요
전략이
입수
표본
리이다
##되었는
##섭의
인식할
부여하는
진실한
임대차보증금
박시환
가사가
공증
유물
요로케
공갈
##영수
바람을
210
끔찍한
##서만
##나카
상향
서재
집도
민족의
찾아가서
마쓰다
애플리케이션
##용역
내놓은
현미
했다라는
올라온
1905년
떠오르
부적법한
씨씨티비
세무서
판결문
##oth
주년
원하지
구도
회장을
역사의
시각이
##그룹의
##79
했습니까
##즈와
줄이는
육일
행정심판
여성은
##옥의
국내외
##ᅪᆼ
서남
연인
##생으로
산이
##쪽에서
줄은
##창호
폐지되었다
김지형
있는데도
##기관으로
털이
##59
좋아해서
발견되지
바닷
종합소득세
##지기도
방문을
##했었던
##크와
달라지는
삶은
1906년
영역에
특허청구
수련
핏
##경정
때문이
##혁이
행위라고
칠백
띄는
제기가
그룹이
음반을
확보를
느낌으로
상용
1900년
입이
줄게
##봉이
침대
잭슨
조선총독부
자국
연안
종국
공부하는
섞여
##주자
여배우
버지니아
메타
##벳
거기까지
시행하는
중요한데
숟
아틀
아니잖아
제48조
##찬을
##시설이
대리인
구조의
이거예요
데에는
착륙
고소한
옮겼다
##요구를
##진으로
골고루
어려워요
연세대학교
아비
구일
공문서
치뤄
직결
워터
레스토
시절에는
불리며
##피에
##달아
찔러
공짜
##피탈
##징역
윤일영
근무하던
##ult
##크레
저와
##오니
형식이
대학은
의결을
셀프
영위하는
이어졌다
금원의
암흑
오키나와
##조판서
지극
마루
뭐니
하였습니다
처벌에
##수계
모친
내로
재현
시작하고
##측에
풀고
1군
통상적으로
승낙을
##문자
재능
후일
외화
백분
띄워
##면허를
kn
구해
##건물을
1년에
공간에
석명
실리
##처로
먹구
의견도
차지한다
중종
피고로
##심에서
재료를
최후의
##복의
마음도
ste
사무실에
개념으로
광화문
##하십시오
상당액을
후보자의
도시락
우리나
##훈을
희극
pro
공화당
이전인
보시면은
아부
##무네
세계가
아르바이트
멸실
##les
참사
구분하여
세월이
##올림픽
엔엘엘
적극적
부인을
대한제국
확인한다
이천십사
신주인
급히
##ata
슬프
급여를
스피드
동시이행
##ᆨ의
어저께
주겠다
입자
집주
사이클
성립된
dj
##나도
강조하는
이철
에리
더이상
사용하게
서일본
주택에
웬만
이것저것
그러더라고요
신영철
헬리
제1심의
강제집행을
##ᆻ는데도
기각하며
##이었거든요
선정당사자
통틀어
##전형
없는바
감정인
깨끗한
##시는데
##적한
피렌
미소
##사업이
풍경
차지하였다
피보험자가
##속이
##춤
##론가
외교부
직무집행
떠올리
재편
교정
변동이
##설비
발생하였다고
팔백
왕으로
1961
지지층
기여를
##라비아
##들께서
경로
좀더
면을
향년
감독님
남아있다
이천십칠년
페이지
650
선관
만세
찾아온
등록세
양국
보이지만
불가능하게
##훼
##류와
뿐이므로
몸길이
활용할
거기를
고거
5000
##타카
보여지는
빅데이
부회장
##디자인
됐기
##소송에
노래로
소유권보존등기를
닌텐
수치가
15일에
경찰청
스스로를
##민당
##스트는
그리는
상실한
뛰어넘
##망에
지원한다
뛰는
쉽지가
거ᄂ
거겠죠
부흥
##소재
점성
용기를
sf
버는
소설가
가을에
##제4
싸울
섬식
유학을
동인의
국가유공
개인에
쿠폰
화면으로
낮에
안정적인
꺾고
제325조
nhk
강대
카드로
인간은
잃어버린
자금이
부평
공채
감추
황당한
리그의
검토를
맘대로
##기야
되신
신청인이
브라이언
소통을
##사령부
전부가
추격
강아
결승전에서
움직여
일과
됐지
광범위한
돈에
보이는데요
예술가
대여금반환
위임을
##질로
북구
name7
우정
##질서를
이야길
재산세
##숙한
운전자가
포괄적으로
주제는
의도를
점수가
필요성
##엄마
마련한
업무상배
웬일이
주한미
##가단
##염을
##체제
##질서에
직위
동의가
허용되는
3년간
부가가치세를
구간은
des
교수를
무렵부터
##셨어
제왕
기습
##올로
강구
교육부
재미있게
분양대금
떨어져서
정인
형식의
280
##하자마자
다르죠
브라질의
있음에
고찰
병원이
ind
아이들의
##봤어요
##알아
김영철
내세운
경위가
성명을
실정
피고인박
낮게
##감호청구
모호
##연수
됐고요
갈까
창건
대법원의
플레
운전자
특성상
이면
하부
말자
##차도
태권도
선거운동을
퇴원
임대료
선물로
2번째
##2의
할게
주장하며
채증법칙에
정답은
##아나
##우와
말리
최정
##즈키
지방에서
이천십사년
솔직하게
홍순엽
컨트롤
일정이
공략
##규는
영국에
fe
붓
볼까
총을
##좌상
엠씨
기소된
세금계산서
마땅히
자세를
##화하여
들었어
본명
군대에
소유자의
##손이
230
##하셨던
부모의
실시하고
will
하필
무대를
참여하여
행정구역이다
320
정직
##행으로
안정을
군대는
담에
살해한
마실
##호쿠
##내셔널
113
않았으나
미안해요
##목은
천정
##드리면
아빠는
전수안
9년
##라던가
시그
##위험
고래
때문이었다
인정받아
책에서
체결하면서
흘려
나보다
구동
##진에게
##공탁
문제점이
협상이
형성되어
이이
반전
복직
아주머니
맡기
3만
##ᆻ군요
하트
전이
##운이
하는바
논란에
하겠지만
그랑
제40조
어제도
6개의
##장이나
원자로
유머
퇴사
시스템은
##제1심
탓에
##텀
##실과
처녀
살필
##att
##9조에
어휘
해서는
##익의
희귀
구조는
파이팅
안아
##히지
열을
애들도
##냐면요
콘크리트
방향이
앓고
외곽
체비
프랑스에서
##금액은
내세우는
마라톤
##가격이
같죠
소수의
간담
##코가
준다는
##이었는데요
연속으로
##일드
서둘러
흔적
빈번
해보겠습니다
제도는
자궁
##영에
##광욱
좋아하시는
공무집행
##묘한
특수관계
ce
##다의
맛은
만이
##통의
변조
타인을
친선
환율
단순하게
반응은
원천징수
##주에게
학대
제45
많았습니다
단계로
다운로드
넷째
나이는
##상사
비준
##새가
소득을
진지하게
##천을
해당된다고
##봉의
앨런
퍼포먼
듬
것두
인성
신은
부분적으로
헷갈리
주민들
관할하는
##수요
차임
배에
##발로
맞춘
귀를
주민의
제목은
사탕
보도에
앞선
국민들에
정보공개
작업에
빨간색
1항
주당
##건지
얘기입니다
대하여만
전쟁은
근저당권설정등기를
사시는
햄
오라고
있다할
##술이
범위에서
생기지
하노이
##조리
신하
##타워
##카미
##에서는요
##ale
원에서
##교부
통진
##말에
한국당이
레전
좋을까요
일찍이
##론과
톨
##루살레
불법영
##그런
nt
인연
남자를
##번지
##벌이
테오
민주당의
##시리즈
오겠습니다
우물
않자
직면
제출을
구입한
가담한
마트
알리고
후단에
게리
현급
##카스
##놓으면
##신청이
파산관
금강산
##지휘
거제
거구나
제35조
폭넓
정보에
똑바로
산정하여야
이메일
##자라
##자이자
상류
분데
##내면
필요해
해당된다
그랬지
아포
##운용
다음이
쓰이고
학생들에게
암시
가깝게
됨으로써
구의
##메르
있던데
환경에서
전해진다
개연성이
##어른
넹
예치
양극
운명
브라우
물건이
##수아
남매
##테일
집계
센트럴
꼼꼼하게
문희
평양에
인과관계가
##ᆷ에서
##ls
이혜
##였는데요
문정
사람으로서
나왔다고
##ann
실질적으로는
환경영향
견인
로스앤젤레스
##ᆫ은
되요
추궁
회의가
##모집
재산적
바다에
실용신안
업데이트
##amp
정보의
##oss
추천해
정상에
입혀
##프에
소유한
춥
왔다는
제1호는
장로
약식
민속
귀환
테니스
##스테이션
움직임을
지위에서
소송총비용은
##스레
이동을
필요성을
차량은
sw
##쓴
봄에
해적
##마일
치우
##킷
데로
변경하였다
경험칙에
마을에
안타깝
빅뱅
수주
마비
##타나
##통제
얘기만
삼는
##규명
최고에
주식이
위가
121
##올려
불구속
모색
뜻의
보증보험
공판조서
기생충
550
중학생
취하는
돌입
##해야죠
지방이
뛰어들
비정규직
가시는
##신한
##핏
증인으로
선고받아
웃음
##러가
성은
형편
책도
##충당
의사나
걷어
지부
##바야
방탄소년
kore
129
지나친
이천십이
흡연
대책이
##슬라비아
##진다고
지내는
뱅
##ᆺ집
정계
상피고인
간다는
전세계
엿볼
##상해
얘기로
천구백육십
은퇴한
해피
자바
인원이
본안에
##처리를
평온
판단의
업종
재판의
학교는
찾아보
1세는
##받아야
코코
엄마를
글리
제기하고
##결한
##듣
##출혈
됐으니까
떠날
위원장의
260
지인
##댄
구급
비오
##돼요
죄로
찾아오
##숙은
주입
차트에서
사망하고
##휴가
올라가고
계열의
베네치아
조장
번호를
발생했다
도망가
첨부된
시인이
근속
성주
123
수사관
해주신
불안한
바티
개선을
날로
청구한
제출할
소송대리인은
떠올라
##ke
사돈
말대로
들었을
썼던
##주시고요
지키지
항변은
김부선
원가
소식은
##었고요
##박사
공시송달
만만치
샹
쩜
##의사
믹
한다든지
리투아
##돌프
섞어서
신의칙에
##8호로
오죽
##증서를
시작하면
확인서
##사업으로
해외에
귀여워
가정에서
미투
##때로
뒤에도
dis
차남
##로서도
주식에
구속이
법정에서의
피어
원고로
당대
상태이다
우선적으로
##쉐
##고단
##분도
비어
계파
국가와
언급이
특검이
그랬습니다
배열
파인
릴
명의수탁
샤워
인생의
분데스리
우즈
발각
김만
한다라고
리비아
포함해
뉴턴
딸인
3000
깔려
형식적으로
과세관청이
림
##주시는
고려대학교
있게끔
불과하다고
방순원
rec
##아에
나게
##식물
평균임
김기춘
있더라고
##리도
##라면은
정몽
협조를
##int
##셨군요
사망을
비롯된
옵니다
판사가
순식
처벌하는
의심할
마쳐진
어트게
사적인
관중
한다면은
정치의
레이블
과세표준과
시뮬
##저나
##하시네요
1904년
##me
대명
보십시오
사무장이
끼워
깎아
한시
미혼
참고인
##프스
던지는
않겠다는
##팩트
말씀하셨지만
지폐
##과로
후한
설명의
컴퓨터를
버텨
찾아뵙겠습니다
지장을
공장에서
피고회사의
말라는
재물을
처한
종래의
114
쓰인
##지역으로
플레이어
느낌도
직업이
미루어
##무지
사건도
동독
정치인들이
혼란을
##였지
##방지법
사기죄에
허용하는
활발하게
입당
피상고인겸
##ood
바는
안해
김씨
##있었다
##산업개발
받아들이는
예루살레
노리
살다가
어려움
꿰
##열로
삼성이
##량과
관하여도
##측이
미래의
은퇴를
아드
야당은
양배추
드신
군인이
황당
스타크래프트
청와대는
사실인정은
5만
bar
##az
수성
나비
법안을
##영에게
##테니까
##티의
알아보고
급진
달라져
##채무에
##지열
##수인
##포스
항에서
발행된
기온은
걸어서
치료가
라틴어
##ool
지입
기병
일삼
법과
강호
생각하게
둘다
앞으로의
지적도
광주지방법원
새정치연합
##요일이
##내려
지급이
##플레
사실인정을
##○○
##리조
약이
##배의
##판결에
매매대금을
이재성
위배되는
한반도에
못하였고
##활동에
게임에
무효라는
납부할
그나
안병
장외
패스
겪는
의거하여
##법정에서
뭐든지
##급이
딸은
위배로
오는데
독촉
##장이라는
개최하여
징계해
활용을
빛의
기증
김두
##십자
각서
적의
원심결
박해
휴식
##ley
헌법상
쏠
아이디어를
나항윤
하하
상태는
남편과
획득하였다
##헐
##구금
마저
과시
일렉
상시
등이다
따지
규약
##팝
코믹
##7호
원판시
싱어송라이터
이북
기속
한진
인프라
선두
죽기
연구는
아쉬워
지창권
##어준
부존재
구애
##하곤
모형
##소리를
얘기했는데
##린은
재밌어
적절하게
로맨스
도난
##진아
회견
서울시가
녹화
##숍
미분
의석
남자들이
발견되는
자네가
엔터테인먼
현의
계속된
가르치는
고춧가루
1대
지을
##부족
##주구
앨범은
##틈
부시
열릴
캐릭터가
등기부등본
폼페이오
마신
##징계
극대
임야의
##stem
##끌
##64
아재
마찰
도장
방울
봐야죠
그래야지
노원
회원이
##노미야
로빈
사무실을
따뜻하게
말하였다
재심의
이정우
##항으로
최민
만들면
##어지게
부근에
330
##소인
##입금
##쪽으로는
듣게
보호하고
증상을
##줄이
음악에
전달하는
아저씨가
드라이브
아녜
공영
때로부터
말했습니다
반납
적용하는
자료도
세워져
각하한다
불분명
미뤄
사실혼
전해지고
우려를
##북을
남산
달리는
이야기한
돕는
그고
자기에
과의
이겁니다
있었구요
탓하는
해독
선도
행동에
중심지
##하셔도
##꼴
지켜보
확정판결의
아미노
불하
실력을
강이
양주
벌였다
뉴욕에서
하겠죠
##정하게
##원이다
소셜
이런저런
역과
##슬리
계신데
세금계산서를
르네상
그대
말기
##받아서
##청구권은
민주당에
전문가들이
이사의
##시기를
인위
범인
16강
기술의
진출을
태극기
허브
냉면
갤럭시
공존
##업법
국적을
로열
중요하고
정부로부터
동안은
과실을
성남시
##사옵니다
유죄를
만져
청구인
##채가
용도가
서로를
##기관을
1년간
과자
뿐더러
폭력을
##신도
포로
판단된다
국민연금
질투
진술하였다
서로의
인물이다
채용할
밝히는
##시픽
결승전
로스쿨
1천
##답게
##가치를
자작
##주었다
##세기의
비방
성향이
은혜
토머스
문제점을
##크에
왕립
나온다고
파악하고
보자면
밀라노
수박
토지등
자체적으로
생긴다
불응
박일
타운
전문적인
찍혀
영유
##평가를
밀집
##폭탄
기다릴
물건의
서쪽으로는
강점기
가족은
나아가서
옥수수
고등학교이다
노회
교구
청양
##완료
규모로
남쪽으로는
동남아시아
무거워
단서의
없는지
체제로
번째가
취소한
자치구
가급
시트
##사지
일회
형평
116
고소가
나나
자와
쉬워
선정자
##원숭이
곳도
남구
살리
##되었다면
졸업했다
궐
꿔
사기로
조정에
사람이야
one
불법영득의
조약을
##호이
알아볼
참가인이
아니다라고
##해져서
##라구요
조병
중에도
민망
##린이
행정소송법
제50
크리스토
##권자는
증인의
행사한
국정원이
배치되는
당선되었다
게시판
일생
##내어
124
커져
불리기도
##밑
서포
##품에
상황이라고
제6호증
분리되어
##썹
##신과
성당
포스터
외국환
가보고
시드니
밤이
않지
국무총리
되겠지만
##실록
정말요
순조
공소사실과
강제경매
부탁드리겠습니다
캠핑
mp
어음을
잣
부부의
계시죠
상태의
개발된
독일은
하늘을
##m이다
##엇
비하면
매개
종래
여기서는
##찬이
특별법
그분은
사연이
포인트를
##장으로서
연도
쉰
슬라이
가맹점
범죄로
9시
전원이
없음은
것임은
현금을
산을
누나가
뵙
##거절
##포로
##수엘라
무소속
주와
보일러
후순위
나이를
상품에
사오
노비
명세
대회이다
##소득세법
유고슬라비아
있니
어케
##유에
단계를
판결선고
타율
저희들은
제외하면
냐
모시
##명도
증기
의사와
격리
호랑이
##이다라는
토목
##범은
팔을
케이비에스
시스템의
공부하고
공소장변경
싣고
없음이
##공으로
사이로
공동의
근로계약
##하든
마른
회장의
얘기들을
12년
제45조
##츠가
몰락
##하셨는데
웃긴
송진훈
##했다라는
합하여
사이트에
정당하게
건축물을
배경이
동쪽으로는
지침
오류가
스님
무효가
##책임에
##사회의
기기
원전
고개
##네는
##토스
##됐어요
설치되었다
문화체육
270
유대인
상식적으로
ak
ass
##저스
아니하였다는
##황후
열정
계속되는
고려해
의약
카리
말이지
수행하고
땅이
해갖고
구하기
##으시는
형수
먹으니까
히데요
##스테르
##iki
앞장서
무궁
분실
##경험
필로
친구랑
이토
고베
알루미
부분인데
책정
보이게
##스트ᄅ
룩
##암동
가운데서
부적절
사광욱
유선
당에서
연기가
##교에
콩고
메시지가
획득했다
신기한
치안
사람만
검증을
##순환
북한에서는
기본으로
하십니까
평론가님
이남
사사
##보병
##세트
##방위
##배에
아이들에게
##럼비아
기재하고
##위원으로
많았던
액수가
산정할
컨테이너
깔아
최재호
신주인수
주에서
부작
앞둔
여성에
대회가
해외에서
열차는
주게
지금이
없었어
국가보안법
노태우
버르
국민은
업체가
추가되었다
char
이국
감이
가즈
동물의
순차로
해주면
##사유의
가던
치사
버무
제84
사정들
명백하고
분리하여
##마니
평면
키스
이하로
성추행
이점에
##국세
##맘
안파
매력이
##달이
다닌
대차
문과
##론적
호위
합창
000여
나오거든요
##되었는지
##값을
아껴
단말
##노가
##루션
외교관
##공시지가
##쯔
##전투
피해자인
벌이고
근무하고
말경
장비를
단종
걸음
드라마를
치명적인
발명은
배부
만났을
모습도
휩싸
##아와
직원을
심야
제외한다
얼굴은
논쟁이
권해드립니다
중한
후기의
중요할
손해액
길은
뇌졸
몸으로
손해배상책임의
부적법하다
줄어든
기체
##우옌
건이
##등처벌
부분들에
##온이
플러
형태는
더불어서
필라델
대담
##군데
정치는
##거래에
고맙다
##eth
##부장관은
자녀를
갇혀
양창수
맞네
시작되는
정리한
남용한
개성공단
환자를
##하시면서
어쩜
상당인과관계가
ng
있겠지
##인터
질서를
##보증보험
대전광역시
쓰러져
고현철
무라
언론을
답답한
##아들
수산업
자식을
다중
살지
잘못은
일이에요
아야
##호은
먹었어요
싶기도
##성이라는
아닌가라는
전투가
유리하게
항소이유에
등기부상
일이고
뭘로
차도
건평
권리는
쓰는데
132
눈치를
##곡동
어쨌거나
고추장
엘리자베스
##보호의
업적을
어제는
밥은
광주광역시
##이신
##하나요
사나
수거
해킹
##부지방법원
낸다
안주
##던데요
##함의
진행하여
동생인
가해자
수단이
전념
세우는
지나면서
부산에서
##흡을
치료비
겪은
인근의
사투
하지는
지식이
##각형
견해에
볼리
제도에
성대
현수
따라야
열흘
시간으로
보험계약을
주변을
사우디아
대관
##들보다
간통
##지방세법
소득세
취급하는
시기의
주제에
서태
줄고
지역이다
켈
숫자를
비하
##공파
방에서
얘깁니다
태도가
조합원이
참석을
가지지
죽음에
제57조
주식회사에
##도서관
클린턴
나하고
맑은
전기를
일등
##미와
손해액을
보호할
심리적
네덜란드의
낯선
일실수입
레스토랑
up
하더라
##거에요
공론
분들의
장부
최하
그쪽에서
청구인의
제62조
기인한
##원가
됐지만
마찬가지고
##ᆻ겠죠
성씨
##설명
##말소
귀중한
평가는
활약하고
견해가
북쪽으로는
분쟁을
윤석열
아서
구마
##모델
큽니다
이론은
스트레스가
캄보디아
기피
양은
몰랐던
필요한데
공급을
활발한
##프레이
해변
10대
판단1
##스트의
명령에
조항은
어울리
것과는
전단의
청약
이용에
봉해졌다
의무는
받아들이고
어린이집
분노를
베네수엘라
부엌
##69
##식이다
포크
카드가
##멜
##이라니
출석하여
뷔
일대에
유격
##급으로
성범죄
버림
기대할
##트릭
마구
정선
때와
우는
##냐면은
##현진
성립되는
님께서는
햄버거
말의
북한도
개발제한
##관할
있겠어요
리메이크
인계
##곡의
사랑은
말소등기절차를
부에
살면
임료
##순위로
제6항에
참가하는
권리행
##욕이
지점이
##김치
던진
일건
오니까
회장은
드나
폭풍
뚱
##ᆸ시
사흘
굵은
##태에
용어로
##사업자가
000원과
유지될
높아지고
##마저도
기수
누설
코어
왕위
채권자에게
엘리트
유무를
제6항
소유권이전등기는
ㅋㅋㅋㅋㅋㅋㅋㅋㅋㅋㅋㅋㅋㅋㅋ
대체적으로
쇼와
##드라는
이백만
위축
정종
여는
없는데요
공휴
##비율에
걸러
제48
찍을
확정하고
브레이크
게을리
2위를
##꼭
말린
재판상
황제가
있으니까요
노력하고
순식간에
##sc
시마
부끄럽
파스타
민감한
번째로는
몰랐다
효율적으로
##7조에
사범
##바의
심부
존립
동일성이
언제든
소속사
이것만
연설을
편의상
##됨을
침이
##명령은
av
do
##나면
##하였어야
만을
않았어
영화도
적용된다고
성공회
통근
집안에
##층은
위원회의
역할은
가져올
경쟁이
인생이
##hz
##독이
대목이
일원으로
비위
태자
##ics
숨진
##화될
과학이
최근의
행사하지
이빨
있는지에
악용
부산에
##건설이
1896년
통화옵션
이스
가죽
##아닌
않으면서
알제
씨아
군단
시작했습니다
##메라
시행한
장소로
수만
그랜
배구
한국전쟁
비밀을
이억
아들의
##사정을
대세
뭐요
타자
청구원인
##있기
주의의무가
무리한
장치가
수수료를
et
##sk
##터에서
##체에서
행사의
갈게요
공개한
불가능하다
일률적으로
##지부
##리라
유형의
면담
고소장
system
소결론
##다5
고분
##태는
케이티
흐르고
몸무게
모르지
장성택
##현악
민병
표출
정신적인
등기명의
디자인을
시호는
부지를
감사를
어떤지
##벌을
벌레
대법원에서
바닷가
##스포츠
##박물관
구출
##들이랑
##했다면
누르
##스럽다
튀김
스티브
안드로이드
제작을
수로
나무를
외국의
위험에
사무실은
##뜸
있구
주셨어요
##원도
관점
##더래도
총리를
면에서는
법률을
싸운
정책은
관여법관
가축
지분이
보구
대해서만
쇼트
일컫는
띠고
##있으며
신통
1500
모르죠
자유와
좋겠네요
추가된
트레이드
부대를
최선
손가
좋아할
134
선생이
##적이었다
접근할
##가게
조정이
캘리포니아주
##건강보험
##기다
시외
정함에
미역
영감
그거야
필요없이
링컨
kr
##ᆻ음이
##꿔
주도는
원망
십억
##뎅
위증
##듯한
##병원에서
윤영
닦아
구멍이
##건으로
##교로
들어볼까요
민일영
것인데요
부설
되었으므로
아르메니아
공소를
신비
실형을
##본은
국가배상
비잔티
##랍
안장
평정
침묵
##신청은
고소인
사퇴를
##대왕
때때로
##냄
##창이
##나라를
1950년대
##ism
엿보
무사히
뭐였
내어
##전인
독일에
써요
에스파
검은색
의자
높을
##측에서
헌데
심판을
부득이
이산화
영세
20여
##말은
총선을
없어지는
name8
##뉴얼
지루
##상선
##금지가
##법무
##질은
문제점
제9호증의
##토지수용
마쓰다이라
지점에서
아이폰
넣었다
운영되고
122
시민들의
대변인이
최연
작성하고
룸
틀리
공판기록
자존심
by
ke
주었고
동기가
불에
부분입니다
본질적
지에
해군의
안좋
여러분은
영국은
범위내에서
삼성전자
##하거든
갔습니다
바라고
미디
모범
소각
방을
##합병
##어져서
이석기
한라
더운
##짝이
규정과
백삼십
사무소
##해지면
##껄
수에
자서
카탈
##느냐에
검찰총
##칸센
##다르
##세스
##한다라고
##네스코
##모르
맞물
보잉
택시를
이형
##미수
공격이
개는
좋네
합시다
승리로
서비스가
오스트레일리아의
카자흐
##ᆿㅋㅋㅋㅋㅋㅋ
정영
##려나
모레
내에서도
신재
박인
##받는다
대통령한테
미국도
온모
##먹은
아우구
인테리어
불확실
##시점
깍
붙이고
칼라
파리에서
지갑
##수술
##조와
호환
없을까요
전투기
mvp
##늠
##오오
들리는
디아
2007년에
노란색
불쾌
대통령으로
깨고
제시하고
아이스크림
최상위
##개량
##매각
임기가
정당에
묻어
귀여운
패스트트랙
##댕
삼척
##학교에
농지를
놓을
상속개시
취지와
의혹에
명예의
겹쳐
인멸
##르타
이제부터
사실도
##핍
사람하고
증말
##토시
장래에
사와
##자리를
##바는
##체계
##포의
여러분께
시청률
중화인민공화국의
시효취득
##정상회담
과도하게
전국의
일사
##보라
장관의
좋으니까
버렸다
늘고
봉투
장애를
3명
시치
사업은
티베트
언론사
##고로
##위기
손쉬
알았습니다
연결을
1세대
sa
ㅇㅋ
##법규
##공직
##물도
정리채권
회복을
##결제
만화를
세븐
김봉
부분만
프로를
##너는
발행하는
휴대전
자살을
지방자치단체가
등재되어
net
기점으로
##셀러
받습니다
있다고는
알았거나
행사하여
에이치
##ᆫ의
이기는
##주십시오
##금도
하였다가
해주시죠
헌법을
##조건에
정규직
많지만
팥
개발하고
블로
##지분에
상태였다
심리학
많았는데
하셨잖아요
##성이다
##동원
시간의
의미한다고
죽일
많았어요
표시가
마을을
university
그간
소나무
##조약
불고기
장은
완성이
133
통합을
입장에선
##싫
##적입니다
우주의
##들입니다
군부
꿇
##보증금을
대중교통
400만
왼손
팟캐
제사를
##위원이
유체
법으로
최강
##are
행복을
신뢰가
5천만
진급
스킨
정당을
축구를
이달
제갈
표방
식용
뉴스는
##시스트
분이에요
발현
왕족
##셨구요
으로부터
##람쥐
차지한
##ᆻ다시피
수첩
##치료를
소스를
개로
반공
##본에
양키
대리하여
김용덕
벌금형
양회경
정의할
항변에
##증거를
사카
없더라도
공적인
뭐에요
##산맥
왔으며
방패
##덮
개별공시지가
정비사업
썸
##양은
자연스러운
원칙상
시스템에
적절히
하순
포함이
##병원에
취득하고
요구가
만들어지는
뮤지션
ec
시립
##구매
말했
##내를
처리가
교사가
것인지에
품목
몬스터
시내버스
마르크스
취해
이유있어
손수
먹여
##커가
##조합이
첨단
와이프
신한은행
4개월
하태
##천에
출퇴근
독립한
않을까라는
갔고
한단
##발명은
집회를
푸는
결정했다
##소득에
본질적인
지위가
비평가
##루의
선곡
좋은데요
출신이
##ous
##드려요
##효과가
##㎡를
##ward
않겠나
##작전
번뇌
박병
있습니다마는
진술과
지적한
프랑스어
놀란
##벤처
차가운
챌린
제7호
오십이
일방적인
바리
영상으로
배로
규격
질러
귀에
어디를
늘어
규모는
##ᆸ스
사르
자위
서면으로
연평
재래
친구도
##총회를
채무자에게
거창
##해방
어촌
의병
20억
장원
극심한
수사기관에
모른다는
##시라고
시달
내걸
##진보
계상
실수로
헌정
유지하였다
끓는
bla
##ᆺ네
##되니까
그렇쵸
2006년에
소극적
##도면
##라기보다는
대감
노선은
증폭
파악을
변호인이
확인하기
이전등기
만들어낸
싫어요
1911년
원판결에
목욕탕
##ᆫ을
수증
도봉
돈의
전투에
상담글
설정되어
지시한
윤재식
천팔백
빌헬
떠나는
피상고인겸상고인
고난
선고하였다
##집행법
##농업
댓글을
그람
박영선
내지제
물어보고
목소리로
지상파
주인공은
연방의
장례식
##87
조율
이류
##유기
것이구요
##방법이
엄만
대한민국과
취소되어야
2005년에
제1호에서
낳았다
소홀히
##았고
##우치
동호
얘기해서
친환경
선거관리
데뷔전을
천안함
배고프
##ᆸ어
##ha
##지침
제삼
되더라고요
##교환
생각된다
정도밖에
##효과를
기억하고
압수된
2시간
행진
증자
운동도
회의에
그나저나
대파
기장
##부턴
조롱
##재에
##공사는
스핀
형평의
2008년에
##딩을
주거환경
핑크
바르셀로나
##br
공장이
선별
세가
치과
강조하고
시베리아
##구이
##음식
결국에
농장
불과할
프랜차
pol
대두
방북
##oci
생각만
##사업자
항공모
부여한
목표가
아사히
오성환
13년
낙하
목록은
증가하고
항고심판
2부
남자의
하남
충주
헤드
도움으로
고등학교를
목숨
##관절
신칸센
포획
백색
기각하는
영향력
이천십삼
즈음
가수가
동인이
결손
##매립
로이
첼
##봐서
높지
이용하고
2004년에
깔끔하게
rob
사진은
##티비
외부에서
관련돼서
사회복지
이번이
따른다
발행의
탐색
ㅜㅜㅜ
##학위를
반주
장병
##녀의
이해하는
매매계약에
자아
등록고
시설의
법령의적용
깐
##시길
자금으로
저명한
##오에
##민을
##킥
##집단
중심을
보호법
원작으로
불가피한
##었는
우연
##방조
할아버지가
##기일에서
5대
##ᆻ게
지진이
안치
진전
게스트
지구에
종료된
5분
##구멍
없겠죠
부분인
파이터
항고소송의
이인복
서초구
##41
대박이
아이슬
제41
이천칠
있대요
조아
촐
##으로부터의
과실에
힌두
이홍훈
지명을
미끄러
달달
테일러
경험과
사교육
##정책을
고스란
양정
필연
리조
이러지
일부에서는
크기로
##ict
밥이
줬다
쿠르
개최되었다
법사
열네
간신
해보세요
우울증
3위
##드루
##들까지
##장치를
공성
유네스코
##명하게
##반도
밸
까지로
취소하는
동일하다
부산고등법원
##채무는
##원들은
위계
여운
##실시
늙은
베토
측량
짜장면
##링을
아프고
사우디아라비아
3천
있듯이
사이다
##석유
##소송비용은
제공하여
이라고만
당신의
제주특별자치
싱글이다
사업연도의
우리나라도
구독
때리
잡힌
##ᆷ입니다
##들에게도
##줬다
독립적인
낙동
##쇰
가열
문재
실어
하여서는
인정의
아이씨
티비에
상품권
반론
저는요
나가사키
사안의
늘어나는
##가도
제지
##대상에
상수
본선의
##너가
섬을
cpu
아녜요
po
##화되는
경리
청주시
권순
##어지지
감독이다
둥근
항쟁함이
환산한
생중
##채널
효과적으로
이렇습니다
##사례
##형인
문제다
사람이고
##로부터의
전쟁으로
무효확인을
아내와
이때부터
429
프로젝트를
여인
##방식에
이규홍
떨어뜨리
##자금으로
많으
##하다라고
날입니다
만들지
폭스
##기관이다
50만
남성의
##참모
색을
발행주식
##인권
한대
##분한
무대에서
시간적
지원할
인간을
int
##ᆺ음
##거같은데
버스가
선거의
이행하라
쌤
고스란히
##사추
전력을
공기가
##오르
##오던
10시
결국엔
위법성이
휴전
펜실
한약
일까지
모드
고치
25일에
기타리스트
공사도급
일상생활
조인
부기
공안
결산
좋구요
##남은
사업으로
##창의
##규제법
와닿
출처
부드럽게
과세요
##무에
##오빠
##안타
행보를
취득하였다
추가하는
대학교에
콩나물
피디가
상호로
##업으로
만났는데
실패했다
든다
음주운전
8시
거세
##돈을
##했으니까
나간다
할려면
성모
파격
##백화
##온의
##텐츠를
피의자가
무너져
시라
##용품
무슬
##경기를
로그
뜨고
바라보고
교수의
있냐면
소에
공신
장군이
남원
단서에
타에
공사비
조항의
노르웨
##킬로미터
구석
선생님의
##앞서
##의에
##도도
우산
도시에
##두요
북중
아직까지도
실시간으로
얇은
넉넉히
##등에관한특례법
중년
20일에
데요
데를
퍼센트에
색이
놀랄
득점을
공민
욱
들면은
성수
호에
나왔죠
난방
월에
티켓
전투는
선임하여
전과가
프리미어리그
쾨
##하단
##도리
##여름
다듬
##코드
##린의
사람이라고
왕비
되었지만
임명되어
연고로
토지등소유
짐을
##공은
김의
내용들을
##봐라
결정의
양도하는
기능은
종류에
캐릭터를
달성하기
교향곡
전상석
갔었
국물이
##ᆺ이나
일부인
고려하지
이해하기
확정되어
돌아간
그만두고
모델이다
둘이서
6시
간선
넘치는
조직에
리눅스
가이드
##보관
모임이
우스
보통의
남편에
제시하는
개별적인
채증법칙위배
효율적인
##ᆺ나
##트니
성희
##님들
앞의
시간대
##사실의
음악의
지구를
웬만한
##괘
##겟다
대도
자리는
발이
##척을
민심을
제46조
기간동안
##신가요
개미
받으세요
##언스
자백을
트라우
이언
수분
##히로
##오염
서열
분비
##현과
총리는
씁
지정하는
방향에
디스플레이
international
대는
보드
##믹
##킹이
중국인
기술은
여기에다가
돼지고기
##지죠
압니다
우체
최적
참아
순으로
까닭
##길의
누구에게
옮긴
졸업하였다
##의무에
증명할
이양
그면
상원
공방
##딩이
토니
오십만
##운동에
신중하게
시뮬레이션
실검
반해
하루종일
3번째
##사에게
우파
제41조
보이기
100m
국내의
됐구요
뚜렷
##주실
경감
단체를
밝힐
오메가
5m
##지연
아산
몸의
계정
들어봤습니다
##청구가
진술서
돌아가고
##ᆻ었고
##제일
##대회를
실전
외과
산하에
급행
일치한
당선된
수요가
덴마크의
조광
인플
근데요
##배당
막부
충돌이
꽃을
특징으로
상실하게
비중을
요정
영의
30일에
붙이는
대여한
##샵
이씨
시중
모음
신종
성향을
##규정은
##온은
발견했다
이천십삼년
##단체의
베토벤
다친
속한다고
위반되는
하기가
제국이
##거라고
만의
많으시
들거든요
강조를
##형제
박창
기재하여
끝내고
내부적으로
2항
##oo
국산
국공
문법
##께선
000주
쪽의
받아들인
활약하였다
5의
가려고
미필
상상을
불기소
했었다
잡았다
극동
제70조
인터넷을
##트러
수단을
자란
달려가
잡기
평가에
하셨고
추진하고
##쌔
이효
조개
##학기
문서는
2020
군복
선고받고
멋지
정부도
해결해야
해보자
예금계좌
벤처
용도변경
베이스볼
##이래
##실적
##민들이
향하는
상세히
은근히
금성
##별한
어디야
수하
오르고
여우
##밤에
##돌아
##폐기
어떡해요
거지만
되긴
정문
세제
000명의
협의가
##셨지만
##츠와
길거리
에스토
##므
박현
돌을
##런스
부르며
몸에서
아파트가
내일도
마련해
##구역에
해봤는데
구성하고
반대하고
문서의
##순에게
##였나
손실이
휩쓸
##야는
얘기하면서
못합니다
판단하지
넘나
말입니까
##계약상의
##볕
통일부
마케도니아
인사가
##업은
강박
진행하실
##베스트
쿡
수락
기록된
어이구
루트비히
지중해
조에
##위임
신촌
볼턴
나왔어
벌어질
##촉탁
숙청
하늘이
묵은
2세가
##었구요
말과
라트
점으로
##희에
용어가
까마
기업을
봉안
액수를
마련된
1909년
근처의
##었으니까
안기
안드레
기재만으로는
공무원연금
비주얼
이심
하노
나네요
원인에
##성적
##하게도
##직의
로즈
십여
이야기들이
드러나는
예정된
바도
공사는
유정
##낸다
받침
점프
현재도
좋아하지
키울
설립하여
흐른
멤버로
신정철
사관
같은달
##과학기술
기운이
##로동
났어요
##하기까지
대통령하고
얻어야
포괄하여
하기에
수분이
한인
원더
매카
드리도록
악성
정책의
ev
자부
심장이
부인하는
예측할
있대
저택
부문에
##셨으니까
심근
아무나
중요성을
소론은
##나갈
저래
되겠네
민감
##언의
중국으로
##ound
성과가
이데
가자고
수확
##전략
금리
증진
작게
##포인트
외야
##ink
제2심서울
##인줄
동향
및제
보니까는
제1심에서
오해하거나
아니냐는
##구역으로
곰팡
되길
김호
라고만
문화방송
##ise
슬래
무엇일까요
##일수록
명이나
하나님의
주문을
위치하며
##ᆸ쌀
그이
당시부터
용도와
레전드
##시장의
##상가
반발을
양식을
압력
잔디
불법적인
can
##대회에서
원유
일산
참을
##산면
실장님
##번을
##작은
십자가
##드릴까요
##하더라
동정
개화
##번이
##셨는지
판결결과에
##별지
##ene
버리면
의구
중기의
##본의
감동을
손흥
하나로서
선수들을
독일이
당사자는
해주실
변제에
필라델피아
예가
각자가
역량을
내용입니다
주식회사가
욕심이
분포한다
퐁당
조세법률
마리오
것이어야
##력이나
명백하게
쉽고
베이비
빌려주
차용한
양평
생각나는
열일곱
뜨거워
건물과
채무는
담당한
실패를
##ement
밴드의
보좌관
일날
소릴
##소방
추산
됐는지
제출하는
##ude
방이
##카페
밟아
방사능
콜레스테롤
죠
##a의
##이익을
##더블
본부장
경제의
가져오는
운전하여
이론이
김성수
둥글
돌이켜
050
국보
원심인
팔려
온라
무효임을
입증을
공간의
##소유권이전등
일관되게
트루
거액의
소신
##비율을
##관리에
한다거나
박연
열여섯
경락허가
말씀하셨듯이
불합리
mo
주립
##법조
책봉
황해도
만나지
나타낼
돌아갔다
않았다면
1915년
##하구나
때리고
고기가
진한
성인이
키운
##열차
노래방
##퍼스
성립이
외국어
오빠는
피고보조참가
##니치
시에서
김흥
제1목록
참으로
한국토지
적용에
신청이
근무하면서
끌어들
가입을
역임한
유상증자
원장이
##소멸
감상
익혀
예상할
아이템
부부는
동요
배당을
증대
심정
준거
규모를
직원들
##가격에
##스려
##이전
모금
안용
힘들지
##대상자
밖에도
있더라구요
대서양
##보네
때요
유지가
금융기관의
##압이
기여했다
샐러드
her
##ng
유방
와카
좋고요
리틀
선택하는
시즌이
매수인
비행기를
부대가
대표변호
온다고
보험가입
퇴각
##클로
대상은
##밀리에
##낌
##이백
나면은
관철
되었다가
##들과는
헌신
##내용은
의사표시
다룰
흐리
제의를
##되서
##렵
세련
처가
상황이다
제공된
남편인
됐잖아요
영원한
##홈런
이바지
지완
##보리
선구
##학적인
파주
하면요
지원하고
오해하는
##계산서
이쪽에
공장의
무관한
추정을
계속하고
##시키면서
요청한
변화는
이적했다
모으고
이덕
유소년
서적
절망
자기소개
다투고
제1심판결의
당당하게
##얄
데리
왕실
벗어나는
##스컵
통증이
파출
타서
나가게
짜리
심리하여
공간에서
케네
바꾸었다
요건으로
애매한
상황인데요
창문
자유가
전문의
##주택을
겸손
다행이다
고생을
댕
체인
총회의
시작하였고
응우옌
##대학교의
변제하지
시험에
없었다면
이익은
제품에
짚고
이기고
##사이드
경우라도
포럼
##직은
투구
효과적인
컴백
변제한
선진국
불필요한
엉뚱한
사당
도의
##양에
얘기했지만
잠실
부동산등기
초과한
맡았으며
스튜어
##뜰
수제
##상인
지금까지는
변수가
받았지만
16세기
홍수
##싶은
##프로그래
##5호
뭐고
사용하며
지급하여
레논
도덕적
미성년자
아녀
##토지를
친절한
지급하였다
저희들
보이스
시행으로
hy
쏜
##tc
엇
##나오
본회의
##카라
##검토
방영되었다
위조된
이례적인
과소
불균
용도를
증거자료
엄마의
일치하는
말씀드렸듯이
일년에
점이다
##란트
초월
립
##채의
이용우
작곡한
몬트리
익숙한
##쫓
##ᆫ이
##터널
세네
##청인
##원이라는
출시된
구간을
##두리
전문가가
조성된
알바니아
신라의
사는데
제철
조속
피고김
장점을
귀신
것인가에
흥선
수용할
주목할
착오에
9개
제34조
속초
가지며
연결해
해봅니다
구금일수중
네모
경미한
당은
##물산
본점
피고인들에게
심의를
##삼백
반영이
달러의
펀드
대게
물의
##버섯
##환송
힐링
자동차에
납부하지
랜드
##공무원의
언젠가는
che
##치도
선에서
##합동
약사
약관의
##ition
책임질
특정경제범죄
지우
##주체
##터미널
등지에서
제1항을
기대하고
선박에
바나나
원세
##포는
##석탑
쓰면서
##시킴으로써
힘들어서
나섰다
리그에
나눠보겠습니다
##닉스
##햄
##려구요
##세츠
안종
천오백
소송수계
끌려가
슬라
시켜야
드렸는데
3호
사바
말투
당부
적에
막걸리
가진다고
보상금을
더더욱
14년
##되더라도
때인
유라
성적으로
감행
##불을
방법이다
특허법
수인
##년도에
상호를
소유권의
국민건강보험
##비용의
결혼하고
잘못하면
피해자로부터
##드려야
##스에게
일대의
받아요
내려오는
독일어
박보영
대사가
기관의
구분이
종의
##암으로
김경래
비밀이
공동불법행위
##ᆮ는다
##조서에
어딘
##탄이
책임지고
걱정하는
다는
##문기
셀레
장영
##해야만
글래
재산은
조사하여
제출기간이
과학자
시민의
형성하고
지배하는
음식은
##기라고
주겠다고
##매일
상고기각
##례의
다르다고
##원고가
직원인
얇게
일컬
여기를
번쯤
곡의
그렇지요
트로트
대한주택
##식에게
단어는
##광을
좋아하시
설립하였다
범행이
벽돌
동영상을
과격
인도는
동명
국고
##테니
##황을
##줬으면
곳의
설명한
정하여진
초순경
##be
##화도
##무장
공기업
추증
남경
##임용
베란다
##ᆺ밤
시에는
부호
유교
결재
임금의
울산광역시
이렇다
모서
들면서
제3호의
고려한
탄핵을
har
결렬
##현대
제47조
학교법인의
##것이다
##돈이
춘추
xxxx
ㅠㅠㅠㅠ
실적
명씩
##론에서
왕위를
6억
##지오
보훈
마천
저요
부장님
재료가
장흥
현종
##작성의
##째로
##백과
##기독
좋겠고
부인할
급격하게
업그레이드
이도
났을
받는데
제3차
것인지를
제2항이
올려서
순간이
폴란드의
밀어붙
##fl
주는데
마일
##분들도
1960
프로그램에서
이력
##졌던
양재
역량
아이오
죄는
선생님도
교통사고로
##쿼
##간은
서명을
진공
국민들을
중요하죠
상대를
살펴볼까요
아리랑
기를
마카
분단
유지하면서
1가
##파일러
리우
조선에
조사는
정리하고
가실
##상고
신세계
접견
##측정
마지막이
혈중
##하겠다라고
친일파
빌헬름
##하느라
##서기
바비
경의
번식
싫어서
됐네요
##ㅡㅡ
대안을
자라고
다크
원치
분께
##평형
극한
##잡은
특허심판
땅콩
##ake
##시장에서
정립
소니
##초과
실패로
주도한
표고
11년
니들
##센트
폭파
성격에
##증명서
선사
동문
동승
명종
교대
씻고
데에서
##침해
부산시
예정되어
흐름이
트라이
##으ᄅ
##a는
선교사
불참
열리고
서울을
방법과
히가시
운영이
##신청서를
적법하다
1913년
가르치
결합하여
어서오
커피를
방사선
천황의
쿠데타
가하는
저격
##바시
불린
##역사
의하여야
시작했으며
영역에서
우월
사건입니다
높이기
기록하는
공동피고
없어야
발표하고
지휘관
그리스어
중위
동메달을
현물
청량
심히
잔뜩
2009년에
매입한
iii
하드웨어
리버풀
우즈베
2군
##되다
자판
연대를
하고는
##티드
카이사
버전은
##평은
수고하셨습니다
사만
시신
소총
뭐뭐
성이
간판
송시
##패로
프랑스에
접촉을
냉장고에
교도소
##해달라
하겠
시끄럽
동산
12개
충무
맛있죠
해석은
장관에
갚아
가해자가
거치면서
엊
되풀이
에우
만연히
줄이기
계약서를
잔류
파악할
##요금
조승
##술의
표면에
제3의
보내주세요
회사인
##균의
자녀가
쇼핑몰
치르
별명을
라이선
봐야지
##셔야죠
서식한다
리투아니아
미션
##바리
귀순
이랬는데
궁금해서
sl
시멘트
수료
분광
간절
선생의
##enn
##완성
물어볼
지구에서
구속된
치렀다
##겁니다
##날이
편곡
제44
알려지게
다르다는
아니냐라는
##ᆺ에
##기일을
마오
오사
스노
한국으로
휴스턴
법리오해나
움직이고
공정증서
좋아한다
##누락
핵심이
트럼
조세감면
신현
세조
하였지만
파동
관계자는
배치되어
고위급
사업자등록
판단유탈
이반
내일이
선내
요지가
박승
롬
애도
총선에
시작된다
##나라에
판매하고
뉘앙
가방을
지문
유시민
문건을
입힌
걸려서
순회
지방도
측면을
1895년
조그만
바그
손괴
당사자들의
주도로
조형
들었고
리뷰
탤런
광주시
일반인
살아온
뭉쳐
가쓰
것의
한층
정호
비밀리에
세관
계몽
##예프
규범
직책
10일에
완납
선거법
##건설에
슬슬
##운동의
불안정
연애를
나죠
##본다
운이
##이었어
채권양
하셨죠
600만
비상장
##스파
판명
무승
사라졌다
통증
##목적을
지구가
쎌
강신욱
제트
##주년을
일심
무자
박대
판단됩니다
##옥이
감독과
제10호증의
이곳을
##부동산에
졸리
##하겠죠
강희
살을
헤헤
죄의
생산을
경영권
선정된
형식적
없나요
비자금
직장을
심문
탄원
cj
##gr
##유는
도형
사건이다
연소
최장
올라오는
조합을
수사기관에서
##und
수축
##붓
##상당
##성장
들구요
항의를
##학교의
패권
관계도
보여서
확정적으로
제7호증
지도부
매출액
대우를
ir
화살
생각하기
사용자는
권리에
결혼식을
묵시적
##사원
수익이
무방
향하여
근거는
짧아
뽑은
지뢰
봅시다
피부가
생전에
##경위
손익
무릎을
je
##뜨리고
##라니까
법제
교회를
##입찰
봤거든요
선수들은
하지만은
양도에
독립적으로
##등기소
둔다
개입을
iso
소장이
[...]
